{
  "version": "1.0",
  "truncation": {
    "direction": "Right",
    "max_length": 256,
    "strategy": "LongestFirst",
    "stride": 0
  },
  "padding": {
    "strategy": "BatchLongest",
    "direction": "Right",
    "pad_to_multiple_of": null,
    "pad_id": 16340,
    "pad_type_id": 0,
    "pad_token": "[PAD]"
  },
  "added_tokens": [
    {
      "id": 16338,
      "content": "[CLS]",
      "single_word": false,
      "lstrip": false,
      "rstrip": false,
      "normalized": false,
      "special": true
    },
    {
      "id": 16339,
      "content": "[MASK]",
      "single_word": false,
      "lstrip": false,
      "rstrip": false,
      "normalized": false,
      "special": true
    },
    {
      "id": 16340,
      "content": "[PAD]",
      "single_word": false,
      "lstrip": false,
      "rstrip": false,
      "normalized": false,
      "special": true
    },
    {
      "id": 16341,
      "content": "[SEP]",
      "single_word": false,
      "lstrip": false,
      "rstrip": false,
      "normalized": false,
      "special": true
    },
    {
      "id": 16342,
      "content": "[UNK]",
      "single_word": false,
      "lstrip": false,
      "rstrip": false,
      "normalized": false,
      "special": true
    }
  ],
  "normalizer": {
    "type": "BertNormalizer",
    "clean_text": true,
    "handle_chinese_chars": true,
    "strip_accents": true,
    "lowercase": false
  },
  "pre_tokenizer": {
    "type": "BertPreTokenizer"
  },
  "post_processor": {
    "type": "TemplateProcessing",
    "single": [
      {
        "SpecialToken": {
          "id": "[CLS]",
          "type_id": 0
        }
      },
      {
        "Sequence": {
          "id": "A",
          "type_id": 0
        }
      },
      {
        "SpecialToken": {
          "id": "[SEP]",
          "type_id": 0
        }
      }
    ],
    "pair": [
      {
        "SpecialToken": {
          "id": "[CLS]",
          "type_id": 0
        }
      },
      {
        "Sequence": {
          "id": "A",
          "type_id": 0
        }
      },
      {
        "SpecialToken": {
          "id": "[SEP]",
          "type_id": 0
        }
      },
      {
        "Sequence": {
          "id": "B",
          "type_id": 1
        }
      },
      {
        "SpecialToken": {
          "id": "[SEP]",
          "type_id": 1
        }
      }
    ],
    "special_tokens": {
      "[CLS]": {
        "id": "[CLS]",
        "ids": [
          16338
        ],
        "tokens": [
          "[CLS]"
        ]
      },
      "[SEP]": {
        "id": "[SEP]",
        "ids": [
          16341
        ],
        "tokens": [
          "[SEP]"
        ]
      }
    }
  },
  "decoder": {
    "type": "WordPiece",
    "prefix": "##",
    "cleanup": true
  },
  "model": {
    "type": "WordPiece",
    "unk_token": "[UNK]",
    "continuing_subword_prefix": "##",
    "max_input_chars_per_word": 100,
    "vocab": {
      "!": 0,
      "\"": 1,
      "#": 2,
      "##0": 3,
      "##00": 4,
      "##000": 5,
      "##0000": 6,
      "##00000": 7,
      "##00000000": 8,
      "##0000000000000000": 9,
      "##001": 10,
      "##002": 11,
      "##003": 12,
      "##004": 13,
      "##005": 14,
      "##01": 15,
      "##02": 16,
      "##03": 17,
      "##04": 18,
      "##05": 19,
      "##06": 20,
      "##07": 21,
      "##08": 22,
      "##0817": 23,
      "##09": 24,
      "##1": 25,
      "##10": 26,
      "##100": 27,
      "##1000": 28,
      "##101": 29,
      "##102": 30,
      "##103": 31,
      "##104": 32,
      "##105": 33,
      "##106": 34,
      "##107": 35,
      "##108": 36,
      "##109": 37,
      "##11": 38,
      "##111": 39,
      "##1111": 40,
      "##112": 41,
      "##113": 42,
      "##114": 43,
      "##115": 44,
      "##116": 45,
      "##117": 46,
      "##118": 47,
      "##119": 48,
      "##12": 49,
      "##120": 50,
      "##121": 51,
      "##122": 52,
      "##123": 53,
      "##124": 54,
      "##125": 55,
      "##126": 56,
      "##127": 57,
      "##128": 58,
      "##129": 59,
      "##13": 60,
      "##130": 61,
      "##131": 62,
      "##132": 63,
      "##133": 64,
      "##134": 65,
      "##135": 66,
      "##136": 67,
      "##137": 68,
      "##138": 69,
      "##139": 70,
      "##14": 71,
      "##140": 72,
      "##141": 73,
      "##142": 74,
      "##143": 75,
      "##144": 76,
      "##145": 77,
      "##146": 78,
      "##147": 79,
      "##148": 80,
      "##149": 81,
      "##14W": 82,
      "##15": 83,
      "##150": 84,
      "##151": 85,
      "##152": 86,
      "##155": 87,
      "##156": 88,
      "##158": 89,
      "##159": 90,
      "##16": 91,
      "##160": 92,
      "##163": 93,
      "##17": 94,
      "##170": 95,
      "##175": 96,
      "##177": 97,
      "##18": 98,
      "##180": 99,
      "##19": 100,
      "##190": 101,
      "##191": 102,
      "##192": 103,
      "##195": 104,
      "##197": 105,
      "##199": 106,
      "##1E": 107,
      "##1s": 108,
      "##2": 109,
      "##20": 110,
      "##200": 111,
      "##2000": 112,
      "##2001": 113,
      "##2003": 114,
      "##2005": 115,
      "##2008": 116,
      "##201": 117,
      "##2010": 118,
      "##2012": 119,
      "##2014": 120,
      "##2015": 121,
      "##202": 122,
      "##203": 123,
      "##204": 124,
      "##205": 125,
      "##206": 126,
      "##207": 127,
      "##208": 128,
      "##209": 129,
      "##21": 130,
      "##22": 131,
      "##222": 132,
      "##223": 133,
      "##224": 134,
      "##227": 135,
      "##23": 136,
      "##235": 137,
      "##238": 138,
      "##24": 139,
      "##245": 140,
      "##25": 141,
      "##255": 142,
      "##256": 143,
      "##258": 144,
      "##26": 145,
      "##27": 146,
      "##270": 147,
      "##273": 148,
      "##275": 149,
      "##279": 150,
      "##28": 151,
      "##29": 152,
      "##293": 153,
      "##296": 154,
      "##2E": 155,
      "##2p": 156,
      "##2s": 157,
      "##3": 158,
      "##30": 159,
      "##300": 160,
      "##301": 161,
      "##302": 162,
      "##303": 163,
      "##304": 164,
      "##305": 165,
      "##307": 166,
      "##308": 167,
      "##309": 168,
      "##31": 169,
      "##32": 170,
      "##33": 171,
      "##336": 172,
      "##336W": 173,
      "##34": 174,
      "##35": 175,
      "##355": 176,
      "##36": 177,
      "##37": 178,
      "##370": 179,
      "##37−": 180,
      "##38": 181,
      "##39": 182,
      "##3D": 183,
      "##3E": 184,
      "##3d": 185,
      "##3p": 186,
      "##4": 187,
      "##40": 188,
      "##400": 189,
      "##401": 190,
      "##405": 191,
      "##41": 192,
      "##42": 193,
      "##43": 194,
      "##44": 195,
      "##45": 196,
      "##458": 197,
      "##46": 198,
      "##47": 199,
      "##48": 200,
      "##49": 201,
      "##4959": 202,
      "##4E": 203,
      "##5": 204,
      "##50": 205,
      "##500": 206,
      "##5007": 207,
      "##501": 208,
      "##502": 209,
      "##503": 210,
      "##505": 211,
      "##506": 212,
      "##508": 213,
      "##509": 214,
      "##51": 215,
      "##52": 216,
      "##53": 217,
      "##54": 218,
      "##55": 219,
      "##555": 220,
      "##55−": 221,
      "##56": 222,
      "##57": 223,
      "##58": 224,
      "##59": 225,
      "##5W": 226,
      "##6": 227,
      "##60": 228,
      "##600": 229,
      "##606": 230,
      "##61": 231,
      "##62": 232,
      "##63": 233,
      "##6300": 234,
      "##64": 235,
      "##65": 236,
      "##658": 237,
      "##66": 238,
      "##67": 239,
      "##68": 240,
      "##69": 241,
      "##6E": 242,
      "##7": 243,
      "##70": 244,
      "##71": 245,
      "##72": 246,
      "##73": 247,
      "##74": 248,
      "##75": 249,
      "##76": 250,
      "##77": 251,
      "##78": 252,
      "##79": 253,
      "##7E": 254,
      "##8": 255,
      "##80": 256,
      "##800": 257,
      "##81": 258,
      "##82": 259,
      "##83": 260,
      "##84": 261,
      "##85": 262,
      "##86": 263,
      "##87": 264,
      "##88": 265,
      "##89": 266,
      "##8E": 267,
      "##9": 268,
      "##90": 269,
      "##91": 270,
      "##914": 271,
      "##92": 272,
      "##93": 273,
      "##94": 274,
      "##95": 275,
      "##96": 276,
      "##97": 277,
      "##98": 278,
      "##99": 279,
      "##9E": 280,
      "##A": 281,
      "##A1": 282,
      "##AA": 283,
      "##AB": 284,
      "##ABILITY": 285,
      "##AC": 286,
      "##ACE": 287,
      "##ACH": 288,
      "##ACK": 289,
      "##ACS": 290,
      "##ACT": 291,
      "##ACTION": 292,
      "##AD": 293,
      "##AF": 294,
      "##AFS": 295,
      "##AG": 296,
      "##AH": 297,
      "##AI": 298,
      "##AK": 299,
      "##AL": 300,
      "##ALE": 301,
      "##ALFA": 302,
      "##ALL": 303,
      "##ALP": 304,
      "##ALS": 305,
      "##AM": 306,
      "##AME": 307,
      "##AMES": 308,
      "##AMP": 309,
      "##AMS": 310,
      "##AN": 311,
      "##ANCE": 312,
      "##AND": 313,
      "##ANE": 314,
      "##ANES": 315,
      "##ANG": 316,
      "##ANS": 317,
      "##ANT": 318,
      "##ANTI": 319,
      "##AO": 320,
      "##AP": 321,
      "##APE": 322,
      "##APH": 323,
      "##APP": 324,
      "##AR": 325,
      "##ARA": 326,
      "##ARC": 327,
      "##ARCH": 328,
      "##ARD": 329,
      "##ARE": 330,
      "##ARES": 331,
      "##ARI": 332,
      "##ARK": 333,
      "##ARS": 334,
      "##ART": 335,
      "##ARY": 336,
      "##AS": 337,
      "##ASA": 338,
      "##ASE": 339,
      "##ASH": 340,
      "##ASI": 341,
      "##ASP": 342,
      "##ASS": 343,
      "##AST": 344,
      "##AT": 345,
      "##ATA": 346,
      "##ATE": 347,
      "##ATED": 348,
      "##ATES": 349,
      "##ATH": 350,
      "##ATING": 351,
      "##ATION": 352,
      "##ATIONAL": 353,
      "##ATIONS": 354,
      "##ATIVE": 355,
      "##ATURE": 356,
      "##AU": 357,
      "##AV": 358,
      "##AVE": 359,
      "##AVEL": 360,
      "##AW": 361,
      "##AX": 362,
      "##AY": 363,
      "##Al": 364,
      "##Ap": 365,
      "##Ar": 366,
      "##As": 367,
      "##B": 368,
      "##BA": 369,
      "##BAL": 370,
      "##BB": 371,
      "##BC": 372,
      "##BE": 373,
      "##BER": 374,
      "##BERG": 375,
      "##BG": 376,
      "##BH": 377,
      "##BHs": 378,
      "##BI": 379,
      "##BJ": 380,
      "##BL": 381,
      "##BLE": 382,
      "##BN": 383,
      "##BO": 384,
      "##BOSS": 385,
      "##BP": 386,
      "##BR": 387,
      "##BS": 388,
      "##BUR": 389,
      "##BW": 390,
      "##BY": 391,
      "##Be": 392,
      "##Br": 393,
      "##Bs": 394,
      "##C": 395,
      "##C03": 396,
      "##C1": 397,
      "##C2": 398,
      "##CA": 399,
      "##CAM": 400,
      "##CAT": 401,
      "##CC": 402,
      "##CD": 403,
      "##CDM": 404,
      "##CE": 405,
      "##CES": 406,
      "##CF": 407,
      "##CH": 408,
      "##CHE": 409,
      "##CHI": 410,
      "##CI": 411,
      "##CK": 412,
      "##CL": 413,
      "##CM": 414,
      "##CMT": 415,
      "##CN": 416,
      "##CO": 417,
      "##COS": 418,
      "##COSMOS": 419,
      "##CP": 420,
      "##CR": 421,
      "##CS": 422,
      "##CT": 423,
      "##CTION": 424,
      "##CTR": 425,
      "##CU": 426,
      "##CUL": 427,
      "##CV": 428,
      "##CW": 429,
      "##CWCT": 430,
      "##CX": 431,
      "##CZ": 432,
      "##Ca": 433,
      "##Cam": 434,
      "##Cl": 435,
      "##Co": 436,
      "##Cr": 437,
      "##Cs": 438,
      "##Cube": 439,
      "##D": 440,
      "##D0": 441,
      "##D1": 442,
      "##D2": 443,
      "##D3": 444,
      "##D3D": 445,
      "##D6": 446,
      "##D7": 447,
      "##D8": 448,
      "##D9": 449,
      "##DA": 450,
      "##DAR": 451,
      "##DARN": 452,
      "##DAS": 453,
      "##DB": 454,
      "##DC": 455,
      "##DD": 456,
      "##DE": 457,
      "##DEF": 458,
      "##DEN": 459,
      "##DER": 460,
      "##DF": 461,
      "##DFs": 462,
      "##DI": 463,
      "##DL": 464,
      "##DM": 465,
      "##DO": 466,
      "##DP": 467,
      "##DR": 468,
      "##DS": 469,
      "##DW": 470,
      "##Ds": 471,
      "##E": 472,
      "##EA": 473,
      "##EB": 474,
      "##EC": 475,
      "##ECK": 476,
      "##ECS": 477,
      "##ECT": 478,
      "##ECTION": 479,
      "##ECTS": 480,
      "##ED": 481,
      "##EE": 482,
      "##EEN": 483,
      "##EF": 484,
      "##EG": 485,
      "##EL": 486,
      "##ELA": 487,
      "##ELD": 488,
      "##ELL": 489,
      "##ELLAR": 490,
      "##ELS": 491,
      "##ELT": 492,
      "##EM": 493,
      "##EMP": 494,
      "##EN": 495,
      "##ENA": 496,
      "##ENC": 497,
      "##ENCE": 498,
      "##ENCY": 499,
      "##END": 500,
      "##ENDI": 501,
      "##ENDIX": 502,
      "##ENE": 503,
      "##ENG": 504,
      "##ENGER": 505,
      "##ENGTH": 506,
      "##ENN": 507,
      "##ENS": 508,
      "##ENSITY": 509,
      "##ENT": 510,
      "##ENTIAL": 511,
      "##ENTS": 512,
      "##EO": 513,
      "##EP": 514,
      "##EP2": 515,
      "##ER": 516,
      "##ERA": 517,
      "##ERC": 518,
      "##ERE": 519,
      "##ERG": 520,
      "##ERICAL": 521,
      "##ERM": 522,
      "##ERN": 523,
      "##ERS": 524,
      "##ERSON": 525,
      "##ERT": 526,
      "##ERV": 527,
      "##ES": 528,
      "##ESS": 529,
      "##EST": 530,
      "##ET": 531,
      "##ETER": 532,
      "##ETERS": 533,
      "##ETR": 534,
      "##ETT": 535,
      "##EV": 536,
      "##EW": 537,
      "##EX": 538,
      "##Es": 539,
      "##E−": 540,
      "##F": 541,
      "##F1": 542,
      "##F2": 543,
      "##FA": 544,
      "##FC": 545,
      "##FE": 546,
      "##FER": 547,
      "##FERENC": 548,
      "##FF": 549,
      "##FGL": 550,
      "##FI": 551,
      "##FIT": 552,
      "##FL": 553,
      "##FM": 554,
      "##FOR": 555,
      "##FORM": 556,
      "##FR": 557,
      "##FS": 558,
      "##FT": 559,
      "##Fad": 560,
      "##Fe": 561,
      "##Fs": 562,
      "##G": 563,
      "##GA": 564,
      "##GAL": 565,
      "##GAN": 566,
      "##GB": 567,
      "##GC": 568,
      "##GCM": 569,
      "##GCs": 570,
      "##GD": 571,
      "##GE": 572,
      "##GEE": 573,
      "##GEM": 574,
      "##GEN": 575,
      "##GER": 576,
      "##GES": 577,
      "##GET": 578,
      "##GH": 579,
      "##GHz": 580,
      "##GL": 581,
      "##GM": 582,
      "##GO": 583,
      "##GPa": 584,
      "##GR": 585,
      "##GRA": 586,
      "##GRI": 587,
      "##GRO": 588,
      "##GRS": 589,
      "##GS": 590,
      "##GT": 591,
      "##GTs": 592,
      "##Ga": 593,
      "##Ge": 594,
      "##GeV": 595,
      "##Graphic": 596,
      "##Gs": 597,
      "##H": 598,
      "##H2": 599,
      "##HA": 600,
      "##HAN": 601,
      "##HD": 602,
      "##HE": 603,
      "##HER": 604,
      "##HH": 605,
      "##HI": 606,
      "##HK": 607,
      "##HL": 608,
      "##HM": 609,
      "##HN": 610,
      "##HO": 611,
      "##HR": 612,
      "##HRR": 613,
      "##HS": 614,
      "##HT": 615,
      "##He": 616,
      "##Hf": 617,
      "##Hs": 618,
      "##Hz": 619,
      "##I": 620,
      "##IA": 621,
      "##IAL": 622,
      "##IAN": 623,
      "##IB": 624,
      "##IC": 625,
      "##ICA": 626,
      "##ICAL": 627,
      "##ICATION": 628,
      "##ICATIONS": 629,
      "##ICE": 630,
      "##ICH": 631,
      "##ICI": 632,
      "##ICK": 633,
      "##ICS": 634,
      "##ID": 635,
      "##IDE": 636,
      "##IDs": 637,
      "##IE": 638,
      "##IER": 639,
      "##IES": 640,
      "##IF": 641,
      "##IFI": 642,
      "##IFT": 643,
      "##IG": 644,
      "##IGH": 645,
      "##IGHT": 646,
      "##IGO": 647,
      "##II": 648,
      "##III": 649,
      "##IIII": 650,
      "##IK": 651,
      "##IL": 652,
      "##ILE": 653,
      "##ILITY": 654,
      "##ILL": 655,
      "##ILLI": 656,
      "##IM": 657,
      "##IMA": 658,
      "##IME": 659,
      "##IMOS": 660,
      "##IMP": 661,
      "##IN": 662,
      "##INA": 663,
      "##IND": 664,
      "##INE": 665,
      "##ING": 666,
      "##INGS": 667,
      "##INO": 668,
      "##INS": 669,
      "##INSON": 670,
      "##INT": 671,
      "##IO": 672,
      "##IOD": 673,
      "##ION": 674,
      "##IONS": 675,
      "##IP": 676,
      "##IR": 677,
      "##IRE": 678,
      "##IRG": 679,
      "##IRGs": 680,
      "##IRIS": 681,
      "##IRO": 682,
      "##IRS": 683,
      "##IRST": 684,
      "##IRT": 685,
      "##IS": 686,
      "##ISA": 687,
      "##ISE": 688,
      "##ISH": 689,
      "##ISIS": 690,
      "##ISISISIS": 691,
      "##ISM": 692,
      "##ISON": 693,
      "##ISS": 694,
      "##IST": 695,
      "##ISTA": 696,
      "##IT": 697,
      "##ITA": 698,
      "##ITAS": 699,
      "##ITE": 700,
      "##ITES": 701,
      "##ITH": 702,
      "##ITIES": 703,
      "##ITION": 704,
      "##ITS": 705,
      "##ITT": 706,
      "##ITU": 707,
      "##ITUDE": 708,
      "##ITY": 709,
      "##ITZ": 710,
      "##IUM": 711,
      "##IV": 712,
      "##IVE": 713,
      "##IVITY": 714,
      "##IW": 715,
      "##IX": 716,
      "##IZ": 717,
      "##IZATION": 718,
      "##Ia": 719,
      "##In": 720,
      "##Is": 721,
      "##J": 722,
      "##JD": 723,
      "##JJ": 724,
      "##Jy": 725,
      "##K": 726,
      "##KA": 727,
      "##KAL": 728,
      "##KB": 729,
      "##KE": 730,
      "##KEN": 731,
      "##KER": 732,
      "##KH": 733,
      "##KI": 734,
      "##KIN": 735,
      "##KO": 736,
      "##KP": 737,
      "##KS": 738,
      "##KY": 739,
      "##L": 740,
      "##LA": 741,
      "##LAB": 742,
      "##LAG": 743,
      "##LAND": 744,
      "##LAS": 745,
      "##LASS": 746,
      "##LE": 747,
      "##LED": 748,
      "##LER": 749,
      "##LES": 750,
      "##LET": 751,
      "##LEX": 752,
      "##LEY": 753,
      "##LF": 754,
      "##LFs": 755,
      "##LI": 756,
      "##LIN": 757,
      "##LING": 758,
      "##LL": 759,
      "##LM": 760,
      "##LO": 761,
      "##LP": 762,
      "##LR": 763,
      "##LS": 764,
      "##LSON": 765,
      "##LT": 766,
      "##LUS": 767,
      "##LY": 768,
      "##Len": 769,
      "##LenS": 770,
      "##Li": 771,
      "##Ls": 772,
      "##M": 773,
      "##M1": 774,
      "##M2": 775,
      "##MA": 776,
      "##MAG": 777,
      "##MAGNET": 778,
      "##MAN": 779,
      "##MANN": 780,
      "##MAP": 781,
      "##MASS": 782,
      "##MB": 783,
      "##MC": 784,
      "##ME": 785,
      "##MENT": 786,
      "##MENTS": 787,
      "##MER": 788,
      "##MF": 789,
      "##MHD": 790,
      "##MHz": 791,
      "##MIS": 792,
      "##ML": 793,
      "##MM": 794,
      "##MO": 795,
      "##MOS": 796,
      "##MP": 797,
      "##MR": 798,
      "##MS": 799,
      "##MW": 800,
      "##MWF": 801,
      "##Ma": 802,
      "##MeV": 803,
      "##Mg": 804,
      "##Mn": 805,
      "##Mpc": 806,
      "##Ms": 807,
      "##Myr": 808,
      "##N": 809,
      "##N2": 810,
      "##NA": 811,
      "##NAL": 812,
      "##NC": 813,
      "##ND": 814,
      "##NE": 815,
      "##NER": 816,
      "##NET": 817,
      "##NF": 818,
      "##NGA": 819,
      "##NH": 820,
      "##NI": 821,
      "##NM": 822,
      "##NN": 823,
      "##NNNN": 824,
      "##NNNNNNNN": 825,
      "##NO": 826,
      "##NOW": 827,
      "##NOWLED": 828,
      "##NP": 829,
      "##NR": 830,
      "##NS": 831,
      "##NT": 832,
      "##Na": 833,
      "##Nd": 834,
      "##Ne": 835,
      "##Net": 836,
      "##Ni": 837,
      "##Ns": 838,
      "##O": 839,
      "##O2": 840,
      "##OA": 841,
      "##OB": 842,
      "##OC": 843,
      "##OCH": 844,
      "##OCK": 845,
      "##OD": 846,
      "##ODS": 847,
      "##ODUCTION": 848,
      "##OE": 849,
      "##OF": 850,
      "##OFF": 851,
      "##OG": 852,
      "##OH": 853,
      "##OK": 854,
      "##OL": 855,
      "##OLD": 856,
      "##OLOG": 857,
      "##OLOGICAL": 858,
      "##OLOGY": 859,
      "##OLUTION": 860,
      "##OM": 861,
      "##OMETR": 862,
      "##ON": 863,
      "##OND": 864,
      "##ONE": 865,
      "##ONES": 866,
      "##ONG": 867,
      "##ONI": 868,
      "##ONS": 869,
      "##OO": 870,
      "##OOH": 871,
      "##OOK": 872,
      "##OOO": 873,
      "##OOOO": 874,
      "##OP": 875,
      "##OR": 876,
      "##ORD": 877,
      "##ORE": 878,
      "##ORK": 879,
      "##ORM": 880,
      "##ORP": 881,
      "##ORS": 882,
      "##ORT": 883,
      "##ORY": 884,
      "##OS": 885,
      "##OSAT": 886,
      "##OSC": 887,
      "##OSE": 888,
      "##OSIT": 889,
      "##OST": 890,
      "##OT": 891,
      "##OTO": 892,
      "##OTT": 893,
      "##OU": 894,
      "##OV": 895,
      "##OVA": 896,
      "##OW": 897,
      "##OWS": 898,
      "##Os": 899,
      "##P": 900,
      "##P1": 901,
      "##P2": 902,
      "##PA": 903,
      "##PC": 904,
      "##PCF": 905,
      "##PE": 906,
      "##PER": 907,
      "##PEX": 908,
      "##PH": 909,
      "##PHER": 910,
      "##PHERE": 911,
      "##PHERIC": 912,
      "##PHOT": 913,
      "##PHYS": 914,
      "##PI": 915,
      "##PL": 916,
      "##PLE": 917,
      "##PM": 918,
      "##PN": 919,
      "##PO": 920,
      "##PP": 921,
      "##PR": 922,
      "##PS": 923,
      "##PSE": 924,
      "##PT": 925,
      "##PTF": 926,
      "##Pa": 927,
      "##Pb": 928,
      "##Pher": 929,
      "##Ps": 930,
      "##Q": 931,
      "##QS": 932,
      "##QU": 933,
      "##Qs": 934,
      "##Qu": 935,
      "##R": 936,
      "##R2": 937,
      "##RA": 938,
      "##RAN": 939,
      "##RC": 940,
      "##RE": 941,
      "##REE": 942,
      "##REEP": 943,
      "##RES": 944,
      "##RF": 945,
      "##RG": 946,
      "##RI": 947,
      "##RIS": 948,
      "##RM": 949,
      "##RO": 950,
      "##ROP": 951,
      "##ROR": 952,
      "##RP": 953,
      "##RR": 954,
      "##RS": 955,
      "##RSI": 956,
      "##RT": 957,
      "##Ra": 958,
      "##Ro": 959,
      "##Rs": 960,
      "##S": 961,
      "##S1": 962,
      "##S2": 963,
      "##SA": 964,
      "##SAT": 965,
      "##SAX": 966,
      "##SC": 967,
      "##SE": 968,
      "##SF": 969,
      "##SFR": 970,
      "##SH": 971,
      "##SI": 972,
      "##SM": 973,
      "##SO": 974,
      "##SON": 975,
      "##SOR": 976,
      "##SOs": 977,
      "##SP": 978,
      "##SPEC": 979,
      "##SR": 980,
      "##SS": 981,
      "##SSI": 982,
      "##SSION": 983,
      "##SSM": 984,
      "##SSN": 985,
      "##SSON": 986,
      "##ST": 987,
      "##STAR": 988,
      "##STE": 989,
      "##STEIN": 990,
      "##STR": 991,
      "##SU": 992,
      "##SY": 993,
      "##SZ": 994,
      "##Sat": 995,
      "##Si": 996,
      "##SiO": 997,
      "##Spec": 998,
      "##Sr": 999,
      "##Ss": 1000,
      "##St": 1001,
      "##T": 1002,
      "##T2": 1003,
      "##TA": 1004,
      "##TD": 1005,
      "##TE": 1006,
      "##TEC": 1007,
      "##TED": 1008,
      "##TEM": 1009,
      "##TER": 1010,
      "##TF": 1011,
      "##TH": 1012,
      "##THER": 1013,
      "##TI": 1014,
      "##TIC": 1015,
      "##TIES": 1016,
      "##TIN": 1017,
      "##TION": 1018,
      "##TIS": 1019,
      "##TM": 1020,
      "##TN": 1021,
      "##TO": 1022,
      "##TON": 1023,
      "##TR": 1024,
      "##TRIB": 1025,
      "##TRM": 1026,
      "##TS": 1027,
      "##TSs": 1028,
      "##TT": 1029,
      "##TZ": 1030,
      "##Te": 1031,
      "##Th": 1032,
      "##The": 1033,
      "##This": 1034,
      "##Ti": 1035,
      "##Ts": 1036,
      "##U": 1037,
      "##UAL": 1038,
      "##UB": 1039,
      "##UBA": 1040,
      "##UC": 1041,
      "##UCT": 1042,
      "##UCTION": 1043,
      "##UD": 1044,
      "##UDY": 1045,
      "##UE": 1046,
      "##UES": 1047,
      "##UG": 1048,
      "##UL": 1049,
      "##ULAR": 1050,
      "##ULL": 1051,
      "##ULT": 1052,
      "##UM": 1053,
      "##UN": 1054,
      "##UND": 1055,
      "##UNG": 1056,
      "##UNT": 1057,
      "##UP": 1058,
      "##UR": 1059,
      "##URB": 1060,
      "##URE": 1061,
      "##URES": 1062,
      "##URON": 1063,
      "##US": 1064,
      "##USE": 1065,
      "##UST": 1066,
      "##UT": 1067,
      "##UTH": 1068,
      "##UTION": 1069,
      "##UTIONS": 1070,
      "##UU": 1071,
      "##UV": 1072,
      "##Us": 1073,
      "##V": 1074,
      "##VA": 1075,
      "##VD": 1076,
      "##VE": 1077,
      "##VEL": 1078,
      "##VEN": 1079,
      "##VER": 1080,
      "##VI": 1081,
      "##VIS": 1082,
      "##VO": 1083,
      "##VS": 1084,
      "##VV": 1085,
      "##VZ": 1086,
      "##Vs": 1087,
      "##W": 1088,
      "##WA": 1089,
      "##WB": 1090,
      "##WD": 1091,
      "##WE": 1092,
      "##WEEN": 1093,
      "##WISE": 1094,
      "##WM": 1095,
      "##WN": 1096,
      "##WO": 1097,
      "##WP": 1098,
      "##WS": 1099,
      "##WW": 1100,
      "##WWWW": 1101,
      "##We": 1102,
      "##Witt": 1103,
      "##Ws": 1104,
      "##X": 1105,
      "##XB": 1106,
      "##XBs": 1107,
      "##XR": 1108,
      "##XS": 1109,
      "##XX": 1110,
      "##Xe": 1111,
      "##Xiv": 1112,
      "##Y": 1113,
      "##YA": 1114,
      "##YER": 1115,
      "##YL": 1116,
      "##YM": 1117,
      "##YN": 1118,
      "##YNAM": 1119,
      "##YS": 1120,
      "##YT": 1121,
      "##YY": 1122,
      "##Z": 1123,
      "##ZA": 1124,
      "##ZE": 1125,
      "##a": 1126,
      "##aa": 1127,
      "##ab": 1128,
      "##aba": 1129,
      "##abad": 1130,
      "##abase": 1131,
      "##abases": 1132,
      "##abatic": 1133,
      "##abe": 1134,
      "##abhan": 1135,
      "##abil": 1136,
      "##abilistic": 1137,
      "##abilities": 1138,
      "##ability": 1139,
      "##able": 1140,
      "##ables": 1141,
      "##ably": 1142,
      "##abor": 1143,
      "##aboration": 1144,
      "##abric": 1145,
      "##abs": 1146,
      "##absorbed": 1147,
      "##absorption": 1148,
      "##abund": 1149,
      "##ac": 1150,
      "##aca": 1151,
      "##acal": 1152,
      "##acc": 1153,
      "##acci": 1154,
      "##ace": 1155,
      "##acecraft": 1156,
      "##aced": 1157,
      "##acement": 1158,
      "##acent": 1159,
      "##aceous": 1160,
      "##acer": 1161,
      "##aces": 1162,
      "##acet": 1163,
      "##acey": 1164,
      "##ach": 1165,
      "##ache": 1166,
      "##ached": 1167,
      "##achent": 1168,
      "##acher": 1169,
      "##aches": 1170,
      "##achi": 1171,
      "##achian": 1172,
      "##achie": 1173,
      "##aching": 1174,
      "##achment": 1175,
      "##achs": 1176,
      "##acht": 1177,
      "##achus": 1178,
      "##achusetts": 1179,
      "##achy": 1180,
      "##acial": 1181,
      "##acian": 1182,
      "##acies": 1183,
      "##acing": 1184,
      "##acite": 1185,
      "##acities": 1186,
      "##acity": 1187,
      "##ack": 1188,
      "##acker": 1189,
      "##ackett": 1190,
      "##acki": 1191,
      "##acking": 1192,
      "##acks": 1193,
      "##aco": 1194,
      "##acock": 1195,
      "##acon": 1196,
      "##acoustic": 1197,
      "##acs": 1198,
      "##act": 1199,
      "##acted": 1200,
      "##acter": 1201,
      "##actic": 1202,
      "##acting": 1203,
      "##action": 1204,
      "##actions": 1205,
      "##active": 1206,
      "##actocentric": 1207,
      "##acts": 1208,
      "##acu": 1209,
      "##acular": 1210,
      "##acuum": 1211,
      "##acy": 1212,
      "##ad": 1213,
      "##ada": 1214,
      "##adal": 1215,
      "##aday": 1216,
      "##adays": 1217,
      "##addi": 1218,
      "##ade": 1219,
      "##adec": 1220,
      "##aded": 1221,
      "##adeh": 1222,
      "##adel": 1223,
      "##adequ": 1224,
      "##ades": 1225,
      "##adget": 1226,
      "##adh": 1227,
      "##adi": 1228,
      "##adia": 1229,
      "##adiabatic": 1230,
      "##adian": 1231,
      "##adily": 1232,
      "##ading": 1233,
      "##adir": 1234,
      "##adis": 1235,
      "##adium": 1236,
      "##ado": 1237,
      "##ador": 1238,
      "##ados": 1239,
      "##ads": 1240,
      "##adsley": 1241,
      "##adsleyite": 1242,
      "##adus": 1243,
      "##advant": 1244,
      "##ady": 1245,
      "##adze": 1246,
      "##ae": 1247,
      "##aeh": 1248,
      "##ael": 1249,
      "##aeus": 1250,
      "##af": 1251,
      "##aff": 1252,
      "##affe": 1253,
      "##afic": 1254,
      "##after": 1255,
      "##ag": 1256,
      "##aga": 1257,
      "##agan": 1258,
      "##agawa": 1259,
      "##age": 1260,
      "##aged": 1261,
      "##agen": 1262,
      "##ager": 1263,
      "##ages": 1264,
      "##agger": 1265,
      "##agh": 1266,
      "##aghan": 1267,
      "##agher": 1268,
      "##agi": 1269,
      "##agic": 1270,
      "##aging": 1271,
      "##agle": 1272,
      "##aglia": 1273,
      "##agn": 1274,
      "##agne": 1275,
      "##agner": 1276,
      "##agneti": 1277,
      "##agnetic": 1278,
      "##agnetism": 1279,
      "##agnetized": 1280,
      "##ago": 1281,
      "##agon": 1282,
      "##agonal": 1283,
      "##agons": 1284,
      "##agos": 1285,
      "##agraph": 1286,
      "##agraphic": 1287,
      "##agu": 1288,
      "##aguchi": 1289,
      "##ah": 1290,
      "##ahara": 1291,
      "##ahl": 1292,
      "##ahn": 1293,
      "##ahr": 1294,
      "##ahue": 1295,
      "##ahy": 1296,
      "##ai": 1297,
      "##aid": 1298,
      "##aign": 1299,
      "##ail": 1300,
      "##ailability": 1301,
      "##ailable": 1302,
      "##aille": 1303,
      "##ails": 1304,
      "##aim": 1305,
      "##ain": 1306,
      "##aine": 1307,
      "##ained": 1308,
      "##ainen": 1309,
      "##aines": 1310,
      "##aining": 1311,
      "##ains": 1312,
      "##aint": 1313,
      "##air": 1314,
      "##aire": 1315,
      "##aired": 1316,
      "##airs": 1317,
      "##ais": 1318,
      "##ait": 1319,
      "##aiting": 1320,
      "##aitre": 1321,
      "##aj": 1322,
      "##ajan": 1323,
      "##ajek": 1324,
      "##ajian": 1325,
      "##ajima": 1326,
      "##ajor": 1327,
      "##ak": 1328,
      "##aka": 1329,
      "##akas": 1330,
      "##akawa": 1331,
      "##ake": 1332,
      "##aked": 1333,
      "##aken": 1334,
      "##aker": 1335,
      "##akers": 1336,
      "##akes": 1337,
      "##akh": 1338,
      "##aki": 1339,
      "##aking": 1340,
      "##akis": 1341,
      "##akos": 1342,
      "##akov": 1343,
      "##aks": 1344,
      "##aksh": 1345,
      "##aku": 1346,
      "##akura": 1347,
      "##al": 1348,
      "##ala": 1349,
      "##alactic": 1350,
      "##aland": 1351,
      "##alas": 1352,
      "##alate": 1353,
      "##alax": 1354,
      "##alay": 1355,
      "##alc": 1356,
      "##ald": 1357,
      "##ale": 1358,
      "##aled": 1359,
      "##ales": 1360,
      "##alez": 1361,
      "##alg": 1362,
      "##ali": 1363,
      "##alic": 1364,
      "##alid": 1365,
      "##aline": 1366,
      "##aling": 1367,
      "##alis": 1368,
      "##alistic": 1369,
      "##alite": 1370,
      "##alities": 1371,
      "##ality": 1372,
      "##alk": 1373,
      "##all": 1374,
      "##alla": 1375,
      "##allas": 1376,
      "##allel": 1377,
      "##alli": 1378,
      "##alling": 1379,
      "##allow": 1380,
      "##ally": 1381,
      "##alo": 1382,
      "##alog": 1383,
      "##als": 1384,
      "##alse": 1385,
      "##alsgaard": 1386,
      "##alski": 1387,
      "##alt": 1388,
      "##alth": 1389,
      "##alu": 1390,
      "##aluable": 1391,
      "##alue": 1392,
      "##alues": 1393,
      "##aly": 1394,
      "##alys": 1395,
      "##alyses": 1396,
      "##alysis": 1397,
      "##am": 1398,
      "##ama": 1399,
      "##aman": 1400,
      "##amara": 1401,
      "##amb": 1402,
      "##ambigu": 1403,
      "##ambrian": 1404,
      "##ame": 1405,
      "##ament": 1406,
      "##amental": 1407,
      "##aments": 1408,
      "##amer": 1409,
      "##amera": 1410,
      "##ameras": 1411,
      "##ames": 1412,
      "##amet": 1413,
      "##ameter": 1414,
      "##ami": 1415,
      "##amic": 1416,
      "##amide": 1417,
      "##amil": 1418,
      "##amilton": 1419,
      "##amin": 1420,
      "##aminated": 1421,
      "##amination": 1422,
      "##amine": 1423,
      "##amir": 1424,
      "##amis": 1425,
      "##amm": 1426,
      "##amma": 1427,
      "##amon": 1428,
      "##amori": 1429,
      "##amorph": 1430,
      "##amoto": 1431,
      "##amp": 1432,
      "##ampaign": 1433,
      "##amped": 1434,
      "##ampl": 1435,
      "##ample": 1436,
      "##ampled": 1437,
      "##amples": 1438,
      "##ampling": 1439,
      "##amps": 1440,
      "##ams": 1441,
      "##amura": 1442,
      "##amy": 1443,
      "##an": 1444,
      "##ana": 1445,
      "##anal": 1446,
      "##analysis": 1447,
      "##anas": 1448,
      "##anc": 1449,
      "##ancay": 1450,
      "##ance": 1451,
      "##anced": 1452,
      "##ances": 1453,
      "##anche": 1454,
      "##anched": 1455,
      "##anches": 1456,
      "##anchez": 1457,
      "##ancies": 1458,
      "##ancing": 1459,
      "##anck": 1460,
      "##ancy": 1461,
      "##and": 1462,
      "##anda": 1463,
      "##andard": 1464,
      "##ande": 1465,
      "##andem": 1466,
      "##anden": 1467,
      "##ander": 1468,
      "##andering": 1469,
      "##andez": 1470,
      "##andid": 1471,
      "##anding": 1472,
      "##andom": 1473,
      "##andra": 1474,
      "##andro": 1475,
      "##ands": 1476,
      "##ane": 1477,
      "##anek": 1478,
      "##anel": 1479,
      "##anelli": 1480,
      "##anen": 1481,
      "##anenko": 1482,
      "##aneous": 1483,
      "##anes": 1484,
      "##anese": 1485,
      "##anet": 1486,
      "##anetary": 1487,
      "##aney": 1488,
      "##ang": 1489,
      "##anganese": 1490,
      "##ange": 1491,
      "##anged": 1492,
      "##anger": 1493,
      "##anges": 1494,
      "##anging": 1495,
      "##angle": 1496,
      "##angs": 1497,
      "##ani": 1498,
      "##anian": 1499,
      "##anic": 1500,
      "##anine": 1501,
      "##anite": 1502,
      "##ank": 1503,
      "##anka": 1504,
      "##anke": 1505,
      "##anki": 1506,
      "##anks": 1507,
      "##ankton": 1508,
      "##ann": 1509,
      "##anna": 1510,
      "##annap": 1511,
      "##anned": 1512,
      "##annel": 1513,
      "##anner": 1514,
      "##anning": 1515,
      "##annon": 1516,
      "##annual": 1517,
      "##ano": 1518,
      "##anol": 1519,
      "##anov": 1520,
      "##anova": 1521,
      "##ans": 1522,
      "##ansen": 1523,
      "##ansion": 1524,
      "##anski": 1525,
      "##ansky": 1526,
      "##anson": 1527,
      "##ansson": 1528,
      "##ant": 1529,
      "##anta": 1530,
      "##antation": 1531,
      "##ante": 1532,
      "##anted": 1533,
      "##anth": 1534,
      "##anti": 1535,
      "##antle": 1536,
      "##antly": 1537,
      "##antom": 1538,
      "##anton": 1539,
      "##ants": 1540,
      "##antum": 1541,
      "##antz": 1542,
      "##any": 1543,
      "##anz": 1544,
      "##ao": 1545,
      "##aotic": 1546,
      "##ap": 1547,
      "##apagos": 1548,
      "##apause": 1549,
      "##ape": 1550,
      "##aper": 1551,
      "##apes": 1552,
      "##aph": 1553,
      "##apid": 1554,
      "##apor": 1555,
      "##aporation": 1556,
      "##aport": 1557,
      "##app": 1558,
      "##appa": 1559,
      "##apped": 1560,
      "##apping": 1561,
      "##aps": 1562,
      "##apse": 1563,
      "##apsed": 1564,
      "##apsh": 1565,
      "##apsing": 1566,
      "##apsis": 1567,
      "##apunov": 1568,
      "##aque": 1569,
      "##ar": 1570,
      "##ara": 1571,
      "##arajan": 1572,
      "##arallel": 1573,
      "##aran": 1574,
      "##arant": 1575,
      "##arb": 1576,
      "##arbon": 1577,
      "##arbonate": 1578,
      "##arc": 1579,
      "##arca": 1580,
      "##arch": 1581,
      "##arching": 1582,
      "##arcos": 1583,
      "##arcsec": 1584,
      "##arcsecond": 1585,
      "##arctic": 1586,
      "##ard": 1587,
      "##arde": 1588,
      "##arded": 1589,
      "##ardi": 1590,
      "##arding": 1591,
      "##ardment": 1592,
      "##ardo": 1593,
      "##ards": 1594,
      "##ardt": 1595,
      "##ardy": 1596,
      "##are": 1597,
      "##ared": 1598,
      "##arelli": 1599,
      "##aren": 1600,
      "##arency": 1601,
      "##arent": 1602,
      "##arents": 1603,
      "##areous": 1604,
      "##ares": 1605,
      "##arest": 1606,
      "##aret": 1607,
      "##arev": 1608,
      "##arez": 1609,
      "##arg": 1610,
      "##arge": 1611,
      "##arged": 1612,
      "##arges": 1613,
      "##argeting": 1614,
      "##arging": 1615,
      "##argle": 1616,
      "##ari": 1617,
      "##aria": 1618,
      "##arian": 1619,
      "##arias": 1620,
      "##ariate": 1621,
      "##aries": 1622,
      "##arik": 1623,
      "##arily": 1624,
      "##arine": 1625,
      "##aring": 1626,
      "##ario": 1627,
      "##aris": 1628,
      "##arithm": 1629,
      "##arithms": 1630,
      "##arities": 1631,
      "##arity": 1632,
      "##arium": 1633,
      "##arius": 1634,
      "##ark": 1635,
      "##arks": 1636,
      "##arm": 1637,
      "##arn": 1638,
      "##aro": 1639,
      "##around": 1640,
      "##arov": 1641,
      "##arp": 1642,
      "##arr": 1643,
      "##arri": 1644,
      "##arriaga": 1645,
      "##arro": 1646,
      "##arrow": 1647,
      "##ars": 1648,
      "##arse": 1649,
      "##arsec": 1650,
      "##arser": 1651,
      "##arsis": 1652,
      "##arski": 1653,
      "##arsky": 1654,
      "##arst": 1655,
      "##art": 1656,
      "##arted": 1657,
      "##arth": 1658,
      "##arthy": 1659,
      "##article": 1660,
      "##articles": 1661,
      "##artition": 1662,
      "##artment": 1663,
      "##artner": 1664,
      "##arts": 1665,
      "##artz": 1666,
      "##aru": 1667,
      "##ary": 1668,
      "##arying": 1669,
      "##arz": 1670,
      "##as": 1671,
      "##asa": 1672,
      "##asaki": 1673,
      "##asawa": 1674,
      "##asc": 1675,
      "##asca": 1676,
      "##asch": 1677,
      "##asco": 1678,
      "##ase": 1679,
      "##ased": 1680,
      "##aseous": 1681,
      "##aser": 1682,
      "##ases": 1683,
      "##ash": 1684,
      "##ashi": 1685,
      "##ashima": 1686,
      "##ashita": 1687,
      "##asi": 1688,
      "##asil": 1689,
      "##asim": 1690,
      "##asing": 1691,
      "##asinger": 1692,
      "##ask": 1693,
      "##aska": 1694,
      "##askell": 1695,
      "##asm": 1696,
      "##asma": 1697,
      "##ason": 1698,
      "##asonal": 1699,
      "##asons": 1700,
      "##asp": 1701,
      "##ass": 1702,
      "##assa": 1703,
      "##asse": 1704,
      "##assed": 1705,
      "##assen": 1706,
      "##asser": 1707,
      "##asses": 1708,
      "##assi": 1709,
      "##assic": 1710,
      "##assif": 1711,
      "##assing": 1712,
      "##assium": 1713,
      "##assive": 1714,
      "##assively": 1715,
      "##asso": 1716,
      "##asson": 1717,
      "##ast": 1718,
      "##asted": 1719,
      "##aster": 1720,
      "##astern": 1721,
      "##astic": 1722,
      "##astically": 1723,
      "##asting": 1724,
      "##asto": 1725,
      "##aston": 1726,
      "##astron": 1727,
      "##asts": 1728,
      "##at": 1729,
      "##ata": 1730,
      "##atable": 1731,
      "##atch": 1732,
      "##atches": 1733,
      "##ate": 1734,
      "##ated": 1735,
      "##ately": 1736,
      "##aten": 1737,
      "##ateness": 1738,
      "##ater": 1739,
      "##ateral": 1740,
      "##aterial": 1741,
      "##atern": 1742,
      "##aternary": 1743,
      "##aterrestrial": 1744,
      "##aters": 1745,
      "##ates": 1746,
      "##atever": 1747,
      "##ath": 1748,
      "##athan": 1749,
      "##ather": 1750,
      "##athered": 1751,
      "##athi": 1752,
      "##athiou": 1753,
      "##athrust": 1754,
      "##aths": 1755,
      "##ati": 1756,
      "##atibility": 1757,
      "##atible": 1758,
      "##atic": 1759,
      "##atil": 1760,
      "##atile": 1761,
      "##atin": 1762,
      "##ating": 1763,
      "##atini": 1764,
      "##atinum": 1765,
      "##ation": 1766,
      "##ational": 1767,
      "##ationary": 1768,
      "##ations": 1769,
      "##atis": 1770,
      "##atisf": 1771,
      "##atism": 1772,
      "##atit": 1773,
      "##atite": 1774,
      "##atites": 1775,
      "##atitic": 1776,
      "##atitude": 1777,
      "##atitudes": 1778,
      "##atitudinal": 1779,
      "##ativ": 1780,
      "##ative": 1781,
      "##atively": 1782,
      "##atives": 1783,
      "##ativistic": 1784,
      "##ativity": 1785,
      "##atized": 1786,
      "##atm": 1787,
      "##ato": 1788,
      "##atoire": 1789,
      "##atom": 1790,
      "##atomic": 1791,
      "##aton": 1792,
      "##ator": 1793,
      "##atorial": 1794,
      "##atoric": 1795,
      "##atories": 1796,
      "##ators": 1797,
      "##atory": 1798,
      "##atos": 1799,
      "##atov": 1800,
      "##atra": 1801,
      "##atron": 1802,
      "##ats": 1803,
      "##atsu": 1804,
      "##att": 1805,
      "##atten": 1806,
      "##atter": 1807,
      "##attern": 1808,
      "##atterson": 1809,
      "##atti": 1810,
      "##atto": 1811,
      "##atton": 1812,
      "##aturated": 1813,
      "##aturation": 1814,
      "##ature": 1815,
      "##atures": 1816,
      "##atus": 1817,
      "##aty": 1818,
      "##atz": 1819,
      "##au": 1820,
      "##auc": 1821,
      "##aud": 1822,
      "##auea": 1823,
      "##auer": 1824,
      "##aug": 1825,
      "##augh": 1826,
      "##aughan": 1827,
      "##aughlin": 1828,
      "##aught": 1829,
      "##ault": 1830,
      "##aun": 1831,
      "##aus": 1832,
      "##ausage": 1833,
      "##ause": 1834,
      "##aut": 1835,
      "##auti": 1836,
      "##autics": 1837,
      "##auts": 1838,
      "##aux": 1839,
      "##av": 1840,
      "##ava": 1841,
      "##avage": 1842,
      "##aval": 1843,
      "##ave": 1844,
      "##aved": 1845,
      "##avelength": 1846,
      "##aver": 1847,
      "##aves": 1848,
      "##avi": 1849,
      "##avin": 1850,
      "##aving": 1851,
      "##avor": 1852,
      "##aw": 1853,
      "##awa": 1854,
      "##awater": 1855,
      "##away": 1856,
      "##awn": 1857,
      "##awson": 1858,
      "##ax": 1859,
      "##axed": 1860,
      "##axial": 1861,
      "##axis": 1862,
      "##axton": 1863,
      "##ay": 1864,
      "##aya": 1865,
      "##ayama": 1866,
      "##ayan": 1867,
      "##ayas": 1868,
      "##ayashi": 1869,
      "##aye": 1870,
      "##ayed": 1871,
      "##ayer": 1872,
      "##ays": 1873,
      "##az": 1874,
      "##azaki": 1875,
      "##azimuth": 1876,
      "##azin": 1877,
      "##azite": 1878,
      "##azov": 1879,
      "##azz": 1880,
      "##azzi": 1881,
      "##azzo": 1882,
      "##b": 1883,
      "##ba": 1884,
      "##bach": 1885,
      "##back": 1886,
      "##bal": 1887,
      "##ball": 1888,
      "##ban": 1889,
      "##band": 1890,
      "##bands": 1891,
      "##bank": 1892,
      "##bar": 1893,
      "##bard": 1894,
      "##bas": 1895,
      "##bate": 1896,
      "##bauer": 1897,
      "##baum": 1898,
      "##baz": 1899,
      "##bb": 1900,
      "##be": 1901,
      "##beam": 1902,
      "##bean": 1903,
      "##beck": 1904,
      "##bed": 1905,
      "##bedded": 1906,
      "##bein": 1907,
      "##beiner": 1908,
      "##beit": 1909,
      "##bel": 1910,
      "##bell": 1911,
      "##ben": 1912,
      "##ber": 1913,
      "##beration": 1914,
      "##berg": 1915,
      "##berger": 1916,
      "##berl": 1917,
      "##bers": 1918,
      "##bert": 1919,
      "##berts": 1920,
      "##bes": 1921,
      "##bet": 1922,
      "##bg": 1923,
      "##bi": 1924,
      "##bic": 1925,
      "##bid": 1926,
      "##bilities": 1927,
      "##bility": 1928,
      "##bin": 1929,
      "##binary": 1930,
      "##bing": 1931,
      "##bins": 1932,
      "##bit": 1933,
      "##bite": 1934,
      "##bl": 1935,
      "##ble": 1936,
      "##bled": 1937,
      "##blende": 1938,
      "##bles": 1939,
      "##bling": 1940,
      "##blom": 1941,
      "##bly": 1942,
      "##bo": 1943,
      "##board": 1944,
      "##bodies": 1945,
      "##body": 1946,
      "##bon": 1947,
      "##bone": 1948,
      "##bons": 1949,
      "##book": 1950,
      "##bor": 1951,
      "##born": 1952,
      "##borne": 1953,
      "##bound": 1954,
      "##bour": 1955,
      "##bow": 1956,
      "##box": 1957,
      "##br": 1958,
      "##bra": 1959,
      "##brand": 1960,
      "##bras": 1961,
      "##bre": 1962,
      "##brevi": 1963,
      "##brid": 1964,
      "##bright": 1965,
      "##bro": 1966,
      "##brock": 1967,
      "##bs": 1968,
      "##bsite": 1969,
      "##bu": 1970,
      "##bur": 1971,
      "##burg": 1972,
      "##burgh": 1973,
      "##burn": 1974,
      "##burst": 1975,
      "##bursting": 1976,
      "##bursts": 1977,
      "##bury": 1978,
      "##bus": 1979,
      "##by": 1980,
      "##bye": 1981,
      "##bys": 1982,
      "##byshev": 1983,
      "##c": 1984,
      "##ca": 1985,
      "##cal": 1986,
      "##cale": 1987,
      "##call": 1988,
      "##cam": 1989,
      "##can": 1990,
      "##car": 1991,
      "##carus": 1992,
      "##cast": 1993,
      "##castle": 1994,
      "##cat": 1995,
      "##cc": 1996,
      "##ccentric": 1997,
      "##ce": 1998,
      "##cean": 1999,
      "##ced": 2000,
      "##cedure": 2001,
      "##ceed": 2002,
      "##cel": 2003,
      "##celand": 2004,
      "##cence": 2005,
      "##cent": 2006,
      "##centric": 2007,
      "##cep": 2008,
      "##cept": 2009,
      "##cepted": 2010,
      "##cepti": 2011,
      "##ception": 2012,
      "##ceptions": 2013,
      "##cepts": 2014,
      "##ces": 2015,
      "##cess": 2016,
      "##cessed": 2017,
      "##cessible": 2018,
      "##cessing": 2019,
      "##cession": 2020,
      "##ch": 2021,
      "##cha": 2022,
      "##change": 2023,
      "##char": 2024,
      "##chard": 2025,
      "##che": 2026,
      "##ched": 2027,
      "##chek": 2028,
      "##chel": 2029,
      "##chell": 2030,
      "##chelle": 2031,
      "##chem": 2032,
      "##chemical": 2033,
      "##chen": 2034,
      "##chenko": 2035,
      "##cher": 2036,
      "##chers": 2037,
      "##ches": 2038,
      "##chet": 2039,
      "##chi": 2040,
      "##chia": 2041,
      "##child": 2042,
      "##chin": 2043,
      "##ching": 2044,
      "##chini": 2045,
      "##chio": 2046,
      "##chlor": 2047,
      "##chmann": 2048,
      "##cho": 2049,
      "##chond": 2050,
      "##chron": 2051,
      "##chter": 2052,
      "##chuk": 2053,
      "##chw": 2054,
      "##ci": 2055,
      "##cia": 2056,
      "##cil": 2057,
      "##cing": 2058,
      "##cio": 2059,
      "##ck": 2060,
      "##cke": 2061,
      "##cl": 2062,
      "##clockwise": 2063,
      "##cloud": 2064,
      "##clu": 2065,
      "##clump": 2066,
      "##clusive": 2067,
      "##cm": 2068,
      "##co": 2069,
      "##cock": 2070,
      "##col": 2071,
      "##com": 2072,
      "##coming": 2073,
      "##comings": 2074,
      "##comp": 2075,
      "##compar": 2076,
      "##comparison": 2077,
      "##con": 2078,
      "##coni": 2079,
      "##continent": 2080,
      "##cooling": 2081,
      "##cope": 2082,
      "##cor": 2083,
      "##cos": 2084,
      "##cr": 2085,
      "##craft": 2086,
      "##cs": 2087,
      "##ct": 2088,
      "##cul": 2089,
      "##culating": 2090,
      "##culation": 2091,
      "##cur": 2092,
      "##current": 2093,
      "##cury": 2094,
      "##cut": 2095,
      "##cy": 2096,
      "##cz": 2097,
      "##czak": 2098,
      "##czynski": 2099,
      "##d": 2100,
      "##da": 2101,
      "##dahl": 2102,
      "##dal": 2103,
      "##dale": 2104,
      "##dam": 2105,
      "##dard": 2106,
      "##day": 2107,
      "##days": 2108,
      "##dc": 2109,
      "##dd": 2110,
      "##de": 2111,
      "##ded": 2112,
      "##deg": 2113,
      "##dehy": 2114,
      "##dehyde": 2115,
      "##dell": 2116,
      "##den": 2117,
      "##dened": 2118,
      "##dening": 2119,
      "##der": 2120,
      "##ders": 2121,
      "##des": 2122,
      "##det": 2123,
      "##df": 2124,
      "##dh": 2125,
      "##di": 2126,
      "##dian": 2127,
      "##die": 2128,
      "##din": 2129,
      "##ding": 2130,
      "##dinger": 2131,
      "##dington": 2132,
      "##dis": 2133,
      "##dition": 2134,
      "##ditions": 2135,
      "##dle": 2136,
      "##do": 2137,
      "##dom": 2138,
      "##don": 2139,
      "##dor": 2140,
      "##down": 2141,
      "##dr": 2142,
      "##ds": 2143,
      "##dt": 2144,
      "##duc": 2145,
      "##ducation": 2146,
      "##duce": 2147,
      "##duction": 2148,
      "##dy": 2149,
      "##dynam": 2150,
      "##dzi": 2151,
      "##e": 2152,
      "##eV": 2153,
      "##ea": 2154,
      "##ead": 2155,
      "##eady": 2156,
      "##ean": 2157,
      "##ear": 2158,
      "##earch": 2159,
      "##eared": 2160,
      "##earing": 2161,
      "##ears": 2162,
      "##eas": 2163,
      "##ease": 2164,
      "##eau": 2165,
      "##eav": 2166,
      "##eb": 2167,
      "##ec": 2168,
      "##eca": 2169,
      "##ecadal": 2170,
      "##ecchio": 2171,
      "##ece": 2172,
      "##ecess": 2173,
      "##ech": 2174,
      "##echan": 2175,
      "##echt": 2176,
      "##eck": 2177,
      "##ecker": 2178,
      "##ecraft": 2179,
      "##ect": 2180,
      "##ectable": 2181,
      "##ected": 2182,
      "##ectic": 2183,
      "##ecting": 2184,
      "##ection": 2185,
      "##ections": 2186,
      "##ective": 2187,
      "##ectively": 2188,
      "##ectiveness": 2189,
      "##ectives": 2190,
      "##ectivity": 2191,
      "##ector": 2192,
      "##ectors": 2193,
      "##ectric": 2194,
      "##ectron": 2195,
      "##ects": 2196,
      "##ecu": 2197,
      "##ecular": 2198,
      "##ecules": 2199,
      "##ecutive": 2200,
      "##ed": 2201,
      "##eda": 2202,
      "##eder": 2203,
      "##edi": 2204,
      "##edman": 2205,
      "##edom": 2206,
      "##ee": 2207,
      "##eed": 2208,
      "##een": 2209,
      "##eep": 2210,
      "##eeper": 2211,
      "##eeping": 2212,
      "##ees": 2213,
      "##ef": 2214,
      "##eff": 2215,
      "##effer": 2216,
      "##effici": 2217,
      "##efined": 2218,
      "##eg": 2219,
      "##ega": 2220,
      "##egel": 2221,
      "##eger": 2222,
      "##eget": 2223,
      "##egger": 2224,
      "##egies": 2225,
      "##egler": 2226,
      "##ego": 2227,
      "##egreen": 2228,
      "##eh": 2229,
      "##ei": 2230,
      "##ein": 2231,
      "##eismic": 2232,
      "##ek": 2233,
      "##eks": 2234,
      "##el": 2235,
      "##ela": 2236,
      "##eland": 2237,
      "##elastic": 2238,
      "##eld": 2239,
      "##eldovich": 2240,
      "##ele": 2241,
      "##elect": 2242,
      "##electric": 2243,
      "##electron": 2244,
      "##electronic": 2245,
      "##elength": 2246,
      "##elens": 2247,
      "##eleon": 2248,
      "##eleothem": 2249,
      "##eler": 2250,
      "##eleration": 2251,
      "##eles": 2252,
      "##elesc": 2253,
      "##elescope": 2254,
      "##elescopes": 2255,
      "##eleseismic": 2256,
      "##eless": 2257,
      "##elestial": 2258,
      "##elet": 2259,
      "##elets": 2260,
      "##eley": 2261,
      "##elf": 2262,
      "##eli": 2263,
      "##elice": 2264,
      "##elier": 2265,
      "##elihood": 2266,
      "##elike": 2267,
      "##elin": 2268,
      "##eline": 2269,
      "##elines": 2270,
      "##eling": 2271,
      "##ell": 2272,
      "##ella": 2273,
      "##ellae": 2274,
      "##ellar": 2275,
      "##ellation": 2276,
      "##ellations": 2277,
      "##elle": 2278,
      "##elled": 2279,
      "##ellem": 2280,
      "##eller": 2281,
      "##elles": 2282,
      "##elli": 2283,
      "##elling": 2284,
      "##ellini": 2285,
      "##ellite": 2286,
      "##ellites": 2287,
      "##ello": 2288,
      "##ellow": 2289,
      "##ellowship": 2290,
      "##ells": 2291,
      "##ellular": 2292,
      "##elluric": 2293,
      "##elly": 2294,
      "##elman": 2295,
      "##elmann": 2296,
      "##elo": 2297,
      "##eloc": 2298,
      "##elocity": 2299,
      "##elock": 2300,
      "##els": 2301,
      "##elsberg": 2302,
      "##elsen": 2303,
      "##elson": 2304,
      "##elstein": 2305,
      "##elt": 2306,
      "##elve": 2307,
      "##elves": 2308,
      "##ely": 2309,
      "##elynite": 2310,
      "##em": 2311,
      "##ema": 2312,
      "##emaker": 2313,
      "##eman": 2314,
      "##emann": 2315,
      "##emans": 2316,
      "##ember": 2317,
      "##embers": 2318,
      "##eme": 2319,
      "##emen": 2320,
      "##emer": 2321,
      "##emi": 2322,
      "##emic": 2323,
      "##emisp": 2324,
      "##emp": 2325,
      "##empl": 2326,
      "##en": 2327,
      "##ena": 2328,
      "##enari": 2329,
      "##enbach": 2330,
      "##enberg": 2331,
      "##enbrand": 2332,
      "##enburg": 2333,
      "##enc": 2334,
      "##ence": 2335,
      "##enced": 2336,
      "##encer": 2337,
      "##ences": 2338,
      "##ench": 2339,
      "##encies": 2340,
      "##encil": 2341,
      "##encing": 2342,
      "##encl": 2343,
      "##enclature": 2344,
      "##ency": 2345,
      "##end": 2346,
      "##enda": 2347,
      "##endar": 2348,
      "##ende": 2349,
      "##ended": 2350,
      "##enden": 2351,
      "##ender": 2352,
      "##endez": 2353,
      "##endices": 2354,
      "##ending": 2355,
      "##endip": 2356,
      "##endix": 2357,
      "##endre": 2358,
      "##ends": 2359,
      "##endy": 2360,
      "##ene": 2361,
      "##ened": 2362,
      "##ener": 2363,
      "##enerate": 2364,
      "##energetic": 2365,
      "##enes": 2366,
      "##enesis": 2367,
      "##eness": 2368,
      "##enetic": 2369,
      "##enez": 2370,
      "##eng": 2371,
      "##enged": 2372,
      "##enger": 2373,
      "##enging": 2374,
      "##ength": 2375,
      "##enh": 2376,
      "##enhe": 2377,
      "##enheimer": 2378,
      "##eni": 2379,
      "##ening": 2380,
      "##enings": 2381,
      "##enite": 2382,
      "##enites": 2383,
      "##enith": 2384,
      "##enko": 2385,
      "##enkov": 2386,
      "##enn": 2387,
      "##enna": 2388,
      "##ennan": 2389,
      "##ennes": 2390,
      "##ennial": 2391,
      "##ennium": 2392,
      "##eno": 2393,
      "##enov": 2394,
      "##ens": 2395,
      "##ensation": 2396,
      "##ensch": 2397,
      "##ense": 2398,
      "##ensed": 2399,
      "##ensen": 2400,
      "##ensi": 2401,
      "##ensile": 2402,
      "##ensing": 2403,
      "##ension": 2404,
      "##ensis": 2405,
      "##ensities": 2406,
      "##ensity": 2407,
      "##ensive": 2408,
      "##ensky": 2409,
      "##ensler": 2410,
      "##enson": 2411,
      "##ensor": 2412,
      "##ensors": 2413,
      "##enstein": 2414,
      "##ensus": 2415,
      "##ent": 2416,
      "##enta": 2417,
      "##ental": 2418,
      "##entang": 2419,
      "##ente": 2420,
      "##ented": 2421,
      "##enter": 2422,
      "##enth": 2423,
      "##enthal": 2424,
      "##enti": 2425,
      "##ential": 2426,
      "##entially": 2427,
      "##entiated": 2428,
      "##entif": 2429,
      "##entific": 2430,
      "##entine": 2431,
      "##enting": 2432,
      "##ention": 2433,
      "##entioned": 2434,
      "##entist": 2435,
      "##ently": 2436,
      "##enton": 2437,
      "##entric": 2438,
      "##ents": 2439,
      "##enty": 2440,
      "##enum": 2441,
      "##eny": 2442,
      "##enz": 2443,
      "##enzel": 2444,
      "##enzie": 2445,
      "##eo": 2446,
      "##eod": 2447,
      "##eor": 2448,
      "##eors": 2449,
      "##ep": 2450,
      "##epe": 2451,
      "##epend": 2452,
      "##eper": 2453,
      "##ept": 2454,
      "##epti": 2455,
      "##eption": 2456,
      "##equ": 2457,
      "##equilib": 2458,
      "##equilibrium": 2459,
      "##er": 2460,
      "##era": 2461,
      "##eral": 2462,
      "##erate": 2463,
      "##erature": 2464,
      "##erc": 2465,
      "##erden": 2466,
      "##ere": 2467,
      "##ereal": 2468,
      "##ered": 2469,
      "##erer": 2470,
      "##eres": 2471,
      "##erg": 2472,
      "##erge": 2473,
      "##erger": 2474,
      "##ergy": 2475,
      "##erial": 2476,
      "##eries": 2477,
      "##ering": 2478,
      "##eris": 2479,
      "##erisks": 2480,
      "##erite": 2481,
      "##erm": 2482,
      "##erman": 2483,
      "##ermann": 2484,
      "##erme": 2485,
      "##ermi": 2486,
      "##ermined": 2487,
      "##ermitian": 2488,
      "##ermost": 2489,
      "##ern": 2490,
      "##erni": 2491,
      "##ernible": 2492,
      "##erning": 2493,
      "##ero": 2494,
      "##erobic": 2495,
      "##eron": 2496,
      "##eros": 2497,
      "##eroy": 2498,
      "##eroz": 2499,
      "##erozoic": 2500,
      "##err": 2501,
      "##ers": 2502,
      "##ersen": 2503,
      "##ersic": 2504,
      "##erson": 2505,
      "##ert": 2506,
      "##ertain": 2507,
      "##erts": 2508,
      "##erv": 2509,
      "##ervation": 2510,
      "##erville": 2511,
      "##ervoir": 2512,
      "##ery": 2513,
      "##es": 2514,
      "##esc": 2515,
      "##escence": 2516,
      "##escent": 2517,
      "##esch": 2518,
      "##escu": 2519,
      "##ese": 2520,
      "##esen": 2521,
      "##esh": 2522,
      "##esian": 2523,
      "##esides": 2524,
      "##esis": 2525,
      "##esite": 2526,
      "##esium": 2527,
      "##ess": 2528,
      "##essel": 2529,
      "##essell": 2530,
      "##ession": 2531,
      "##essler": 2532,
      "##essor": 2533,
      "##est": 2534,
      "##esta": 2535,
      "##estal": 2536,
      "##ested": 2537,
      "##ester": 2538,
      "##estern": 2539,
      "##estim": 2540,
      "##esting": 2541,
      "##estone": 2542,
      "##ests": 2543,
      "##et": 2544,
      "##eta": 2545,
      "##etal": 2546,
      "##etch": 2547,
      "##ete": 2548,
      "##eted": 2549,
      "##eter": 2550,
      "##eterm": 2551,
      "##etermined": 2552,
      "##eters": 2553,
      "##eth": 2554,
      "##ethe": 2555,
      "##etheless": 2556,
      "##ether": 2557,
      "##ethite": 2558,
      "##ethyl": 2559,
      "##ethylene": 2560,
      "##eti": 2561,
      "##etic": 2562,
      "##eties": 2563,
      "##eting": 2564,
      "##etite": 2565,
      "##eto": 2566,
      "##eton": 2567,
      "##etric": 2568,
      "##etry": 2569,
      "##ets": 2570,
      "##etson": 2571,
      "##etsu": 2572,
      "##ett": 2573,
      "##etta": 2574,
      "##ette": 2575,
      "##etter": 2576,
      "##etti": 2577,
      "##etting": 2578,
      "##etts": 2579,
      "##etus": 2580,
      "##ety": 2581,
      "##etz": 2582,
      "##eu": 2583,
      "##ev": 2584,
      "##eva": 2585,
      "##eval": 2586,
      "##event": 2587,
      "##ever": 2588,
      "##evic": 2589,
      "##evitch": 2590,
      "##ew": 2591,
      "##eward": 2592,
      "##ewicz": 2593,
      "##ewise": 2594,
      "##ewitt": 2595,
      "##ework": 2596,
      "##eworld": 2597,
      "##eworthy": 2598,
      "##ewski": 2599,
      "##ex": 2600,
      "##exc": 2601,
      "##exp": 2602,
      "##ext": 2603,
      "##ey": 2604,
      "##eyama": 2605,
      "##eyer": 2606,
      "##eys": 2607,
      "##ez": 2608,
      "##ezium": 2609,
      "##f": 2610,
      "##face": 2611,
      "##faces": 2612,
      "##fact": 2613,
      "##factor": 2614,
      "##facts": 2615,
      "##fall": 2616,
      "##fanov": 2617,
      "##far": 2618,
      "##fast": 2619,
      "##fav": 2620,
      "##fc": 2621,
      "##fe": 2622,
      "##fect": 2623,
      "##feld": 2624,
      "##fer": 2625,
      "##ference": 2626,
      "##ff": 2627,
      "##ffer": 2628,
      "##ffey": 2629,
      "##ffici": 2630,
      "##ffy": 2631,
      "##fi": 2632,
      "##field": 2633,
      "##fields": 2634,
      "##fig": 2635,
      "##finder": 2636,
      "##fine": 2637,
      "##fit": 2638,
      "##fits": 2639,
      "##fitting": 2640,
      "##fl": 2641,
      "##flare": 2642,
      "##flares": 2643,
      "##flight": 2644,
      "##flo": 2645,
      "##floor": 2646,
      "##flow": 2647,
      "##flows": 2648,
      "##flu": 2649,
      "##fluid": 2650,
      "##fly": 2651,
      "##fo": 2652,
      "##fold": 2653,
      "##for": 2654,
      "##ford": 2655,
      "##fore": 2656,
      "##form": 2657,
      "##formal": 2658,
      "##formation": 2659,
      "##formed": 2660,
      "##forms": 2661,
      "##fort": 2662,
      "##forth": 2663,
      "##fortunately": 2664,
      "##forward": 2665,
      "##fract": 2666,
      "##frame": 2667,
      "##fre": 2668,
      "##frequencies": 2669,
      "##frequency": 2670,
      "##fs": 2671,
      "##ft": 2672,
      "##ften": 2673,
      "##fter": 2674,
      "##fu": 2675,
      "##ful": 2676,
      "##fully": 2677,
      "##function": 2678,
      "##g": 2679,
      "##ga": 2680,
      "##gaard": 2681,
      "##gado": 2682,
      "##galactic": 2683,
      "##gan": 2684,
      "##gar": 2685,
      "##garn": 2686,
      "##garno": 2687,
      "##gas": 2688,
      "##gate": 2689,
      "##gawa": 2690,
      "##ge": 2691,
      "##gean": 2692,
      "##ged": 2693,
      "##gel": 2694,
      "##gen": 2695,
      "##gence": 2696,
      "##gent": 2697,
      "##geometric": 2698,
      "##ger": 2699,
      "##gers": 2700,
      "##gert": 2701,
      "##ges": 2702,
      "##gest": 2703,
      "##get": 2704,
      "##getic": 2705,
      "##gets": 2706,
      "##gett": 2707,
      "##gg": 2708,
      "##gh": 2709,
      "##gher": 2710,
      "##ght": 2711,
      "##gi": 2712,
      "##gie": 2713,
      "##gin": 2714,
      "##ging": 2715,
      "##gino": 2716,
      "##gl": 2717,
      "##glacial": 2718,
      "##glers": 2719,
      "##glomer": 2720,
      "##glow": 2721,
      "##go": 2722,
      "##going": 2723,
      "##gor": 2724,
      "##gory": 2725,
      "##got": 2726,
      "##gr": 2727,
      "##greg": 2728,
      "##gren": 2729,
      "##grid": 2730,
      "##ground": 2731,
      "##group": 2732,
      "##gs": 2733,
      "##gu": 2734,
      "##guer": 2735,
      "##gy": 2736,
      "##h": 2737,
      "##ha": 2738,
      "##hal": 2739,
      "##ham": 2740,
      "##han": 2741,
      "##hane": 2742,
      "##hannel": 2743,
      "##haps": 2744,
      "##har": 2745,
      "##hard": 2746,
      "##hardt": 2747,
      "##harmonic": 2748,
      "##hart": 2749,
      "##has": 2750,
      "##hat": 2751,
      "##haus": 2752,
      "##hauser": 2753,
      "##haust": 2754,
      "##haut": 2755,
      "##hav": 2756,
      "##he": 2757,
      "##head": 2758,
      "##heast": 2759,
      "##heastern": 2760,
      "##heat": 2761,
      "##heated": 2762,
      "##heath": 2763,
      "##heating": 2764,
      "##hed": 2765,
      "##hedral": 2766,
      "##heet": 2767,
      "##heim": 2768,
      "##hel": 2769,
      "##helion": 2770,
      "##hell": 2771,
      "##hem": 2772,
      "##hema": 2773,
      "##hematic": 2774,
      "##hematically": 2775,
      "##heme": 2776,
      "##hemisp": 2777,
      "##hemispheric": 2778,
      "##hemite": 2779,
      "##hen": 2780,
      "##hene": 2781,
      "##heng": 2782,
      "##henko": 2783,
      "##her": 2784,
      "##here": 2785,
      "##hered": 2786,
      "##heren": 2787,
      "##herence": 2788,
      "##herenkov": 2789,
      "##herent": 2790,
      "##heres": 2791,
      "##hergot": 2792,
      "##heric": 2793,
      "##herical": 2794,
      "##herically": 2795,
      "##hers": 2796,
      "##herty": 2797,
      "##hertz": 2798,
      "##herz": 2799,
      "##hes": 2800,
      "##heses": 2801,
      "##hesis": 2802,
      "##hest": 2803,
      "##hester": 2804,
      "##het": 2805,
      "##hether": 2806,
      "##hetic": 2807,
      "##hetti": 2808,
      "##heus": 2809,
      "##hev": 2810,
      "##hey": 2811,
      "##hi": 2812,
      "##hib": 2813,
      "##hic": 2814,
      "##high": 2815,
      "##hill": 2816,
      "##hing": 2817,
      "##hip": 2818,
      "##hire": 2819,
      "##hko": 2820,
      "##hl": 2821,
      "##hlen": 2822,
      "##hler": 2823,
      "##hlin": 2824,
      "##hlung": 2825,
      "##hm": 2826,
      "##hman": 2827,
      "##hn": 2828,
      "##hnen": 2829,
      "##ho": 2830,
      "##hock": 2831,
      "##hoe": 2832,
      "##hofer": 2833,
      "##hoff": 2834,
      "##hol": 2835,
      "##hold": 2836,
      "##hole": 2837,
      "##holes": 2838,
      "##holm": 2839,
      "##holtz": 2840,
      "##holz": 2841,
      "##hood": 2842,
      "##hoon": 2843,
      "##horizon": 2844,
      "##hot": 2845,
      "##hotra": 2846,
      "##hou": 2847,
      "##house": 2848,
      "##how": 2849,
      "##hr": 2850,
      "##ht": 2851,
      "##hu": 2852,
      "##huri": 2853,
      "##hurst": 2854,
      "##hus": 2855,
      "##hy": 2856,
      "##hyan": 2857,
      "##hyd": 2858,
      "##hydrite": 2859,
      "##hyl": 2860,
      "##hys": 2861,
      "##i": 2862,
      "##ia": 2863,
      "##iable": 2864,
      "##ial": 2865,
      "##ially": 2866,
      "##ian": 2867,
      "##iana": 2868,
      "##iang": 2869,
      "##iani": 2870,
      "##iano": 2871,
      "##ians": 2872,
      "##iant": 2873,
      "##ianti": 2874,
      "##iants": 2875,
      "##iao": 2876,
      "##iar": 2877,
      "##ias": 2878,
      "##iased": 2879,
      "##iated": 2880,
      "##iation": 2881,
      "##ib": 2882,
      "##iba": 2883,
      "##iber": 2884,
      "##ibility": 2885,
      "##ible": 2886,
      "##ibly": 2887,
      "##ibo": 2888,
      "##ibrated": 2889,
      "##ibration": 2890,
      "##ic": 2891,
      "##ica": 2892,
      "##ical": 2893,
      "##ically": 2894,
      "##icam": 2895,
      "##ican": 2896,
      "##icate": 2897,
      "##icated": 2898,
      "##icates": 2899,
      "##ication": 2900,
      "##ications": 2901,
      "##icative": 2902,
      "##icc": 2903,
      "##ice": 2904,
      "##icent": 2905,
      "##iceous": 2906,
      "##ices": 2907,
      "##ich": 2908,
      "##iche": 2909,
      "##icher": 2910,
      "##ichi": 2911,
      "##ichlet": 2912,
      "##icht": 2913,
      "##ici": 2914,
      "##icial": 2915,
      "##icially": 2916,
      "##icit": 2917,
      "##icities": 2918,
      "##icits": 2919,
      "##icity": 2920,
      "##ick": 2921,
      "##icka": 2922,
      "##icke": 2923,
      "##ickel": 2924,
      "##icki": 2925,
      "##icky": 2926,
      "##ico": 2927,
      "##ics": 2928,
      "##ict": 2929,
      "##ictor": 2930,
      "##icular": 2931,
      "##icus": 2932,
      "##icz": 2933,
      "##id": 2934,
      "##ida": 2935,
      "##idal": 2936,
      "##idan": 2937,
      "##idation": 2938,
      "##idden": 2939,
      "##ide": 2940,
      "##ided": 2941,
      "##idel": 2942,
      "##idelob": 2943,
      "##iden": 2944,
      "##idence": 2945,
      "##idences": 2946,
      "##ident": 2947,
      "##idental": 2948,
      "##identally": 2949,
      "##identif": 2950,
      "##identified": 2951,
      "##idently": 2952,
      "##ider": 2953,
      "##iders": 2954,
      "##ides": 2955,
      "##idespread": 2956,
      "##idge": 2957,
      "##idhar": 2958,
      "##idi": 2959,
      "##idic": 2960,
      "##idine": 2961,
      "##iding": 2962,
      "##idirectional": 2963,
      "##idis": 2964,
      "##idity": 2965,
      "##idium": 2966,
      "##idiurnal": 2967,
      "##ido": 2968,
      "##ids": 2969,
      "##idth": 2970,
      "##idual": 2971,
      "##ie": 2972,
      "##iec": 2973,
      "##ieco": 2974,
      "##ied": 2975,
      "##ieder": 2976,
      "##ief": 2977,
      "##iel": 2978,
      "##ield": 2979,
      "##ien": 2980,
      "##ience": 2981,
      "##ient": 2982,
      "##iently": 2983,
      "##ients": 2984,
      "##ieqn": 2985,
      "##ier": 2986,
      "##ierarch": 2987,
      "##ieri": 2988,
      "##iero": 2989,
      "##iers": 2990,
      "##ies": 2991,
      "##iess": 2992,
      "##iest": 2993,
      "##iet": 2994,
      "##ieu": 2995,
      "##iev": 2996,
      "##if": 2997,
      "##ife": 2998,
      "##ifer": 2999,
      "##ifera": 3000,
      "##iferous": 3001,
      "##ifers": 3002,
      "##iff": 3003,
      "##iffe": 3004,
      "##iffer": 3005,
      "##iffusion": 3006,
      "##ifi": 3007,
      "##ific": 3008,
      "##ifically": 3009,
      "##ification": 3010,
      "##ifications": 3011,
      "##ified": 3012,
      "##ifier": 3013,
      "##ifiers": 3014,
      "##ifies": 3015,
      "##ifold": 3016,
      "##iform": 3017,
      "##ift": 3018,
      "##ifted": 3019,
      "##ifth": 3020,
      "##ifting": 3021,
      "##ifts": 3022,
      "##ify": 3023,
      "##ifying": 3024,
      "##ig": 3025,
      "##iga": 3026,
      "##igan": 3027,
      "##igar": 3028,
      "##igation": 3029,
      "##ige": 3030,
      "##igen": 3031,
      "##igenic": 3032,
      "##igenous": 3033,
      "##iger": 3034,
      "##igg": 3035,
      "##iggle": 3036,
      "##iggs": 3037,
      "##igh": 3038,
      "##ighb": 3039,
      "##ighed": 3040,
      "##ight": 3041,
      "##ighted": 3042,
      "##ighter": 3043,
      "##ighth": 3044,
      "##ighting": 3045,
      "##ights": 3046,
      "##igible": 3047,
      "##igl": 3048,
      "##igm": 3049,
      "##ign": 3050,
      "##igned": 3051,
      "##ignific": 3052,
      "##ignificant": 3053,
      "##ignment": 3054,
      "##igny": 3055,
      "##igo": 3056,
      "##igrating": 3057,
      "##igt": 3058,
      "##igu": 3059,
      "##iguchi": 3060,
      "##ih": 3061,
      "##ihara": 3062,
      "##ihood": 3063,
      "##ii": 3064,
      "##ij": 3065,
      "##ijer": 3066,
      "##ijk": 3067,
      "##ijs": 3068,
      "##ik": 3069,
      "##ika": 3070,
      "##ikawa": 3071,
      "##ike": 3072,
      "##iken": 3073,
      "##ikh": 3074,
      "##iki": 3075,
      "##ikonal": 3076,
      "##ikov": 3077,
      "##il": 3078,
      "##ila": 3079,
      "##ilar": 3080,
      "##ilarities": 3081,
      "##ilateral": 3082,
      "##ilation": 3083,
      "##ilations": 3084,
      "##ild": 3085,
      "##ilding": 3086,
      "##ile": 3087,
      "##iled": 3088,
      "##iler": 3089,
      "##iles": 3090,
      "##iley": 3091,
      "##ili": 3092,
      "##iliary": 3093,
      "##ilib": 3094,
      "##ilibrated": 3095,
      "##ilibrium": 3096,
      "##ilic": 3097,
      "##ilight": 3098,
      "##ilinear": 3099,
      "##iling": 3100,
      "##ilit": 3101,
      "##ilite": 3102,
      "##ilites": 3103,
      "##ilities": 3104,
      "##ility": 3105,
      "##ilization": 3106,
      "##ilized": 3107,
      "##ill": 3108,
      "##illa": 3109,
      "##illan": 3110,
      "##illard": 3111,
      "##illary": 3112,
      "##ille": 3113,
      "##illed": 3114,
      "##illen": 3115,
      "##iller": 3116,
      "##illera": 3117,
      "##illeux": 3118,
      "##illi": 3119,
      "##illing": 3120,
      "##illo": 3121,
      "##ills": 3122,
      "##illy": 3123,
      "##ilos": 3124,
      "##ils": 3125,
      "##ilst": 3126,
      "##ilt": 3127,
      "##iltered": 3128,
      "##ily": 3129,
      "##im": 3130,
      "##ima": 3131,
      "##imajor": 3132,
      "##imal": 3133,
      "##imally": 3134,
      "##imals": 3135,
      "##iman": 3136,
      "##imation": 3137,
      "##imb": 3138,
      "##imbert": 3139,
      "##ime": 3140,
      "##imension": 3141,
      "##imensional": 3142,
      "##iment": 3143,
      "##imentary": 3144,
      "##iments": 3145,
      "##imer": 3146,
      "##imes": 3147,
      "##imet": 3148,
      "##imeter": 3149,
      "##imeters": 3150,
      "##imetre": 3151,
      "##imetric": 3152,
      "##imetry": 3153,
      "##imi": 3154,
      "##imin": 3155,
      "##imination": 3156,
      "##imir": 3157,
      "##imm": 3158,
      "##imodal": 3159,
      "##imoto": 3160,
      "##imp": 3161,
      "##ims": 3162,
      "##imum": 3163,
      "##imura": 3164,
      "##imuth": 3165,
      "##in": 3166,
      "##ina": 3167,
      "##inafter": 3168,
      "##inal": 3169,
      "##inally": 3170,
      "##inary": 3171,
      "##ination": 3172,
      "##inations": 3173,
      "##inav": 3174,
      "##inc": 3175,
      "##ince": 3176,
      "##inces": 3177,
      "##ind": 3178,
      "##inder": 3179,
      "##inding": 3180,
      "##indler": 3181,
      "##ine": 3182,
      "##inear": 3183,
      "##ined": 3184,
      "##inelli": 3185,
      "##inement": 3186,
      "##inen": 3187,
      "##iner": 3188,
      "##ineral": 3189,
      "##ines": 3190,
      "##inese": 3191,
      "##inesq": 3192,
      "##iness": 3193,
      "##inet": 3194,
      "##inf": 3195,
      "##ing": 3196,
      "##inga": 3197,
      "##inger": 3198,
      "##ingly": 3199,
      "##ings": 3200,
      "##ington": 3201,
      "##ini": 3202,
      "##inia": 3203,
      "##inian": 3204,
      "##inic": 3205,
      "##inin": 3206,
      "##ining": 3207,
      "##inis": 3208,
      "##inite": 3209,
      "##initely": 3210,
      "##inites": 3211,
      "##inities": 3212,
      "##inition": 3213,
      "##inity": 3214,
      "##ink": 3215,
      "##inker": 3216,
      "##inn": 3217,
      "##inned": 3218,
      "##inner": 3219,
      "##inney": 3220,
      "##inning": 3221,
      "##innon": 3222,
      "##ino": 3223,
      "##inois": 3224,
      "##inormal": 3225,
      "##inos": 3226,
      "##inov": 3227,
      "##ins": 3228,
      "##insic": 3229,
      "##inska": 3230,
      "##inski": 3231,
      "##insky": 3232,
      "##insley": 3233,
      "##inson": 3234,
      "##insula": 3235,
      "##int": 3236,
      "##inted": 3237,
      "##integ": 3238,
      "##inter": 3239,
      "##interp": 3240,
      "##intill": 3241,
      "##inting": 3242,
      "##intock": 3243,
      "##ints": 3244,
      "##intu": 3245,
      "##inus": 3246,
      "##io": 3247,
      "##ioc": 3248,
      "##iocene": 3249,
      "##iocentric": 3250,
      "##ioclase": 3251,
      "##iod": 3252,
      "##iol": 3253,
      "##iolis": 3254,
      "##ion": 3255,
      "##ional": 3256,
      "##ionally": 3257,
      "##ione": 3258,
      "##ioneer": 3259,
      "##ioneering": 3260,
      "##ioni": 3261,
      "##ionic": 3262,
      "##ionization": 3263,
      "##ionized": 3264,
      "##ions": 3265,
      "##iop": 3266,
      "##ior": 3267,
      "##iors": 3268,
      "##ios": 3269,
      "##iot": 3270,
      "##iotic": 3271,
      "##ious": 3272,
      "##iously": 3273,
      "##ip": 3274,
      "##ipel": 3275,
      "##iper": 3276,
      "##iph": 3277,
      "##iphatic": 3278,
      "##ipher": 3279,
      "##ipient": 3280,
      "##ipii": 3281,
      "##ipit": 3282,
      "##ipitation": 3283,
      "##ipolar": 3284,
      "##ipp": 3285,
      "##ipped": 3286,
      "##ipping": 3287,
      "##ipple": 3288,
      "##ips": 3289,
      "##iqu": 3290,
      "##ique": 3291,
      "##iques": 3292,
      "##ir": 3293,
      "##ira": 3294,
      "##irable": 3295,
      "##iral": 3296,
      "##iration": 3297,
      "##irc": 3298,
      "##ircon": 3299,
      "##ircons": 3300,
      "##ircular": 3301,
      "##ird": 3302,
      "##ire": 3303,
      "##irect": 3304,
      "##ired": 3305,
      "##ires": 3306,
      "##irez": 3307,
      "##irical": 3308,
      "##iring": 3309,
      "##irm": 3310,
      "##iro": 3311,
      "##iron": 3312,
      "##irst": 3313,
      "##irth": 3314,
      "##irty": 3315,
      "##is": 3316,
      "##isal": 3317,
      "##isance": 3318,
      "##isation": 3319,
      "##isations": 3320,
      "##isc": 3321,
      "##iscan": 3322,
      "##isch": 3323,
      "##ische": 3324,
      "##ischer": 3325,
      "##iscid": 3326,
      "##isco": 3327,
      "##ise": 3328,
      "##isec": 3329,
      "##ised": 3330,
      "##isely": 3331,
      "##isen": 3332,
      "##isenberg": 3333,
      "##iser": 3334,
      "##ises": 3335,
      "##ish": 3336,
      "##ished": 3337,
      "##isher": 3338,
      "##ishers": 3339,
      "##ishes": 3340,
      "##ishi": 3341,
      "##ishing": 3342,
      "##isi": 3343,
      "##iside": 3344,
      "##ising": 3345,
      "##ision": 3346,
      "##isis": 3347,
      "##isk": 3348,
      "##isler": 3349,
      "##ism": 3350,
      "##ismic": 3351,
      "##isms": 3352,
      "##ison": 3353,
      "##isons": 3354,
      "##isot": 3355,
      "##isp": 3356,
      "##ispect": 3357,
      "##ispectra": 3358,
      "##ispectrum": 3359,
      "##isper": 3360,
      "##iss": 3361,
      "##issa": 3362,
      "##issance": 3363,
      "##issen": 3364,
      "##isser": 3365,
      "##issi": 3366,
      "##issible": 3367,
      "##ission": 3368,
      "##issner": 3369,
      "##isson": 3370,
      "##ist": 3371,
      "##ista": 3372,
      "##istan": 3373,
      "##istant": 3374,
      "##istatic": 3375,
      "##isted": 3376,
      "##istent": 3377,
      "##ister": 3378,
      "##istered": 3379,
      "##istic": 3380,
      "##isting": 3381,
      "##istingu": 3382,
      "##istinguish": 3383,
      "##istinguishable": 3384,
      "##isto": 3385,
      "##istocene": 3386,
      "##iston": 3387,
      "##istration": 3388,
      "##istry": 3389,
      "##ists": 3390,
      "##isu": 3391,
      "##it": 3392,
      "##ita": 3393,
      "##itable": 3394,
      "##itably": 3395,
      "##itage": 3396,
      "##ital": 3397,
      "##itan": 3398,
      "##itance": 3399,
      "##itation": 3400,
      "##itational": 3401,
      "##itations": 3402,
      "##itatis": 3403,
      "##itch": 3404,
      "##itched": 3405,
      "##itches": 3406,
      "##ite": 3407,
      "##itect": 3408,
      "##ited": 3409,
      "##itely": 3410,
      "##iten": 3411,
      "##iteness": 3412,
      "##iter": 3413,
      "##iters": 3414,
      "##ites": 3415,
      "##ith": 3416,
      "##ithe": 3417,
      "##ither": 3418,
      "##ithermal": 3419,
      "##itherto": 3420,
      "##ithm": 3421,
      "##ithms": 3422,
      "##ithub": 3423,
      "##iti": 3424,
      "##itic": 3425,
      "##itical": 3426,
      "##itics": 3427,
      "##ities": 3428,
      "##iting": 3429,
      "##ition": 3430,
      "##itions": 3431,
      "##itive": 3432,
      "##itively": 3433,
      "##itization": 3434,
      "##itized": 3435,
      "##ito": 3436,
      "##iton": 3437,
      "##itor": 3438,
      "##itored": 3439,
      "##itors": 3440,
      "##itous": 3441,
      "##itously": 3442,
      "##itr": 3443,
      "##itri": 3444,
      "##itrification": 3445,
      "##its": 3446,
      "##itsch": 3447,
      "##itsky": 3448,
      "##itt": 3449,
      "##itter": 3450,
      "##ittle": 3451,
      "##itude": 3452,
      "##itudes": 3453,
      "##itudinal": 3454,
      "##ity": 3455,
      "##itz": 3456,
      "##itzer": 3457,
      "##ium": 3458,
      "##iunas": 3459,
      "##ius": 3460,
      "##iv": 3461,
      "##ival": 3462,
      "##ivalent": 3463,
      "##ivan": 3464,
      "##ivariate": 3465,
      "##ive": 3466,
      "##ived": 3467,
      "##ively": 3468,
      "##iven": 3469,
      "##iver": 3470,
      "##ivers": 3471,
      "##ives": 3472,
      "##iving": 3473,
      "##ivity": 3474,
      "##iw": 3475,
      "##ix": 3476,
      "##ixed": 3477,
      "##ixel": 3478,
      "##ixels": 3479,
      "##ixing": 3480,
      "##ixon": 3481,
      "##iy": 3482,
      "##iz": 3483,
      "##izability": 3484,
      "##izable": 3485,
      "##ization": 3486,
      "##izations": 3487,
      "##ize": 3488,
      "##ized": 3489,
      "##izer": 3490,
      "##izers": 3491,
      "##izes": 3492,
      "##izing": 3493,
      "##izou": 3494,
      "##izu": 3495,
      "##izz": 3496,
      "##izzo": 3497,
      "##i¬": 3498,
      "##j": 3499,
      "##ja": 3500,
      "##jak": 3501,
      "##jan": 3502,
      "##jar": 3503,
      "##je": 3504,
      "##ject": 3505,
      "##jecta": 3506,
      "##jected": 3507,
      "##jecting": 3508,
      "##jection": 3509,
      "##jections": 3510,
      "##jective": 3511,
      "##jector": 3512,
      "##jectories": 3513,
      "##jectory": 3514,
      "##jects": 3515,
      "##jee": 3516,
      "##jer": 3517,
      "##jet": 3518,
      "##jevic": 3519,
      "##ji": 3520,
      "##jiang": 3521,
      "##jk": 3522,
      "##jo": 3523,
      "##joint": 3524,
      "##jord": 3525,
      "##js": 3526,
      "##just": 3527,
      "##k": 3528,
      "##ka": 3529,
      "##kal": 3530,
      "##kan": 3531,
      "##kar": 3532,
      "##karni": 3533,
      "##kaya": 3534,
      "##ke": 3535,
      "##keV": 3536,
      "##ked": 3537,
      "##kel": 3538,
      "##keley": 3539,
      "##ken": 3540,
      "##kenstein": 3541,
      "##ker": 3542,
      "##kers": 3543,
      "##kert": 3544,
      "##kes": 3545,
      "##key": 3546,
      "##kg": 3547,
      "##kh": 3548,
      "##khar": 3549,
      "##ki": 3550,
      "##kian": 3551,
      "##kiewicz": 3552,
      "##kii": 3553,
      "##kin": 3554,
      "##kine": 3555,
      "##king": 3556,
      "##kins": 3557,
      "##kinson": 3558,
      "##kis": 3559,
      "##kl": 3560,
      "##km": 3561,
      "##kms": 3562,
      "##kn": 3563,
      "##knife": 3564,
      "##known": 3565,
      "##ko": 3566,
      "##koh": 3567,
      "##kop": 3568,
      "##kopf": 3569,
      "##kov": 3570,
      "##kova": 3571,
      "##kovsky": 3572,
      "##kowski": 3573,
      "##kpc": 3574,
      "##ks": 3575,
      "##kt": 3576,
      "##ky": 3577,
      "##kyo": 3578,
      "##l": 3579,
      "##la": 3580,
      "##lab": 3581,
      "##lac": 3582,
      "##lacial": 3583,
      "##lag": 3584,
      "##lam": 3585,
      "##lan": 3586,
      "##land": 3587,
      "##landite": 3588,
      "##lands": 3589,
      "##lanet": 3590,
      "##lar": 3591,
      "##las": 3592,
      "##lase": 3593,
      "##lass": 3594,
      "##lassical": 3595,
      "##lassif": 3596,
      "##lassified": 3597,
      "##lastic": 3598,
      "##late": 3599,
      "##lated": 3600,
      "##lation": 3601,
      "##law": 3602,
      "##lay": 3603,
      "##layer": 3604,
      "##ld": 3605,
      "##ldt": 3606,
      "##le": 3607,
      "##lean": 3608,
      "##lear": 3609,
      "##led": 3610,
      "##lee": 3611,
      "##leg": 3612,
      "##legre": 3613,
      "##leigh": 3614,
      "##lem": 3615,
      "##lement": 3616,
      "##lementary": 3617,
      "##lementing": 3618,
      "##lements": 3619,
      "##len": 3620,
      "##ler": 3621,
      "##lers": 3622,
      "##les": 3623,
      "##less": 3624,
      "##lessen": 3625,
      "##lest": 3626,
      "##let": 3627,
      "##letin": 3628,
      "##leton": 3629,
      "##lets": 3630,
      "##lett": 3631,
      "##leum": 3632,
      "##lev": 3633,
      "##levich": 3634,
      "##lew": 3635,
      "##lex": 3636,
      "##ley": 3637,
      "##leys": 3638,
      "##li": 3639,
      "##lia": 3640,
      "##lic": 3641,
      "##lich": 3642,
      "##lid": 3643,
      "##lide": 3644,
      "##lidean": 3645,
      "##lides": 3646,
      "##lie": 3647,
      "##lied": 3648,
      "##lier": 3649,
      "##liers": 3650,
      "##lies": 3651,
      "##liest": 3652,
      "##light": 3653,
      "##lik": 3654,
      "##like": 3655,
      "##lim": 3656,
      "##lin": 3657,
      "##linary": 3658,
      "##lind": 3659,
      "##linder": 3660,
      "##line": 3661,
      "##linear": 3662,
      "##linearities": 3663,
      "##lines": 3664,
      "##ling": 3665,
      "##linger": 3666,
      "##lings": 3667,
      "##link": 3668,
      "##linski": 3669,
      "##linson": 3670,
      "##lio": 3671,
      "##lip": 3672,
      "##lique": 3673,
      "##lis": 3674,
      "##lish": 3675,
      "##lished": 3676,
      "##lit": 3677,
      "##lite": 3678,
      "##ll": 3679,
      "##lla": 3680,
      "##ller": 3681,
      "##lli": 3682,
      "##llier": 3683,
      "##llium": 3684,
      "##llll": 3685,
      "##llo": 3686,
      "##lm": 3687,
      "##ln": 3688,
      "##lo": 3689,
      "##load": 3690,
      "##lob": 3691,
      "##lock": 3692,
      "##log": 3693,
      "##logop": 3694,
      "##logopite": 3695,
      "##lomer": 3696,
      "##lon": 3697,
      "##long": 3698,
      "##look": 3699,
      "##lop": 3700,
      "##lor": 3701,
      "##lored": 3702,
      "##los": 3703,
      "##lot": 3704,
      "##lov": 3705,
      "##low": 3706,
      "##lowski": 3707,
      "##loy": 3708,
      "##loying": 3709,
      "##ls": 3710,
      "##lu": 3711,
      "##luence": 3712,
      "##luent": 3713,
      "##lumin": 3714,
      "##luminal": 3715,
      "##lump": 3716,
      "##lund": 3717,
      "##lung": 3718,
      "##lus": 3719,
      "##lust": 3720,
      "##luster": 3721,
      "##lusters": 3722,
      "##lution": 3723,
      "##lux": 3724,
      "##ly": 3725,
      "##lyc": 3726,
      "##lying": 3727,
      "##lys": 3728,
      "##lysis": 3729,
      "##lysmic": 3730,
      "##lysses": 3731,
      "##m": 3732,
      "##ma": 3733,
      "##maf": 3734,
      "##mafic": 3735,
      "##mafrost": 3736,
      "##mag": 3737,
      "##mair": 3738,
      "##mal": 3739,
      "##man": 3740,
      "##mann": 3741,
      "##mans": 3742,
      "##map": 3743,
      "##mar": 3744,
      "##mark": 3745,
      "##mas": 3746,
      "##mass": 3747,
      "##matic": 3748,
      "##matically": 3749,
      "##matism": 3750,
      "##max": 3751,
      "##maz": 3752,
      "##mb": 3753,
      "##mber": 3754,
      "##mberg": 3755,
      "##me": 3756,
      "##meas": 3757,
      "##med": 3758,
      "##medi": 3759,
      "##mediate": 3760,
      "##mediately": 3761,
      "##meier": 3762,
      "##meister": 3763,
      "##melt": 3764,
      "##men": 3765,
      "##menite": 3766,
      "##ment": 3767,
      "##mental": 3768,
      "##mentation": 3769,
      "##mented": 3770,
      "##menting": 3771,
      "##mentioned": 3772,
      "##ments": 3773,
      "##mer": 3774,
      "##merc": 3775,
      "##mes": 3776,
      "##met": 3777,
      "##metz": 3778,
      "##mg": 3779,
      "##mi": 3780,
      "##mic": 3781,
      "##mid": 3782,
      "##midnight": 3783,
      "##midt": 3784,
      "##mill": 3785,
      "##min": 3786,
      "##ming": 3787,
      "##ministration": 3788,
      "##mis": 3789,
      "##mission": 3790,
      "##mit": 3791,
      "##mite": 3792,
      "##mith": 3793,
      "##mitt": 3794,
      "##mittance": 3795,
      "##mitte": 3796,
      "##mitted": 3797,
      "##mittee": 3798,
      "##mium": 3799,
      "##ml": 3800,
      "##mm": 3801,
      "##mmet": 3802,
      "##mmmm": 3803,
      "##mo": 3804,
      "##mock": 3805,
      "##mog": 3806,
      "##mol": 3807,
      "##momentum": 3808,
      "##mon": 3809,
      "##mond": 3810,
      "##monic": 3811,
      "##mont": 3812,
      "##monti": 3813,
      "##more": 3814,
      "##most": 3815,
      "##mouth": 3816,
      "##mp": 3817,
      "##mph": 3818,
      "##mpl": 3819,
      "##ms": 3820,
      "##msstrahlung": 3821,
      "##muir": 3822,
      "##mund": 3823,
      "##my": 3824,
      "##n": 3825,
      "##nS": 3826,
      "##na": 3827,
      "##naissance": 3828,
      "##nal": 3829,
      "##nals": 3830,
      "##nam": 3831,
      "##nan": 3832,
      "##nar": 3833,
      "##nas": 3834,
      "##nat": 3835,
      "##naud": 3836,
      "##nc": 3837,
      "##nd": 3838,
      "##nden": 3839,
      "##nder": 3840,
      "##nders": 3841,
      "##ndes": 3842,
      "##nds": 3843,
      "##ne": 3844,
      "##neath": 3845,
      "##neau": 3846,
      "##nected": 3847,
      "##nection": 3848,
      "##ned": 3849,
      "##nedy": 3850,
      "##neg": 3851,
      "##negie": 3852,
      "##neiss": 3853,
      "##nel": 3854,
      "##nell": 3855,
      "##nelt": 3856,
      "##neous": 3857,
      "##ner": 3858,
      "##ners": 3859,
      "##nes": 3860,
      "##ness": 3861,
      "##nest": 3862,
      "##net": 3863,
      "##neut": 3864,
      "##ney": 3865,
      "##ng": 3866,
      "##ngoing": 3867,
      "##ni": 3868,
      "##niak": 3869,
      "##nick": 3870,
      "##nier": 3871,
      "##night": 3872,
      "##nih": 3873,
      "##nik": 3874,
      "##nikov": 3875,
      "##ning": 3876,
      "##nis": 3877,
      "##nite": 3878,
      "##nition": 3879,
      "##nium": 3880,
      "##nm": 3881,
      "##nn": 3882,
      "##no": 3883,
      "##non": 3884,
      "##noon": 3885,
      "##norm": 3886,
      "##normal": 3887,
      "##normally": 3888,
      "##not": 3889,
      "##note": 3890,
      "##nov": 3891,
      "##nova": 3892,
      "##novae": 3893,
      "##ns": 3894,
      "##nt": 3895,
      "##nton": 3896,
      "##nts": 3897,
      "##ntz": 3898,
      "##nual": 3899,
      "##nus": 3900,
      "##ny": 3901,
      "##o": 3902,
      "##oa": 3903,
      "##oan": 3904,
      "##oard": 3905,
      "##ob": 3906,
      "##oba": 3907,
      "##obacter": 3908,
      "##obar": 3909,
      "##obi": 3910,
      "##obos": 3911,
      "##obs": 3912,
      "##oc": 3913,
      "##ocal": 3914,
      "##ocally": 3915,
      "##ocarbon": 3916,
      "##ocate": 3917,
      "##ocated": 3918,
      "##ocation": 3919,
      "##ocations": 3920,
      "##occ": 3921,
      "##occul": 3922,
      "##ocene": 3923,
      "##ocent": 3924,
      "##ocenter": 3925,
      "##ocentric": 3926,
      "##och": 3927,
      "##oche": 3928,
      "##ochem": 3929,
      "##ochemical": 3930,
      "##ochemistry": 3931,
      "##ochim": 3932,
      "##ochron": 3933,
      "##ochthon": 3934,
      "##ochthonous": 3935,
      "##oci": 3936,
      "##ociated": 3937,
      "##ociation": 3938,
      "##ociety": 3939,
      "##ock": 3940,
      "##ocki": 3941,
      "##ocking": 3942,
      "##ockwise": 3943,
      "##oclase": 3944,
      "##oclim": 3945,
      "##oclin": 3946,
      "##ocline": 3947,
      "##oclinic": 3948,
      "##ocor": 3949,
      "##ocryst": 3950,
      "##ocrystalline": 3951,
      "##ocrysts": 3952,
      "##oct": 3953,
      "##octial": 3954,
      "##ocy": 3955,
      "##od": 3956,
      "##oda": 3957,
      "##odal": 3958,
      "##ode": 3959,
      "##oded": 3960,
      "##odel": 3961,
      "##oder": 3962,
      "##odes": 3963,
      "##odetic": 3964,
      "##odi": 3965,
      "##odiacal": 3966,
      "##odic": 3967,
      "##odies": 3968,
      "##oding": 3969,
      "##odior": 3970,
      "##odium": 3971,
      "##ods": 3972,
      "##ody": 3973,
      "##odymium": 3974,
      "##odynam": 3975,
      "##odynamic": 3976,
      "##odynamics": 3977,
      "##odyne": 3978,
      "##oe": 3979,
      "##oeck": 3980,
      "##oeff": 3981,
      "##oelastic": 3982,
      "##oen": 3983,
      "##oenix": 3984,
      "##oenviron": 3985,
      "##oes": 3986,
      "##oester": 3987,
      "##of": 3988,
      "##off": 3989,
      "##offel": 3990,
      "##oft": 3991,
      "##ofu": 3992,
      "##og": 3993,
      "##ogan": 3994,
      "##oge": 3995,
      "##ogee": 3996,
      "##ogel": 3997,
      "##ogen": 3998,
      "##ogene": 3999,
      "##ogenesis": 4000,
      "##ogenic": 4001,
      "##ogenous": 4002,
      "##ogens": 4003,
      "##ogether": 4004,
      "##ogg": 4005,
      "##ogi": 4006,
      "##ogl": 4007,
      "##ogn": 4008,
      "##ogr": 4009,
      "##ogram": 4010,
      "##ograms": 4011,
      "##ogran": 4012,
      "##ograph": 4013,
      "##ographic": 4014,
      "##ographical": 4015,
      "##ographically": 4016,
      "##ographs": 4017,
      "##ography": 4018,
      "##ogu": 4019,
      "##oh": 4020,
      "##ohaline": 4021,
      "##ohl": 4022,
      "##ohn": 4023,
      "##ohyd": 4024,
      "##ohydrodynam": 4025,
      "##oi": 4026,
      "##oic": 4027,
      "##oid": 4028,
      "##oidal": 4029,
      "##oids": 4030,
      "##oij": 4031,
      "##oil": 4032,
      "##oing": 4033,
      "##oint": 4034,
      "##ointensity": 4035,
      "##oints": 4036,
      "##oir": 4037,
      "##ois": 4038,
      "##oise": 4039,
      "##ok": 4040,
      "##oka": 4041,
      "##okande": 4042,
      "##okawa": 4043,
      "##oke": 4044,
      "##oker": 4045,
      "##okes": 4046,
      "##okh": 4047,
      "##oki": 4048,
      "##oking": 4049,
      "##okk": 4050,
      "##okkum": 4051,
      "##oku": 4052,
      "##okurov": 4053,
      "##ol": 4054,
      "##ola": 4055,
      "##olar": 4056,
      "##olarized": 4057,
      "##olate": 4058,
      "##olated": 4059,
      "##olates": 4060,
      "##olating": 4061,
      "##olation": 4062,
      "##olations": 4063,
      "##olc": 4064,
      "##old": 4065,
      "##oldi": 4066,
      "##olds": 4067,
      "##ole": 4068,
      "##olecular": 4069,
      "##oles": 4070,
      "##olet": 4071,
      "##olev": 4072,
      "##oley": 4073,
      "##olf": 4074,
      "##oli": 4075,
      "##olia": 4076,
      "##olian": 4077,
      "##olic": 4078,
      "##olid": 4079,
      "##olidated": 4080,
      "##olidus": 4081,
      "##olin": 4082,
      "##oline": 4083,
      "##oling": 4084,
      "##olis": 4085,
      "##olite": 4086,
      "##olites": 4087,
      "##olith": 4088,
      "##olithic": 4089,
      "##oliths": 4090,
      "##olitic": 4091,
      "##oliubov": 4092,
      "##oll": 4093,
      "##olla": 4094,
      "##ollary": 4095,
      "##olle": 4096,
      "##ollo": 4097,
      "##ollow": 4098,
      "##olly": 4099,
      "##olo": 4100,
      "##olog": 4101,
      "##ologic": 4102,
      "##ological": 4103,
      "##ologically": 4104,
      "##ologie": 4105,
      "##ologies": 4106,
      "##ologists": 4107,
      "##ology": 4108,
      "##olor": 4109,
      "##ols": 4110,
      "##olsky": 4111,
      "##olt": 4112,
      "##oluble": 4113,
      "##olute": 4114,
      "##olution": 4115,
      "##olve": 4116,
      "##olved": 4117,
      "##olves": 4118,
      "##olving": 4119,
      "##oly": 4120,
      "##olysis": 4121,
      "##om": 4122,
      "##oma": 4123,
      "##omag": 4124,
      "##omagn": 4125,
      "##omagnetic": 4126,
      "##omagnetism": 4127,
      "##omain": 4128,
      "##omal": 4129,
      "##omar": 4130,
      "##omas": 4131,
      "##omati": 4132,
      "##omatic": 4133,
      "##omb": 4134,
      "##ombic": 4135,
      "##ombination": 4136,
      "##ombo": 4137,
      "##ome": 4138,
      "##omen": 4139,
      "##oment": 4140,
      "##omentum": 4141,
      "##omer": 4142,
      "##omers": 4143,
      "##omes": 4144,
      "##omet": 4145,
      "##ometer": 4146,
      "##ometers": 4147,
      "##omething": 4148,
      "##ometric": 4149,
      "##ometrically": 4150,
      "##ometry": 4151,
      "##omew": 4152,
      "##omez": 4153,
      "##omi": 4154,
      "##omial": 4155,
      "##omic": 4156,
      "##omin": 4157,
      "##ominant": 4158,
      "##oming": 4159,
      "##omit": 4160,
      "##omite": 4161,
      "##omm": 4162,
      "##ommod": 4163,
      "##ommut": 4164,
      "##omo": 4165,
      "##omogene": 4166,
      "##omogeneity": 4167,
      "##omogeneous": 4168,
      "##omon": 4169,
      "##omorph": 4170,
      "##omorphic": 4171,
      "##omp": 4172,
      "##ompact": 4173,
      "##ompl": 4174,
      "##omplet": 4175,
      "##omponent": 4176,
      "##oms": 4177,
      "##on": 4178,
      "##ona": 4179,
      "##onal": 4180,
      "##onald": 4181,
      "##onally": 4182,
      "##onance": 4183,
      "##onant": 4184,
      "##ond": 4185,
      "##onda": 4186,
      "##onde": 4187,
      "##onder": 4188,
      "##ondes": 4189,
      "##ondition": 4190,
      "##onds": 4191,
      "##onduc": 4192,
      "##one": 4193,
      "##oned": 4194,
      "##onen": 4195,
      "##onent": 4196,
      "##onents": 4197,
      "##ones": 4198,
      "##oney": 4199,
      "##onf": 4200,
      "##ong": 4201,
      "##oni": 4202,
      "##onia": 4203,
      "##onian": 4204,
      "##onic": 4205,
      "##onical": 4206,
      "##onically": 4207,
      "##onis": 4208,
      "##onite": 4209,
      "##onites": 4210,
      "##onitic": 4211,
      "##onn": 4212,
      "##onom": 4213,
      "##onomic": 4214,
      "##onomy": 4215,
      "##onormal": 4216,
      "##onov": 4217,
      "##onova": 4218,
      "##ons": 4219,
      "##onse": 4220,
      "##onses": 4221,
      "##onsin": 4222,
      "##onski": 4223,
      "##onso": 4224,
      "##onsolidated": 4225,
      "##ont": 4226,
      "##onuclear": 4227,
      "##onv": 4228,
      "##ony": 4229,
      "##onym": 4230,
      "##onymous": 4231,
      "##oo": 4232,
      "##ood": 4233,
      "##ool": 4234,
      "##oon": 4235,
      "##oons": 4236,
      "##oooo": 4237,
      "##oot": 4238,
      "##ooter": 4239,
      "##ootes": 4240,
      "##ooth": 4241,
      "##oothed": 4242,
      "##oother": 4243,
      "##ooting": 4244,
      "##ootstra": 4245,
      "##op": 4246,
      "##oparsec": 4247,
      "##opause": 4248,
      "##ope": 4249,
      "##oped": 4250,
      "##oper": 4251,
      "##opers": 4252,
      "##opes": 4253,
      "##oph": 4254,
      "##ophile": 4255,
      "##ophistic": 4256,
      "##ophy": 4257,
      "##ophyll": 4258,
      "##ophys": 4259,
      "##ophysical": 4260,
      "##ophysics": 4261,
      "##opia": 4262,
      "##opic": 4263,
      "##opically": 4264,
      "##oping": 4265,
      "##opl": 4266,
      "##oplan": 4267,
      "##oplanet": 4268,
      "##oplanets": 4269,
      "##oplankton": 4270,
      "##ople": 4271,
      "##opole": 4272,
      "##opotential": 4273,
      "##opoul": 4274,
      "##opoulos": 4275,
      "##opro": 4276,
      "##oproterozoic": 4277,
      "##ops": 4278,
      "##opsi": 4279,
      "##opside": 4280,
      "##opsided": 4281,
      "##optic": 4282,
      "##opy": 4283,
      "##opyc": 4284,
      "##opyrite": 4285,
      "##opyrox": 4286,
      "##opyroxene": 4287,
      "##opyroxenes": 4288,
      "##or": 4289,
      "##ora": 4290,
      "##orad": 4291,
      "##oradi": 4292,
      "##orado": 4293,
      "##orage": 4294,
      "##oral": 4295,
      "##oration": 4296,
      "##oratories": 4297,
      "##oratory": 4298,
      "##orb": 4299,
      "##orbed": 4300,
      "##orbit": 4301,
      "##orbital": 4302,
      "##ord": 4303,
      "##ordance": 4304,
      "##ordant": 4305,
      "##order": 4306,
      "##orders": 4307,
      "##ordi": 4308,
      "##ordial": 4309,
      "##ordin": 4310,
      "##ordination": 4311,
      "##ording": 4312,
      "##ords": 4313,
      "##ore": 4314,
      "##ored": 4315,
      "##oreg": 4316,
      "##oren": 4317,
      "##orer": 4318,
      "##ores": 4319,
      "##orf": 4320,
      "##org": 4321,
      "##organ": 4322,
      "##organic": 4323,
      "##orge": 4324,
      "##orh": 4325,
      "##ori": 4326,
      "##oric": 4327,
      "##orient": 4328,
      "##ories": 4329,
      "##orily": 4330,
      "##oring": 4331,
      "##oris": 4332,
      "##orite": 4333,
      "##oriz": 4334,
      "##orizon": 4335,
      "##ork": 4336,
      "##orld": 4337,
      "##orm": 4338,
      "##ormal": 4339,
      "##orn": 4340,
      "##orny": 4341,
      "##oro": 4342,
      "##orod": 4343,
      "##orodov": 4344,
      "##orot": 4345,
      "##orotational": 4346,
      "##orous": 4347,
      "##orously": 4348,
      "##orov": 4349,
      "##orp": 4350,
      "##orph": 4351,
      "##orption": 4352,
      "##orr": 4353,
      "##orrected": 4354,
      "##orrel": 4355,
      "##orrelated": 4356,
      "##orrelation": 4357,
      "##orrelations": 4358,
      "##ors": 4359,
      "##orsch": 4360,
      "##orses": 4361,
      "##orseshoe": 4362,
      "##orski": 4363,
      "##orst": 4364,
      "##ort": 4365,
      "##ortant": 4366,
      "##orte": 4367,
      "##orted": 4368,
      "##orter": 4369,
      "##orth": 4370,
      "##orthy": 4371,
      "##orting": 4372,
      "##ortion": 4373,
      "##ortions": 4374,
      "##ortium": 4375,
      "##orton": 4376,
      "##orts": 4377,
      "##ortun": 4378,
      "##ortunately": 4379,
      "##orus": 4380,
      "##ory": 4381,
      "##os": 4382,
      "##osa": 4383,
      "##osal": 4384,
      "##osc": 4385,
      "##oscal": 4386,
      "##oscalar": 4387,
      "##oscale": 4388,
      "##osch": 4389,
      "##oscopic": 4390,
      "##ose": 4391,
      "##osed": 4392,
      "##oseism": 4393,
      "##oseismic": 4394,
      "##oseismology": 4395,
      "##osely": 4396,
      "##osen": 4397,
      "##oser": 4398,
      "##oses": 4399,
      "##osh": 4400,
      "##osheath": 4401,
      "##oshi": 4402,
      "##osi": 4403,
      "##osilic": 4404,
      "##osilicate": 4405,
      "##osing": 4406,
      "##osis": 4407,
      "##osit": 4408,
      "##osite": 4409,
      "##ositely": 4410,
      "##osites": 4411,
      "##ositic": 4412,
      "##osities": 4413,
      "##osition": 4414,
      "##ositions": 4415,
      "##osito": 4416,
      "##ository": 4417,
      "##osity": 4418,
      "##osium": 4419,
      "##osley": 4420,
      "##osol": 4421,
      "##osols": 4422,
      "##oson": 4423,
      "##osonde": 4424,
      "##osondes": 4425,
      "##osov": 4426,
      "##osp": 4427,
      "##ospace": 4428,
      "##osph": 4429,
      "##osphere": 4430,
      "##ospheres": 4431,
      "##ospheric": 4432,
      "##ospherically": 4433,
      "##ospin": 4434,
      "##oss": 4435,
      "##ossi": 4436,
      "##ossible": 4437,
      "##ossil": 4438,
      "##ossils": 4439,
      "##ost": 4440,
      "##ostas": 4441,
      "##ostasis": 4442,
      "##ostat": 4443,
      "##ostatic": 4444,
      "##oster": 4445,
      "##ostic": 4446,
      "##osting": 4447,
      "##ostra": 4448,
      "##ostratig": 4449,
      "##ostratigraphic": 4450,
      "##ostratigraphy": 4451,
      "##osure": 4452,
      "##osy": 4453,
      "##osynt": 4454,
      "##osynthesis": 4455,
      "##osynthetic": 4456,
      "##osystem": 4457,
      "##ot": 4458,
      "##ota": 4459,
      "##otail": 4460,
      "##otal": 4461,
      "##ote": 4462,
      "##otect": 4463,
      "##otectonic": 4464,
      "##oted": 4465,
      "##otely": 4466,
      "##otemp": 4467,
      "##otemporal": 4468,
      "##otential": 4469,
      "##otes": 4470,
      "##oth": 4471,
      "##othem": 4472,
      "##other": 4473,
      "##otherm": 4474,
      "##othermal": 4475,
      "##othermic": 4476,
      "##oti": 4477,
      "##otic": 4478,
      "##oting": 4479,
      "##otion": 4480,
      "##otland": 4481,
      "##oto": 4482,
      "##otom": 4483,
      "##otov": 4484,
      "##otransp": 4485,
      "##otranspiration": 4486,
      "##otron": 4487,
      "##otrophic": 4488,
      "##otropic": 4489,
      "##ots": 4490,
      "##ott": 4491,
      "##otta": 4492,
      "##otte": 4493,
      "##otted": 4494,
      "##ottest": 4495,
      "##otti": 4496,
      "##otto": 4497,
      "##ottom": 4498,
      "##oturb": 4499,
      "##otz": 4500,
      "##otzky": 4501,
      "##ou": 4502,
      "##oub": 4503,
      "##oubted": 4504,
      "##oubtedly": 4505,
      "##oud": 4506,
      "##oue": 4507,
      "##oug": 4508,
      "##ough": 4509,
      "##ought": 4510,
      "##ouin": 4511,
      "##oul": 4512,
      "##oula": 4513,
      "##ould": 4514,
      "##oule": 4515,
      "##oun": 4516,
      "##ounce": 4517,
      "##ounced": 4518,
      "##ound": 4519,
      "##ounds": 4520,
      "##oung": 4521,
      "##ount": 4522,
      "##ountain": 4523,
      "##ounted": 4524,
      "##ounting": 4525,
      "##ounts": 4526,
      "##oupl": 4527,
      "##ouple": 4528,
      "##oupled": 4529,
      "##ouples": 4530,
      "##our": 4531,
      "##oura": 4532,
      "##ourable": 4533,
      "##ourag": 4534,
      "##ource": 4535,
      "##ources": 4536,
      "##oured": 4537,
      "##ouri": 4538,
      "##ournal": 4539,
      "##ours": 4540,
      "##ourt": 4541,
      "##ous": 4542,
      "##ouse": 4543,
      "##ousins": 4544,
      "##ously": 4545,
      "##ouss": 4546,
      "##oustic": 4547,
      "##out": 4548,
      "##outh": 4549,
      "##outs": 4550,
      "##oux": 4551,
      "##ov": 4552,
      "##ova": 4553,
      "##oval": 4554,
      "##ovani": 4555,
      "##ove": 4556,
      "##ovember": 4557,
      "##over": 4558,
      "##overed": 4559,
      "##overing": 4560,
      "##overn": 4561,
      "##overy": 4562,
      "##ovi": 4563,
      "##ovian": 4564,
      "##ovic": 4565,
      "##ovich": 4566,
      "##ovici": 4567,
      "##ovician": 4568,
      "##oville": 4569,
      "##oving": 4570,
      "##ovite": 4571,
      "##ovsk": 4572,
      "##ovski": 4573,
      "##ovsky": 4574,
      "##ovy": 4575,
      "##ow": 4576,
      "##owa": 4577,
      "##owed": 4578,
      "##ower": 4579,
      "##owever": 4580,
      "##owicz": 4581,
      "##owing": 4582,
      "##owitz": 4583,
      "##owled": 4584,
      "##owledg": 4585,
      "##owledge": 4586,
      "##own": 4587,
      "##ows": 4588,
      "##owski": 4589,
      "##owsky": 4590,
      "##ox": 4591,
      "##oxic": 4592,
      "##oxide": 4593,
      "##oxy": 4594,
      "##oxyl": 4595,
      "##oxylic": 4596,
      "##oy": 4597,
      "##oya": 4598,
      "##oyama": 4599,
      "##oyle": 4600,
      "##oys": 4601,
      "##oz": 4602,
      "##oza": 4603,
      "##ozi": 4604,
      "##ozoic": 4605,
      "##p": 4606,
      "##pa": 4607,
      "##pack": 4608,
      "##pan": 4609,
      "##par": 4610,
      "##parallel": 4611,
      "##paramet": 4612,
      "##parametric": 4613,
      "##part": 4614,
      "##particle": 4615,
      "##pass": 4616,
      "##pat": 4617,
      "##pati": 4618,
      "##patrick": 4619,
      "##pb": 4620,
      "##pc": 4621,
      "##pe": 4622,
      "##pec": 4623,
      "##pect": 4624,
      "##pective": 4625,
      "##pectives": 4626,
      "##pend": 4627,
      "##pended": 4628,
      "##pendicular": 4629,
      "##penti": 4630,
      "##per": 4631,
      "##percent": 4632,
      "##period": 4633,
      "##periodic": 4634,
      "##pern": 4635,
      "##perturb": 4636,
      "##perturbed": 4637,
      "##perture": 4638,
      "##ph": 4639,
      "##pha": 4640,
      "##phal": 4641,
      "##phan": 4642,
      "##phas": 4643,
      "##phase": 4644,
      "##pher": 4645,
      "##pherd": 4646,
      "##phot": 4647,
      "##phy": 4648,
      "##phys": 4649,
      "##physical": 4650,
      "##pi": 4651,
      "##pin": 4652,
      "##pine": 4653,
      "##pite": 4654,
      "##pl": 4655,
      "##plan": 4656,
      "##planar": 4657,
      "##plane": 4658,
      "##planetary": 4659,
      "##plate": 4660,
      "##ple": 4661,
      "##ples": 4662,
      "##plet": 4663,
      "##plot": 4664,
      "##plots": 4665,
      "##plotted": 4666,
      "##pm": 4667,
      "##po": 4668,
      "##point": 4669,
      "##points": 4670,
      "##pole": 4671,
      "##port": 4672,
      "##pp": 4673,
      "##ppe": 4674,
      "##pped": 4675,
      "##pper": 4676,
      "##ppi": 4677,
      "##pping": 4678,
      "##ppler": 4679,
      "##ppm": 4680,
      "##ppo": 4681,
      "##pps": 4682,
      "##pr": 4683,
      "##pread": 4684,
      "##print": 4685,
      "##prising": 4686,
      "##prisingly": 4687,
      "##pro": 4688,
      "##proton": 4689,
      "##ps": 4690,
      "##pt": 4691,
      "##ption": 4692,
      "##ptor": 4693,
      "##pu": 4694,
      "##pur": 4695,
      "##put": 4696,
      "##py": 4697,
      "##q": 4698,
      "##qn": 4699,
      "##qu": 4700,
      "##quake": 4701,
      "##quakes": 4702,
      "##quar": 4703,
      "##quas": 4704,
      "##que": 4705,
      "##quencies": 4706,
      "##quency": 4707,
      "##queous": 4708,
      "##ques": 4709,
      "##quet": 4710,
      "##quez": 4711,
      "##qui": 4712,
      "##quiring": 4713,
      "##quis": 4714,
      "##quisite": 4715,
      "##quist": 4716,
      "##qvist": 4717,
      "##r": 4718,
      "##r2": 4719,
      "##ra": 4720,
      "##rab": 4721,
      "##rac": 4722,
      "##races": 4723,
      "##rack": 4724,
      "##ract": 4725,
      "##racted": 4726,
      "##ractical": 4727,
      "##racting": 4728,
      "##raction": 4729,
      "##ractions": 4730,
      "##ractive": 4731,
      "##ractor": 4732,
      "##ractory": 4733,
      "##racts": 4734,
      "##rad": 4735,
      "##radation": 4736,
      "##rade": 4737,
      "##raded": 4738,
      "##rades": 4739,
      "##radi": 4740,
      "##rading": 4741,
      "##rae": 4742,
      "##rael": 4743,
      "##raf": 4744,
      "##raft": 4745,
      "##rafts": 4746,
      "##rag": 4747,
      "##ragalactic": 4748,
      "##raham": 4749,
      "##rain": 4750,
      "##rained": 4751,
      "##raining": 4752,
      "##rains": 4753,
      "##rak": 4754,
      "##ral": 4755,
      "##rally": 4756,
      "##ram": 4757,
      "##rame": 4758,
      "##ramm": 4759,
      "##rams": 4760,
      "##ran": 4761,
      "##rance": 4762,
      "##rand": 4763,
      "##rane": 4764,
      "##ranean": 4765,
      "##ranes": 4766,
      "##rang": 4767,
      "##range": 4768,
      "##rans": 4769,
      "##ransp": 4770,
      "##ranular": 4771,
      "##rap": 4772,
      "##raph": 4773,
      "##raphic": 4774,
      "##raphy": 4775,
      "##rard": 4776,
      "##rared": 4777,
      "##raries": 4778,
      "##rary": 4779,
      "##ras": 4780,
      "##rase": 4781,
      "##rason": 4782,
      "##rasonic": 4783,
      "##rasound": 4784,
      "##rast": 4785,
      "##rastructure": 4786,
      "##rat": 4787,
      "##rate": 4788,
      "##rated": 4789,
      "##rateg": 4790,
      "##rates": 4791,
      "##rath": 4792,
      "##rather": 4793,
      "##rathermal": 4794,
      "##ratic": 4795,
      "##ratically": 4796,
      "##rating": 4797,
      "##ration": 4798,
      "##rational": 4799,
      "##rations": 4800,
      "##rative": 4801,
      "##rator": 4802,
      "##rators": 4803,
      "##ratum": 4804,
      "##rav": 4805,
      "##ravitational": 4806,
      "##ravity": 4807,
      "##raw": 4808,
      "##ray": 4809,
      "##rays": 4810,
      "##rd": 4811,
      "##re": 4812,
      "##rea": 4813,
      "##read": 4814,
      "##ready": 4815,
      "##ream": 4816,
      "##reat": 4817,
      "##reated": 4818,
      "##rec": 4819,
      "##reced": 4820,
      "##recedented": 4821,
      "##recht": 4822,
      "##recipitation": 4823,
      "##rect": 4824,
      "##rected": 4825,
      "##rection": 4826,
      "##rectional": 4827,
      "##red": 4828,
      "##redic": 4829,
      "##redict": 4830,
      "##reduc": 4831,
      "##ree": 4832,
      "##reed": 4833,
      "##reek": 4834,
      "##reement": 4835,
      "##reen": 4836,
      "##rees": 4837,
      "##ref": 4838,
      "##refring": 4839,
      "##reg": 4840,
      "##regon": 4841,
      "##regular": 4842,
      "##rehen": 4843,
      "##reich": 4844,
      "##rel": 4845,
      "##relativistic": 4846,
      "##rell": 4847,
      "##rels": 4848,
      "##rem": 4849,
      "##rema": 4850,
      "##ren": 4851,
      "##rence": 4852,
      "##rences": 4853,
      "##rend": 4854,
      "##rene": 4855,
      "##rens": 4856,
      "##rent": 4857,
      "##rep": 4858,
      "##requ": 4859,
      "##rer": 4860,
      "##res": 4861,
      "##rese": 4862,
      "##resent": 4863,
      "##resh": 4864,
      "##reshold": 4865,
      "##resolved": 4866,
      "##resonant": 4867,
      "##resp": 4868,
      "##respective": 4869,
      "##respond": 4870,
      "##ress": 4871,
      "##ressed": 4872,
      "##ressibility": 4873,
      "##ressible": 4874,
      "##ressing": 4875,
      "##ression": 4876,
      "##ressions": 4877,
      "##ressive": 4878,
      "##ressively": 4879,
      "##rest": 4880,
      "##restrial": 4881,
      "##ret": 4882,
      "##retation": 4883,
      "##rete": 4884,
      "##reted": 4885,
      "##reting": 4886,
      "##retion": 4887,
      "##rett": 4888,
      "##retta": 4889,
      "##rew": 4890,
      "##rey": 4891,
      "##reys": 4892,
      "##rez": 4893,
      "##rg": 4894,
      "##rgensen": 4895,
      "##rhen": 4896,
      "##rho": 4897,
      "##rhotite": 4898,
      "##ri": 4899,
      "##ria": 4900,
      "##riad": 4901,
      "##rial": 4902,
      "##rian": 4903,
      "##rib": 4904,
      "##ribe": 4905,
      "##ribed": 4906,
      "##ributed": 4907,
      "##ribution": 4908,
      "##ric": 4909,
      "##rical": 4910,
      "##rically": 4911,
      "##ricane": 4912,
      "##rice": 4913,
      "##rices": 4914,
      "##rich": 4915,
      "##riched": 4916,
      "##rick": 4917,
      "##rict": 4918,
      "##rid": 4919,
      "##ridge": 4920,
      "##rie": 4921,
      "##ried": 4922,
      "##rief": 4923,
      "##riel": 4924,
      "##rient": 4925,
      "##rier": 4926,
      "##riers": 4927,
      "##ries": 4928,
      "##rig": 4929,
      "##right": 4930,
      "##rij": 4931,
      "##rijver": 4932,
      "##riker": 4933,
      "##ril": 4934,
      "##rill": 4935,
      "##rim": 4936,
      "##rime": 4937,
      "##rin": 4938,
      "##rine": 4939,
      "##ring": 4940,
      "##ringer": 4941,
      "##rings": 4942,
      "##rington": 4943,
      "##rini": 4944,
      "##rink": 4945,
      "##rino": 4946,
      "##rinos": 4947,
      "##rint": 4948,
      "##rinted": 4949,
      "##rints": 4950,
      "##rip": 4951,
      "##ript": 4952,
      "##ription": 4953,
      "##riptions": 4954,
      "##ripts": 4955,
      "##ris": 4956,
      "##rise": 4957,
      "##rish": 4958,
      "##rising": 4959,
      "##rison": 4960,
      "##rist": 4961,
      "##rit": 4962,
      "##rite": 4963,
      "##rites": 4964,
      "##ritic": 4965,
      "##ritical": 4966,
      "##riting": 4967,
      "##ritt": 4968,
      "##ritten": 4969,
      "##rity": 4970,
      "##ritz": 4971,
      "##rium": 4972,
      "##riv": 4973,
      "##rix": 4974,
      "##riz": 4975,
      "##rization": 4976,
      "##rized": 4977,
      "##rizona": 4978,
      "##rl": 4979,
      "##rm": 4980,
      "##rmann": 4981,
      "##rme": 4982,
      "##rn": 4983,
      "##ro": 4984,
      "##robe": 4985,
      "##roc": 4986,
      "##rocal": 4987,
      "##rock": 4988,
      "##rod": 4989,
      "##roduc": 4990,
      "##roduce": 4991,
      "##roduced": 4992,
      "##roducing": 4993,
      "##roduction": 4994,
      "##rodynam": 4995,
      "##rog": 4996,
      "##rogen": 4997,
      "##rogram": 4998,
      "##rograph": 4999,
      "##rographic": 5000,
      "##roid": 5001,
      "##rol": 5002,
      "##rolite": 5003,
      "##roll": 5004,
      "##rolog": 5005,
      "##rology": 5006,
      "##rom": 5007,
      "##romagnetic": 5008,
      "##romat": 5009,
      "##romatic": 5010,
      "##romet": 5011,
      "##rometer": 5012,
      "##ron": 5013,
      "##rone": 5014,
      "##rong": 5015,
      "##ronic": 5016,
      "##ronite": 5017,
      "##ronom": 5018,
      "##rons": 5019,
      "##ront": 5020,
      "##rook": 5021,
      "##roozi": 5022,
      "##rop": 5023,
      "##rope": 5024,
      "##ropes": 5025,
      "##roph": 5026,
      "##rophic": 5027,
      "##rophot": 5028,
      "##rophy": 5029,
      "##rophys": 5030,
      "##ropic": 5031,
      "##ropical": 5032,
      "##ropics": 5033,
      "##ropies": 5034,
      "##ropolar": 5035,
      "##roportion": 5036,
      "##ropri": 5037,
      "##ropriate": 5038,
      "##ropy": 5039,
      "##ror": 5040,
      "##roring": 5041,
      "##rors": 5042,
      "##ros": 5043,
      "##rosc": 5044,
      "##roscopic": 5045,
      "##rose": 5046,
      "##rosh": 5047,
      "##rosp": 5048,
      "##ross": 5049,
      "##rost": 5050,
      "##rot": 5051,
      "##rotating": 5052,
      "##rote": 5053,
      "##rotons": 5054,
      "##rotron": 5055,
      "##rou": 5056,
      "##rough": 5057,
      "##rought": 5058,
      "##round": 5059,
      "##roup": 5060,
      "##roupa": 5061,
      "##rous": 5062,
      "##rov": 5063,
      "##rove": 5064,
      "##row": 5065,
      "##rowave": 5066,
      "##rown": 5067,
      "##rows": 5068,
      "##rowth": 5069,
      "##rowths": 5070,
      "##rox": 5071,
      "##roy": 5072,
      "##rr": 5073,
      "##rrrr": 5074,
      "##rs": 5075,
      "##rt": 5076,
      "##ru": 5077,
      "##ruary": 5078,
      "##ruc": 5079,
      "##rucite": 5080,
      "##ruck": 5081,
      "##ruct": 5082,
      "##ructure": 5083,
      "##rud": 5084,
      "##rug": 5085,
      "##ruh": 5086,
      "##ruit": 5087,
      "##rule": 5088,
      "##rules": 5089,
      "##rum": 5090,
      "##rung": 5091,
      "##rup": 5092,
      "##rupt": 5093,
      "##rupted": 5094,
      "##ruption": 5095,
      "##rus": 5096,
      "##rust": 5097,
      "##rustal": 5098,
      "##rusting": 5099,
      "##rutin": 5100,
      "##ry": 5101,
      "##rys": 5102,
      "##ryst": 5103,
      "##rystall": 5104,
      "##rystalline": 5105,
      "##s": 5106,
      "##sa": 5107,
      "##sal": 5108,
      "##sat": 5109,
      "##sation": 5110,
      "##sc": 5111,
      "##scale": 5112,
      "##scatter": 5113,
      "##scattered": 5114,
      "##sch": 5115,
      "##sche": 5116,
      "##scher": 5117,
      "##schild": 5118,
      "##sci": 5119,
      "##scill": 5120,
      "##scured": 5121,
      "##se": 5122,
      "##sec": 5123,
      "##sed": 5124,
      "##see": 5125,
      "##seen": 5126,
      "##sef": 5127,
      "##seg": 5128,
      "##segrain": 5129,
      "##seismic": 5130,
      "##sem": 5131,
      "##semb": 5132,
      "##semble": 5133,
      "##sembles": 5134,
      "##sen": 5135,
      "##sequ": 5136,
      "##sequent": 5137,
      "##sequently": 5138,
      "##ser": 5139,
      "##sers": 5140,
      "##serv": 5141,
      "##servation": 5142,
      "##serve": 5143,
      "##ses": 5144,
      "##set": 5145,
      "##sets": 5146,
      "##seud": 5147,
      "##seum": 5148,
      "##sev": 5149,
      "##sey": 5150,
      "##sh": 5151,
      "##shaw": 5152,
      "##shine": 5153,
      "##ship": 5154,
      "##shitz": 5155,
      "##shock": 5156,
      "##shocked": 5157,
      "##shop": 5158,
      "##shore": 5159,
      "##shovite": 5160,
      "##shtein": 5161,
      "##si": 5162,
      "##sia": 5163,
      "##sian": 5164,
      "##sians": 5165,
      "##sibility": 5166,
      "##sible": 5167,
      "##sibly": 5168,
      "##sid": 5169,
      "##side": 5170,
      "##sidence": 5171,
      "##sider": 5172,
      "##sier": 5173,
      "##sif": 5174,
      "##sik": 5175,
      "##silon": 5176,
      "##sim": 5177,
      "##simpl": 5178,
      "##sin": 5179,
      "##sing": 5180,
      "##sion": 5181,
      "##sions": 5182,
      "##sip": 5183,
      "##sis": 5184,
      "##sition": 5185,
      "##sium": 5186,
      "##sius": 5187,
      "##siv": 5188,
      "##sive": 5189,
      "##sively": 5190,
      "##sivities": 5191,
      "##sivity": 5192,
      "##size": 5193,
      "##sized": 5194,
      "##sizing": 5195,
      "##sk": 5196,
      "##ska": 5197,
      "##ski": 5198,
      "##skii": 5199,
      "##skir": 5200,
      "##sky": 5201,
      "##sl": 5202,
      "##sler": 5203,
      "##slip": 5204,
      "##slope": 5205,
      "##sm": 5206,
      "##so": 5207,
      "##soft": 5208,
      "##son": 5209,
      "##sonic": 5210,
      "##sor": 5211,
      "##sorbed": 5212,
      "##sorption": 5213,
      "##sov": 5214,
      "##sp": 5215,
      "##space": 5216,
      "##spar": 5217,
      "##spath": 5218,
      "##spathic": 5219,
      "##spec": 5220,
      "##spect": 5221,
      "##spectral": 5222,
      "##spot": 5223,
      "##spots": 5224,
      "##sprung": 5225,
      "##ss": 5226,
      "##sson": 5227,
      "##st": 5228,
      "##sta": 5229,
      "##stac": 5230,
      "##stad": 5231,
      "##stan": 5232,
      "##stand": 5233,
      "##standing": 5234,
      "##star": 5235,
      "##static": 5236,
      "##station": 5237,
      "##statite": 5238,
      "##ste": 5239,
      "##sted": 5240,
      "##stedt": 5241,
      "##stein": 5242,
      "##stellar": 5243,
      "##stem": 5244,
      "##sten": 5245,
      "##ster": 5246,
      "##steresis": 5247,
      "##sterite": 5248,
      "##stit": 5249,
      "##ston": 5250,
      "##stone": 5251,
      "##stones": 5252,
      "##storm": 5253,
      "##str": 5254,
      "##stra": 5255,
      "##stract": 5256,
      "##stracts": 5257,
      "##strahlung": 5258,
      "##strained": 5259,
      "##stream": 5260,
      "##streaming": 5261,
      "##strom": 5262,
      "##strong": 5263,
      "##struc": 5264,
      "##struct": 5265,
      "##structed": 5266,
      "##struction": 5267,
      "##structure": 5268,
      "##sts": 5269,
      "##su": 5270,
      "##suing": 5271,
      "##sum": 5272,
      "##sun": 5273,
      "##sure": 5274,
      "##t": 5275,
      "##ta": 5276,
      "##tain": 5277,
      "##tal": 5278,
      "##tan": 5279,
      "##tane": 5280,
      "##taneous": 5281,
      "##tas": 5282,
      "##tation": 5283,
      "##tations": 5284,
      "##td": 5285,
      "##te": 5286,
      "##teb": 5287,
      "##tech": 5288,
      "##ted": 5289,
      "##teen": 5290,
      "##tein": 5291,
      "##tek": 5292,
      "##temp": 5293,
      "##ten": 5294,
      "##tenance": 5295,
      "##teness": 5296,
      "##tens": 5297,
      "##ter": 5298,
      "##tered": 5299,
      "##terfly": 5300,
      "##teri": 5301,
      "##tering": 5302,
      "##terior": 5303,
      "##tern": 5304,
      "##ternal": 5305,
      "##ternally": 5306,
      "##terozoic": 5307,
      "##ters": 5308,
      "##tes": 5309,
      "##tesy": 5310,
      "##tex": 5311,
      "##th": 5312,
      "##thal": 5313,
      "##than": 5314,
      "##the": 5315,
      "##theless": 5316,
      "##then": 5317,
      "##ther": 5318,
      "##therly": 5319,
      "##therm": 5320,
      "##thermal": 5321,
      "##thermally": 5322,
      "##thern": 5323,
      "##thest": 5324,
      "##thing": 5325,
      "##thon": 5326,
      "##though": 5327,
      "##through": 5328,
      "##ths": 5329,
      "##thur": 5330,
      "##ti": 5331,
      "##tia": 5332,
      "##tial": 5333,
      "##tially": 5334,
      "##tian": 5335,
      "##tiary": 5336,
      "##tible": 5337,
      "##tic": 5338,
      "##tical": 5339,
      "##tically": 5340,
      "##tice": 5341,
      "##tices": 5342,
      "##ticity": 5343,
      "##ticle": 5344,
      "##ticles": 5345,
      "##tics": 5346,
      "##ticular": 5347,
      "##tidal": 5348,
      "##tie": 5349,
      "##tier": 5350,
      "##ties": 5351,
      "##tif": 5352,
      "##tification": 5353,
      "##tifications": 5354,
      "##tified": 5355,
      "##tifying": 5356,
      "##tig": 5357,
      "##til": 5358,
      "##tile": 5359,
      "##tiles": 5360,
      "##till": 5361,
      "##tim": 5362,
      "##timate": 5363,
      "##timately": 5364,
      "##time": 5365,
      "##timer": 5366,
      "##times": 5367,
      "##tin": 5368,
      "##tinc": 5369,
      "##tinction": 5370,
      "##tine": 5371,
      "##tinent": 5372,
      "##tinental": 5373,
      "##tineut": 5374,
      "##ting": 5375,
      "##tingu": 5376,
      "##tini": 5377,
      "##tino": 5378,
      "##tinos": 5379,
      "##tinu": 5380,
      "##tion": 5381,
      "##tional": 5382,
      "##tions": 5383,
      "##tious": 5384,
      "##tis": 5385,
      "##tish": 5386,
      "##tit": 5387,
      "##tite": 5388,
      "##tites": 5389,
      "##titial": 5390,
      "##tition": 5391,
      "##titious": 5392,
      "##titude": 5393,
      "##titution": 5394,
      "##tium": 5395,
      "##tiv": 5396,
      "##tivated": 5397,
      "##tivation": 5398,
      "##tive": 5399,
      "##tively": 5400,
      "##tiveness": 5401,
      "##tives": 5402,
      "##tivities": 5403,
      "##tivity": 5404,
      "##tl": 5405,
      "##tle": 5406,
      "##tler": 5407,
      "##tm": 5408,
      "##tmor": 5409,
      "##tmorill": 5410,
      "##tmorillonite": 5411,
      "##to": 5412,
      "##tober": 5413,
      "##ton": 5414,
      "##tones": 5415,
      "##toon": 5416,
      "##tooth": 5417,
      "##top": 5418,
      "##tor": 5419,
      "##tors": 5420,
      "##tr": 5421,
      "##tra": 5422,
      "##tropic": 5423,
      "##ts": 5424,
      "##tsch": 5425,
      "##tsev": 5426,
      "##tsov": 5427,
      "##tt": 5428,
      "##tta": 5429,
      "##ttp": 5430,
      "##tu": 5431,
      "##tur": 5432,
      "##turb": 5433,
      "##ture": 5434,
      "##tures": 5435,
      "##turing": 5436,
      "##ty": 5437,
      "##tz": 5438,
      "##tze": 5439,
      "##tzman": 5440,
      "##u": 5441,
      "##ua": 5442,
      "##uage": 5443,
      "##ual": 5444,
      "##ually": 5445,
      "##uan": 5446,
      "##uary": 5447,
      "##uate": 5448,
      "##uated": 5449,
      "##uation": 5450,
      "##ub": 5451,
      "##uba": 5452,
      "##ubble": 5453,
      "##ubbles": 5454,
      "##ube": 5455,
      "##ubes": 5456,
      "##ubia": 5457,
      "##uble": 5458,
      "##ublic": 5459,
      "##ubo": 5460,
      "##ubov": 5461,
      "##uc": 5462,
      "##uca": 5463,
      "##uccess": 5464,
      "##uccessful": 5465,
      "##ucci": 5466,
      "##uce": 5467,
      "##uced": 5468,
      "##ucent": 5469,
      "##uch": 5470,
      "##ucher": 5471,
      "##uchi": 5472,
      "##uchus": 5473,
      "##uchy": 5474,
      "##ucial": 5475,
      "##ucid": 5476,
      "##ucity": 5477,
      "##uck": 5478,
      "##ucker": 5479,
      "##uckerman": 5480,
      "##ucle": 5481,
      "##uclear": 5482,
      "##uction": 5483,
      "##uctu": 5484,
      "##ucz": 5485,
      "##ud": 5486,
      "##uda": 5487,
      "##udation": 5488,
      "##ude": 5489,
      "##uded": 5490,
      "##uder": 5491,
      "##udes": 5492,
      "##udi": 5493,
      "##udinal": 5494,
      "##udinally": 5495,
      "##udritz": 5496,
      "##ue": 5497,
      "##ued": 5498,
      "##ueil": 5499,
      "##uel": 5500,
      "##uela": 5501,
      "##uer": 5502,
      "##ues": 5503,
      "##uez": 5504,
      "##uf": 5505,
      "##ufact": 5506,
      "##uff": 5507,
      "##uffici": 5508,
      "##ug": 5509,
      "##uge": 5510,
      "##ugita": 5511,
      "##ui": 5512,
      "##uir": 5513,
      "##uit": 5514,
      "##uits": 5515,
      "##uj": 5516,
      "##uk": 5517,
      "##uka": 5518,
      "##ukh": 5519,
      "##uki": 5520,
      "##ukov": 5521,
      "##ul": 5522,
      "##ula": 5523,
      "##ulae": 5524,
      "##ular": 5525,
      "##ularities": 5526,
      "##ulas": 5527,
      "##ulate": 5528,
      "##ulated": 5529,
      "##ulates": 5530,
      "##ulating": 5531,
      "##ulation": 5532,
      "##ulations": 5533,
      "##ulator": 5534,
      "##ule": 5535,
      "##ulence": 5536,
      "##ulent": 5537,
      "##uler": 5538,
      "##ules": 5539,
      "##ulf": 5540,
      "##ulfide": 5541,
      "##uli": 5542,
      "##ulic": 5543,
      "##ulin": 5544,
      "##ull": 5545,
      "##uller": 5546,
      "##ullies": 5547,
      "##ullivan": 5548,
      "##ully": 5549,
      "##ulo": 5550,
      "##ulose": 5551,
      "##ulph": 5552,
      "##ulse": 5553,
      "##ulsion": 5554,
      "##ulsive": 5555,
      "##ult": 5556,
      "##ultaneous": 5557,
      "##ulted": 5558,
      "##ulti": 5559,
      "##ulting": 5560,
      "##ultipl": 5561,
      "##ults": 5562,
      "##ultural": 5563,
      "##ulture": 5564,
      "##ulu": 5565,
      "##ulum": 5566,
      "##ulus": 5567,
      "##uly": 5568,
      "##um": 5569,
      "##uma": 5570,
      "##uman": 5571,
      "##umann": 5572,
      "##umar": 5573,
      "##umation": 5574,
      "##umb": 5575,
      "##umber": 5576,
      "##umbral": 5577,
      "##ume": 5578,
      "##umed": 5579,
      "##umen": 5580,
      "##umer": 5581,
      "##umes": 5582,
      "##umi": 5583,
      "##umin": 5584,
      "##uminescence": 5585,
      "##uming": 5586,
      "##uminous": 5587,
      "##umm": 5588,
      "##ummer": 5589,
      "##umn": 5590,
      "##ump": 5591,
      "##umph": 5592,
      "##umpolar": 5593,
      "##umption": 5594,
      "##umul": 5595,
      "##un": 5596,
      "##una": 5597,
      "##unar": 5598,
      "##unas": 5599,
      "##unc": 5600,
      "##unch": 5601,
      "##unching": 5602,
      "##unction": 5603,
      "##unctions": 5604,
      "##und": 5605,
      "##under": 5606,
      "##undred": 5607,
      "##undum": 5608,
      "##undy": 5609,
      "##une": 5610,
      "##ung": 5611,
      "##unge": 5612,
      "##ungen": 5613,
      "##ungs": 5614,
      "##ungsten": 5615,
      "##unite": 5616,
      "##unk": 5617,
      "##unks": 5618,
      "##unn": 5619,
      "##uno": 5620,
      "##unov": 5621,
      "##uns": 5622,
      "##unt": 5623,
      "##uous": 5624,
      "##up": 5625,
      "##uper": 5626,
      "##upp": 5627,
      "##upta": 5628,
      "##uption": 5629,
      "##ur": 5630,
      "##ura": 5631,
      "##urable": 5632,
      "##ural": 5633,
      "##urally": 5634,
      "##urance": 5635,
      "##urated": 5636,
      "##uration": 5637,
      "##urations": 5638,
      "##urb": 5639,
      "##urbed": 5640,
      "##urc": 5641,
      "##urch": 5642,
      "##ure": 5643,
      "##ured": 5644,
      "##urer": 5645,
      "##ures": 5646,
      "##urf": 5647,
      "##urface": 5648,
      "##urfaces": 5649,
      "##urg": 5650,
      "##uri": 5651,
      "##urian": 5652,
      "##uric": 5653,
      "##uries": 5654,
      "##uring": 5655,
      "##uristic": 5656,
      "##urities": 5657,
      "##urity": 5658,
      "##urm": 5659,
      "##urn": 5660,
      "##urnal": 5661,
      "##urning": 5662,
      "##uroral": 5663,
      "##urs": 5664,
      "##ursor": 5665,
      "##urst": 5666,
      "##ursting": 5667,
      "##urt": 5668,
      "##urth": 5669,
      "##urther": 5670,
      "##urus": 5671,
      "##urvature": 5672,
      "##ury": 5673,
      "##us": 5674,
      "##usa": 5675,
      "##usc": 5676,
      "##use": 5677,
      "##used": 5678,
      "##ush": 5679,
      "##ushed": 5680,
      "##ushes": 5681,
      "##ushing": 5682,
      "##usian": 5683,
      "##using": 5684,
      "##usion": 5685,
      "##usive": 5686,
      "##usk": 5687,
      "##uson": 5688,
      "##usp": 5689,
      "##uss": 5690,
      "##ussen": 5691,
      "##ust": 5692,
      "##uster": 5693,
      "##usting": 5694,
      "##ustion": 5695,
      "##ustom": 5696,
      "##ustral": 5697,
      "##ustrial": 5698,
      "##ustrine": 5699,
      "##ut": 5700,
      "##uta": 5701,
      "##utable": 5702,
      "##utani": 5703,
      "##ute": 5704,
      "##uted": 5705,
      "##utely": 5706,
      "##uter": 5707,
      "##utes": 5708,
      "##uth": 5709,
      "##uther": 5710,
      "##uti": 5711,
      "##uting": 5712,
      "##ution": 5713,
      "##uto": 5714,
      "##uts": 5715,
      "##utsk": 5716,
      "##utskie": 5717,
      "##utt": 5718,
      "##utta": 5719,
      "##utter": 5720,
      "##uttered": 5721,
      "##utti": 5722,
      "##uttle": 5723,
      "##uture": 5724,
      "##uty": 5725,
      "##utz": 5726,
      "##uv": 5727,
      "##uvel": 5728,
      "##uven": 5729,
      "##uw": 5730,
      "##ux": 5731,
      "##uy": 5732,
      "##uyama": 5733,
      "##uz": 5734,
      "##uzz": 5735,
      "##v": 5736,
      "##v2": 5737,
      "##va": 5738,
      "##vaal": 5739,
      "##vable": 5740,
      "##vae": 5741,
      "##val": 5742,
      "##valent": 5743,
      "##vall": 5744,
      "##vals": 5745,
      "##van": 5746,
      "##vanishing": 5747,
      "##vant": 5748,
      "##var": 5749,
      "##vard": 5750,
      "##vari": 5751,
      "##variant": 5752,
      "##vas": 5753,
      "##vature": 5754,
      "##ve": 5755,
      "##vector": 5756,
      "##ved": 5757,
      "##vel": 5758,
      "##veld": 5759,
      "##velocity": 5760,
      "##velop": 5761,
      "##velope": 5762,
      "##vely": 5763,
      "##ven": 5764,
      "##vent": 5765,
      "##ver": 5766,
      "##vers": 5767,
      "##versal": 5768,
      "##verse": 5769,
      "##versely": 5770,
      "##versi": 5771,
      "##versible": 5772,
      "##versities": 5773,
      "##versity": 5774,
      "##versy": 5775,
      "##vert": 5776,
      "##ves": 5777,
      "##vest": 5778,
      "##vestig": 5779,
      "##vet": 5780,
      "##vey": 5781,
      "##vez": 5782,
      "##vezic": 5783,
      "##vi": 5784,
      "##vial": 5785,
      "##vially": 5786,
      "##vic": 5787,
      "##vich": 5788,
      "##vie": 5789,
      "##vier": 5790,
      "##view": 5791,
      "##vik": 5792,
      "##vili": 5793,
      "##ville": 5794,
      "##vin": 5795,
      "##vine": 5796,
      "##ving": 5797,
      "##violet": 5798,
      "##vious": 5799,
      "##vir": 5800,
      "##viron": 5801,
      "##vis": 5802,
      "##vised": 5803,
      "##vist": 5804,
      "##vities": 5805,
      "##vity": 5806,
      "##vive": 5807,
      "##vn": 5808,
      "##vo": 5809,
      "##vol": 5810,
      "##vs": 5811,
      "##w": 5812,
      "##wa": 5813,
      "##wal": 5814,
      "##wald": 5815,
      "##wall": 5816,
      "##wamy": 5817,
      "##wan": 5818,
      "##wana": 5819,
      "##war": 5820,
      "##ward": 5821,
      "##wards": 5822,
      "##ware": 5823,
      "##warf": 5824,
      "##warm": 5825,
      "##wart": 5826,
      "##water": 5827,
      "##waters": 5828,
      "##wave": 5829,
      "##wavelength": 5830,
      "##way": 5831,
      "##ways": 5832,
      "##we": 5833,
      "##weak": 5834,
      "##web": 5835,
      "##ween": 5836,
      "##weg": 5837,
      "##wegian": 5838,
      "##weight": 5839,
      "##wek": 5840,
      "##well": 5841,
      "##welling": 5842,
      "##wellings": 5843,
      "##wen": 5844,
      "##wens": 5845,
      "##went": 5846,
      "##wer": 5847,
      "##wers": 5848,
      "##west": 5849,
      "##western": 5850,
      "##wey": 5851,
      "##wh": 5852,
      "##where": 5853,
      "##which": 5854,
      "##while": 5855,
      "##wich": 5856,
      "##wick": 5857,
      "##wide": 5858,
      "##width": 5859,
      "##wig": 5860,
      "##wijk": 5861,
      "##win": 5862,
      "##wind": 5863,
      "##wing": 5864,
      "##wise": 5865,
      "##with": 5866,
      "##withstanding": 5867,
      "##wn": 5868,
      "##wo": 5869,
      "##wood": 5870,
      "##woodite": 5871,
      "##work": 5872,
      "##worth": 5873,
      "##ws": 5874,
      "##wt": 5875,
      "##ww": 5876,
      "##x": 5877,
      "##x10": 5878,
      "##xim": 5879,
      "##xl": 5880,
      "##xt": 5881,
      "##xtractor": 5882,
      "##xx": 5883,
      "##y": 5884,
      "##ya": 5885,
      "##yaev": 5886,
      "##yama": 5887,
      "##yan": 5888,
      "##yb": 5889,
      "##yc": 5890,
      "##ycl": 5891,
      "##ycle": 5892,
      "##yclic": 5893,
      "##yd": 5894,
      "##yder": 5895,
      "##ye": 5896,
      "##year": 5897,
      "##years": 5898,
      "##yen": 5899,
      "##yer": 5900,
      "##yes": 5901,
      "##yg": 5902,
      "##ygen": 5903,
      "##ygens": 5904,
      "##yi": 5905,
      "##ying": 5906,
      "##yk": 5907,
      "##yl": 5908,
      "##yle": 5909,
      "##ylene": 5910,
      "##ylvan": 5911,
      "##ym": 5912,
      "##ymmet": 5913,
      "##ymmetric": 5914,
      "##ymmetry": 5915,
      "##ymp": 5916,
      "##ympto": 5917,
      "##yn": 5918,
      "##ynam": 5919,
      "##ynch": 5920,
      "##ynchron": 5921,
      "##ynchronous": 5922,
      "##ynchrotron": 5923,
      "##yne": 5924,
      "##ynes": 5925,
      "##ynet": 5926,
      "##yon": 5927,
      "##yp": 5928,
      "##ype": 5929,
      "##ypes": 5930,
      "##ypical": 5931,
      "##ypsum": 5932,
      "##ypt": 5933,
      "##yr": 5934,
      "##yre": 5935,
      "##yright": 5936,
      "##yrite": 5937,
      "##yro": 5938,
      "##yrox": 5939,
      "##yroxene": 5940,
      "##ys": 5941,
      "##yscale": 5942,
      "##ysen": 5943,
      "##ysis": 5944,
      "##yson": 5945,
      "##yssal": 5946,
      "##ystem": 5947,
      "##yt": 5948,
      "##yth": 5949,
      "##z": 5950,
      "##za": 5951,
      "##zak": 5952,
      "##zaku": 5953,
      "##zan": 5954,
      "##zar": 5955,
      "##zaros": 5956,
      "##zation": 5957,
      "##zations": 5958,
      "##zburg": 5959,
      "##ze": 5960,
      "##zed": 5961,
      "##zek": 5962,
      "##zel": 5963,
      "##zen": 5964,
      "##zens": 5965,
      "##zer": 5966,
      "##zero": 5967,
      "##zes": 5968,
      "##zetti": 5969,
      "##zh": 5970,
      "##zi": 5971,
      "##zing": 5972,
      "##zinger": 5973,
      "##zner": 5974,
      "##zo": 5975,
      "##zon": 5976,
      "##zone": 5977,
      "##zt": 5978,
      "##zual": 5979,
      "##zy": 5980,
      "##zyn": 5981,
      "##zynski": 5982,
      "##zz": 5983,
      "##zzi": 5984,
      "##zzle": 5985,
      "##zzo": 5986,
      "##¢": 5987,
      "##£": 5988,
      "##¤": 5989,
      "##¥": 5990,
      "##¦": 5991,
      "##¨": 5992,
      "##©": 5993,
      "##ª": 5994,
      "##¬": 5995,
      "##®": 5996,
      "##¯": 5997,
      "##°": 5998,
      "##°C": 5999,
      "##°E": 6000,
      "##°K": 6001,
      "##°N": 6002,
      "##°S": 6003,
      "##°W": 6004,
      "##±": 6005,
      "##±0": 6006,
      "##±1": 6007,
      "##±2": 6008,
      "##²": 6009,
      "##³": 6010,
      "##´": 6011,
      "##µ": 6012,
      "##¹": 6013,
      "##º": 6014,
      "##¼": 6015,
      "##½": 6016,
      "##Æ": 6017,
      "##Ð": 6018,
      "##×": 6019,
      "##×10": 6020,
      "##Ø": 6021,
      "##Þ": 6022,
      "##ß": 6023,
      "##æ": 6024,
      "##ð": 6025,
      "##÷": 6026,
      "##ø": 6027,
      "##þ": 6028,
      "##Đ": 6029,
      "##đ": 6030,
      "##ħ": 6031,
      "##ı": 6032,
      "##Ł": 6033,
      "##ł": 6034,
      "##ŋ": 6035,
      "##Œ": 6036,
      "##œ": 6037,
      "##ƒ": 6038,
      "##Ɵ": 6039,
      "##ǁ": 6040,
      "##ǃ": 6041,
      "##ɑ": 6042,
      "##ɛ": 6043,
      "##ɡ": 6044,
      "##ɪ": 6045,
      "##ɳ": 6046,
      "##ɸ": 6047,
      "##ɹ": 6048,
      "##ʃ": 6049,
      "##ʋ": 6050,
      "##ʘ": 6051,
      "##ʹ": 6052,
      "##ʺ": 6053,
      "##ʻ": 6054,
      "##ʼ": 6055,
      "##ʿ": 6056,
      "##ˆ": 6057,
      "##ˇ": 6058,
      "##ˈ": 6059,
      "##ˊ": 6060,
      "##ː": 6061,
      "##˗": 6062,
      "##˘": 6063,
      "##˙": 6064,
      "##˚": 6065,
      "##˜": 6066,
      "##˦": 6067,
      "##ˮ": 6068,
      "##΄": 6069,
      "##Α": 6070,
      "##Β": 6071,
      "##Γ": 6072,
      "##Δ": 6073,
      "##Ε": 6074,
      "##Ζ": 6075,
      "##Η": 6076,
      "##Θ": 6077,
      "##Ι": 6078,
      "##Κ": 6079,
      "##Λ": 6080,
      "##Μ": 6081,
      "##Ν": 6082,
      "##Ξ": 6083,
      "##Ο": 6084,
      "##Π": 6085,
      "##Ρ": 6086,
      "##Σ": 6087,
      "##Τ": 6088,
      "##Υ": 6089,
      "##Φ": 6090,
      "##Χ": 6091,
      "##Ψ": 6092,
      "##Ω": 6093,
      "##α": 6094,
      "##β": 6095,
      "##γ": 6096,
      "##δ": 6097,
      "##ε": 6098,
      "##ζ": 6099,
      "##η": 6100,
      "##θ": 6101,
      "##ι": 6102,
      "##κ": 6103,
      "##λ": 6104,
      "##μ": 6105,
      "##ν": 6106,
      "##ξ": 6107,
      "##ο": 6108,
      "##π": 6109,
      "##ρ": 6110,
      "##ς": 6111,
      "##σ": 6112,
      "##τ": 6113,
      "##υ": 6114,
      "##φ": 6115,
      "##χ": 6116,
      "##ψ": 6117,
      "##ω": 6118,
      "##ϑ": 6119,
      "##ϕ": 6120,
      "##ϖ": 6121,
      "##ϝ": 6122,
      "##Ϭ": 6123,
      "##ϱ": 6124,
      "##Ͻ": 6125,
      "##А": 6126,
      "##В": 6127,
      "##Г": 6128,
      "##Д": 6129,
      "##Е": 6130,
      "##З": 6131,
      "##И": 6132,
      "##К": 6133,
      "##Л": 6134,
      "##М": 6135,
      "##Н": 6136,
      "##О": 6137,
      "##П": 6138,
      "##Р": 6139,
      "##С": 6140,
      "##Т": 6141,
      "##У": 6142,
      "##Ф": 6143,
      "##Х": 6144,
      "##Ш": 6145,
      "##Ы": 6146,
      "##Ь": 6147,
      "##Я": 6148,
      "##а": 6149,
      "##б": 6150,
      "##в": 6151,
      "##г": 6152,
      "##д": 6153,
      "##е": 6154,
      "##ж": 6155,
      "##з": 6156,
      "##и": 6157,
      "##к": 6158,
      "##л": 6159,
      "##м": 6160,
      "##н": 6161,
      "##о": 6162,
      "##п": 6163,
      "##р": 6164,
      "##с": 6165,
      "##т": 6166,
      "##у": 6167,
      "##ф": 6168,
      "##ц": 6169,
      "##ч": 6170,
      "##ш": 6171,
      "##щ": 6172,
      "##ы": 6173,
      "##ь": 6174,
      "##э": 6175,
      "##ю": 6176,
      "##я": 6177,
      "##є": 6178,
      "##і": 6179,
      "##ћ": 6180,
      "##Ѳ": 6181,
      "##ѳ": 6182,
      "##ҫ": 6183,
      "##ө": 6184,
      "##ԉ": 6185,
      "##א": 6186,
      "##ر": 6187,
      "##ط": 6188,
      "##ߕ": 6189,
      "##ߚ": 6190,
      "##ߝ": 6191,
      "##ᄊ": 6192,
      "##ᅧ": 6193,
      "##ᅯ": 6194,
      "##ᆪ": 6195,
      "##ᆰ": 6196,
      "##ᆽ": 6197,
      "##ᐅ": 6198,
      "##ᒥ": 6199,
      "##ᔭ": 6200,
      "##ᖅ": 6201,
      "##⁄": 6202,
      "##⁄2": 6203,
      "##⁄4": 6204,
      "##₁": 6205,
      "##₂": 6206,
      "##₃": 6207,
      "##€": 6208,
      "##⃞": 6209,
      "##ℊ": 6210,
      "##ℋ": 6211,
      "##ℏ": 6212,
      "##ℐ": 6213,
      "##ℒ": 6214,
      "##ℓ": 6215,
      "##℘": 6216,
      "##ℜ": 6217,
      "##™": 6218,
      "##ℳ": 6219,
      "##ℵ": 6220,
      "##⅓": 6221,
      "##←": 6222,
      "##↑": 6223,
      "##→": 6224,
      "##↓": 6225,
      "##↔": 6226,
      "##↗": 6227,
      "##↘": 6228,
      "##↞": 6229,
      "##↦": 6230,
      "##↪": 6231,
      "##↷": 6232,
      "##⇀": 6233,
      "##⇂": 6234,
      "##⇄": 6235,
      "##⇆": 6236,
      "##⇋": 6237,
      "##⇌": 6238,
      "##⇒": 6239,
      "##⇓": 6240,
      "##⇔": 6241,
      "##⇝": 6242,
      "##∀": 6243,
      "##∂": 6244,
      "##∅": 6245,
      "##∆": 6246,
      "##∇": 6247,
      "##∈": 6248,
      "##∊": 6249,
      "##∋": 6250,
      "##∏": 6251,
      "##∑": 6252,
      "##−": 6253,
      "##−0": 6254,
      "##−00": 6255,
      "##−03": 6256,
      "##−05": 6257,
      "##−1": 6258,
      "##−2": 6259,
      "##−20": 6260,
      "##−24": 6261,
      "##−29": 6262,
      "##−3": 6263,
      "##−4": 6264,
      "##−5": 6265,
      "##−6": 6266,
      "##−7": 6267,
      "##∓": 6268,
      "##∕": 6269,
      "##∖": 6270,
      "##∗": 6271,
      "##∘": 6272,
      "##∙": 6273,
      "##√": 6274,
      "##∝": 6275,
      "##∞": 6276,
      "##∠": 6277,
      "##∡": 6278,
      "##∢": 6279,
      "##∣": 6280,
      "##∥": 6281,
      "##∧": 6282,
      "##∨": 6283,
      "##∩": 6284,
      "##∪": 6285,
      "##∫": 6286,
      "##∮": 6287,
      "##∳": 6288,
      "##∶": 6289,
      "##∷": 6290,
      "##∼": 6291,
      "##∽": 6292,
      "##≂": 6293,
      "##≃": 6294,
      "##≅": 6295,
      "##≈": 6296,
      "##≊": 6297,
      "##≌": 6298,
      "##≍": 6299,
      "##≐": 6300,
      "##≔": 6301,
      "##≕": 6302,
      "##≜": 6303,
      "##≟": 6304,
      "##≡": 6305,
      "##≤": 6306,
      "##≥": 6307,
      "##≦": 6308,
      "##≧": 6309,
      "##≪": 6310,
      "##≫": 6311,
      "##≲": 6312,
      "##≳": 6313,
      "##≶": 6314,
      "##≷": 6315,
      "##≺": 6316,
      "##≻": 6317,
      "##≼": 6318,
      "##≽": 6319,
      "##≿": 6320,
      "##⊂": 6321,
      "##⊃": 6322,
      "##⊆": 6323,
      "##⊇": 6324,
      "##⊎": 6325,
      "##⊑": 6326,
      "##⊓": 6327,
      "##⊔": 6328,
      "##⊕": 6329,
      "##⊖": 6330,
      "##⊗": 6331,
      "##⊘": 6332,
      "##⊙": 6333,
      "##⊚": 6334,
      "##⊛": 6335,
      "##⊢": 6336,
      "##⊣": 6337,
      "##⊥": 6338,
      "##⊸": 6339,
      "##⊺": 6340,
      "##⊻": 6341,
      "##⋀": 6342,
      "##⋃": 6343,
      "##⋅": 6344,
      "##⋆": 6345,
      "##⋇": 6346,
      "##⋉": 6347,
      "##⋊": 6348,
      "##⋋": 6349,
      "##⋍": 6350,
      "##⋖": 6351,
      "##⋙": 6352,
      "##⋜": 6353,
      "##⋦": 6354,
      "##⋨": 6355,
      "##⋩": 6356,
      "##⋯": 6357,
      "##⌃": 6358,
      "##⌝": 6359,
      "##⌟": 6360,
      "##⍺": 6361,
      "##⎕": 6362,
      "##⎸": 6363,
      "##␣": 6364,
      "##─": 6365,
      "##│": 6366,
      "##┴": 6367,
      "##═": 6368,
      "##║": 6369,
      "##▒": 6370,
      "##■": 6371,
      "##□": 6372,
      "##▪": 6373,
      "##△": 6374,
      "##▴": 6375,
      "##▵": 6376,
      "##▷": 6377,
      "##▹": 6378,
      "##▼": 6379,
      "##▽": 6380,
      "##▿": 6381,
      "##◁": 6382,
      "##◉": 6383,
      "##○": 6384,
      "##●": 6385,
      "##◦": 6386,
      "##◯": 6387,
      "##◻": 6388,
      "##◼": 6389,
      "##★": 6390,
      "##☆": 6391,
      "##☉": 6392,
      "##☐": 6393,
      "##♀": 6394,
      "##♂": 6395,
      "##♣": 6396,
      "##♦": 6397,
      "##♭": 6398,
      "##♮": 6399,
      "##♯": 6400,
      "##✓": 6401,
      "##✕": 6402,
      "##✗": 6403,
      "##✘": 6404,
      "##✟": 6405,
      "##✻": 6406,
      "##➔": 6407,
      "##⟂": 6408,
      "##⟶": 6409,
      "##⟷": 6410,
      "##⟹": 6411,
      "##⟺": 6412,
      "##⦶": 6413,
      "##⧫": 6414,
      "##⧵": 6415,
      "##⧸": 6416,
      "##⧹": 6417,
      "##⨀": 6418,
      "##⨂": 6419,
      "##⨇": 6420,
      "##⨍": 6421,
      "##⨯": 6422,
      "##⨼": 6423,
      "##⩲": 6424,
      "##⩽": 6425,
      "##⩾": 6426,
      "##⪅": 6427,
      "##⪆": 6428,
      "##⪉": 6429,
      "##⪊": 6430,
      "##⪌": 6431,
      "##⪝": 6432,
      "##⪡": 6433,
      "##⪢": 6434,
      "##⪭": 6435,
      "##⫽": 6436,
      "##⿢": 6437,
      "##⿨": 6438,
      "##〳": 6439,
      "##く": 6440,
      "##さ": 6441,
      "##す": 6442,
      "##ち": 6443,
      "##の": 6444,
      "##ふ": 6445,
      "##や": 6446,
      "##ら": 6447,
      "##ん": 6448,
      "##キ": 6449,
      "##チ": 6450,
      "##ツ": 6451,
      "##ト": 6452,
      "##ハ": 6453,
      "##フ": 6454,
      "##モ": 6455,
      "##リ": 6456,
      "##ワ": 6457,
      "##ヲ": 6458,
      "##Ꙩ": 6459,
      "##ﬃ": 6460,
      "##𝒨": 6461,
      "##𝒩": 6462,
      "##𝒪": 6463,
      "##𝒴": 6464,
      "##𝓁": 6465,
      "##𝔩": 6466,
      "##𝔲": 6467,
      "$": 6468,
      "%": 6469,
      "&": 6470,
      "'": 6471,
      "(": 6472,
      ")": 6473,
      "*": 6474,
      "+": 6475,
      ",": 6476,
      "-": 6477,
      ".": 6478,
      "/": 6479,
      "0": 6480,
      "00": 6481,
      "000": 6482,
      "0000": 6483,
      "00000": 6484,
      "000000": 6485,
      "0000000": 6486,
      "0001": 6487,
      "0002": 6488,
      "0003": 6489,
      "0004": 6490,
      "0005": 6491,
      "0006": 6492,
      "0007": 6493,
      "0008": 6494,
      "0009": 6495,
      "001": 6496,
      "0010": 6497,
      "0011": 6498,
      "0012": 6499,
      "0013": 6500,
      "0014": 6501,
      "0015": 6502,
      "0016": 6503,
      "0017": 6504,
      "0018": 6505,
      "0019": 6506,
      "002": 6507,
      "0020": 6508,
      "0022": 6509,
      "0024": 6510,
      "0025": 6511,
      "003": 6512,
      "0032": 6513,
      "0035": 6514,
      "004": 6515,
      "005": 6516,
      "006": 6517,
      "007": 6518,
      "008": 6519,
      "009": 6520,
      "00E": 6521,
      "01": 6522,
      "010": 6523,
      "0100": 6524,
      "011": 6525,
      "012": 6526,
      "013": 6527,
      "014": 6528,
      "015": 6529,
      "016": 6530,
      "017": 6531,
      "018": 6532,
      "019": 6533,
      "02": 6534,
      "020": 6535,
      "0200": 6536,
      "021": 6537,
      "022": 6538,
      "023": 6539,
      "0235": 6540,
      "024": 6541,
      "0240": 6542,
      "025": 6543,
      "026": 6544,
      "027": 6545,
      "0273": 6546,
      "028": 6547,
      "029": 6548,
      "03": 6549,
      "030": 6550,
      "0300": 6551,
      "031": 6552,
      "032": 6553,
      "033": 6554,
      "034": 6555,
      "035": 6556,
      "036": 6557,
      "037": 6558,
      "038": 6559,
      "039": 6560,
      "04": 6561,
      "040": 6562,
      "0400": 6563,
      "041": 6564,
      "042": 6565,
      "043": 6566,
      "044": 6567,
      "0440": 6568,
      "045": 6569,
      "046": 6570,
      "047": 6571,
      "048": 6572,
      "049": 6573,
      "05": 6574,
      "050": 6575,
      "0500": 6576,
      "051": 6577,
      "052": 6578,
      "053": 6579,
      "054": 6580,
      "055": 6581,
      "056": 6582,
      "057": 6583,
      "058": 6584,
      "059": 6585,
      "06": 6586,
      "060": 6587,
      "0600": 6588,
      "061": 6589,
      "062": 6590,
      "063": 6591,
      "064": 6592,
      "065": 6593,
      "066": 6594,
      "067": 6595,
      "068": 6596,
      "069": 6597,
      "07": 6598,
      "070": 6599,
      "0700": 6600,
      "071": 6601,
      "072": 6602,
      "073": 6603,
      "074": 6604,
      "075": 6605,
      "076": 6606,
      "077": 6607,
      "078": 6608,
      "079": 6609,
      "08": 6610,
      "080": 6611,
      "0800": 6612,
      "081": 6613,
      "082": 6614,
      "083": 6615,
      "084": 6616,
      "085": 6617,
      "086": 6618,
      "087": 6619,
      "088": 6620,
      "089": 6621,
      "09": 6622,
      "090": 6623,
      "0900": 6624,
      "091": 6625,
      "092": 6626,
      "093": 6627,
      "094": 6628,
      "095": 6629,
      "096": 6630,
      "097": 6631,
      "098": 6632,
      "099": 6633,
      "0E": 6634,
      "0°": 6635,
      "0°C": 6636,
      "1": 6637,
      "10": 6638,
      "100": 6639,
      "1000": 6640,
      "10000": 6641,
      "1001": 6642,
      "1005": 6643,
      "1006": 6644,
      "100°": 6645,
      "100°C": 6646,
      "101": 6647,
      "1010": 6648,
      "1011": 6649,
      "1012": 6650,
      "1013": 6651,
      "1014": 6652,
      "1015": 6653,
      "1016": 6654,
      "1019": 6655,
      "102": 6656,
      "1020": 6657,
      "10216": 6658,
      "1023": 6659,
      "1024": 6660,
      "1025": 6661,
      "1029": 6662,
      "103": 6663,
      "1030": 6664,
      "1035": 6665,
      "104": 6666,
      "1040": 6667,
      "1048": 6668,
      "105": 6669,
      "1050": 6670,
      "1052": 6671,
      "106": 6672,
      "1068": 6673,
      "107": 6674,
      "108": 6675,
      "1080": 6676,
      "109": 6677,
      "10E": 6678,
      "10a": 6679,
      "10b": 6680,
      "10m": 6681,
      "10s": 6682,
      "10th": 6683,
      "10°": 6684,
      "11": 6685,
      "110": 6686,
      "1100": 6687,
      "1103": 6688,
      "111": 6689,
      "1111": 6690,
      "112": 6691,
      "113": 6692,
      "1130": 6693,
      "114": 6694,
      "1140": 6695,
      "115": 6696,
      "1150": 6697,
      "116": 6698,
      "117": 6699,
      "1177": 6700,
      "118": 6701,
      "119": 6702,
      "11a": 6703,
      "11b": 6704,
      "12": 6705,
      "120": 6706,
      "1200": 6707,
      "120°": 6708,
      "121": 6709,
      "1214": 6710,
      "1216": 6711,
      "122": 6712,
      "123": 6713,
      "1230": 6714,
      "1235": 6715,
      "124": 6716,
      "1240": 6717,
      "125": 6718,
      "1250": 6719,
      "126": 6720,
      "1260": 6721,
      "127": 6722,
      "1275": 6723,
      "128": 6724,
      "1280": 6725,
      "129": 6726,
      "12a": 6727,
      "12b": 6728,
      "12°": 6729,
      "13": 6730,
      "130": 6731,
      "1300": 6732,
      "1304": 6733,
      "131": 6734,
      "132": 6735,
      "133": 6736,
      "1330": 6737,
      "1333": 6738,
      "134": 6739,
      "135": 6740,
      "1350": 6741,
      "136": 6742,
      "1365": 6743,
      "137": 6744,
      "138": 6745,
      "139": 6746,
      "1399": 6747,
      "13E": 6748,
      "13°": 6749,
      "14": 6750,
      "140": 6751,
      "1400": 6752,
      "1407": 6753,
      "141": 6754,
      "1415": 6755,
      "142": 6756,
      "1420": 6757,
      "1425": 6758,
      "143": 6759,
      "144": 6760,
      "145": 6761,
      "1450": 6762,
      "146": 6763,
      "147": 6764,
      "148": 6765,
      "149": 6766,
      "14°": 6767,
      "15": 6768,
      "150": 6769,
      "1500": 6770,
      "150°": 6771,
      "151": 6772,
      "1510": 6773,
      "152": 6774,
      "1520": 6775,
      "153": 6776,
      "154": 6777,
      "155": 6778,
      "1550": 6779,
      "156": 6780,
      "157": 6781,
      "158": 6782,
      "159": 6783,
      "15°": 6784,
      "16": 6785,
      "160": 6786,
      "1600": 6787,
      "161": 6788,
      "1612": 6789,
      "162": 6790,
      "163": 6791,
      "1630": 6792,
      "164": 6793,
      "1640": 6794,
      "165": 6795,
      "1650": 6796,
      "166": 6797,
      "1665": 6798,
      "1667": 6799,
      "167": 6800,
      "168": 6801,
      "169": 6802,
      "16th": 6803,
      "17": 6804,
      "170": 6805,
      "1700": 6806,
      "171": 6807,
      "172": 6808,
      "1720": 6809,
      "173": 6810,
      "174": 6811,
      "175": 6812,
      "1750": 6813,
      "176": 6814,
      "177": 6815,
      "178": 6816,
      "179": 6817,
      "18": 6818,
      "180": 6819,
      "1800": 6820,
      "180°": 6821,
      "181": 6822,
      "182": 6823,
      "1820": 6824,
      "183": 6825,
      "1830": 6826,
      "184": 6827,
      "185": 6828,
      "1850": 6829,
      "186": 6830,
      "187": 6831,
      "188": 6832,
      "189": 6833,
      "1897": 6834,
      "189733": 6835,
      "189733b": 6836,
      "18°": 6837,
      "19": 6838,
      "190": 6839,
      "1900": 6840,
      "1908": 6841,
      "1909": 6842,
      "191": 6843,
      "1910": 6844,
      "1915": 6845,
      "1916": 6846,
      "192": 6847,
      "1920": 6848,
      "1924": 6849,
      "1925": 6850,
      "1926": 6851,
      "1928": 6852,
      "1929": 6853,
      "193": 6854,
      "1930": 6855,
      "1931": 6856,
      "1932": 6857,
      "1933": 6858,
      "1934": 6859,
      "1935": 6860,
      "1936": 6861,
      "1937": 6862,
      "1938": 6863,
      "1939": 6864,
      "194": 6865,
      "1940": 6866,
      "1941": 6867,
      "1942": 6868,
      "1943": 6869,
      "1944": 6870,
      "1945": 6871,
      "1946": 6872,
      "1947": 6873,
      "1948": 6874,
      "1949": 6875,
      "195": 6876,
      "1950": 6877,
      "1951": 6878,
      "1952": 6879,
      "1953": 6880,
      "1954": 6881,
      "1955": 6882,
      "1956": 6883,
      "1957": 6884,
      "1958": 6885,
      "1959": 6886,
      "196": 6887,
      "1960": 6888,
      "1960s": 6889,
      "1961": 6890,
      "1962": 6891,
      "1963": 6892,
      "1964": 6893,
      "1965": 6894,
      "1966": 6895,
      "1967": 6896,
      "1968": 6897,
      "1969": 6898,
      "197": 6899,
      "1970": 6900,
      "1970s": 6901,
      "1971": 6902,
      "1972": 6903,
      "1973": 6904,
      "1974": 6905,
      "1975": 6906,
      "1976": 6907,
      "1977": 6908,
      "1978": 6909,
      "1979": 6910,
      "198": 6911,
      "1980": 6912,
      "1980s": 6913,
      "1981": 6914,
      "1982": 6915,
      "1983": 6916,
      "1984": 6917,
      "1985": 6918,
      "1986": 6919,
      "1987": 6920,
      "1987A": 6921,
      "1988": 6922,
      "1989": 6923,
      "1989a": 6924,
      "199": 6925,
      "1990": 6926,
      "1990a": 6927,
      "1990s": 6928,
      "1991": 6929,
      "1991a": 6930,
      "1992": 6931,
      "1992a": 6932,
      "1992b": 6933,
      "1993": 6934,
      "1993a": 6935,
      "1993b": 6936,
      "1994": 6937,
      "1994a": 6938,
      "1994b": 6939,
      "1995": 6940,
      "1995a": 6941,
      "1995b": 6942,
      "1996": 6943,
      "1996a": 6944,
      "1996b": 6945,
      "1997": 6946,
      "1997a": 6947,
      "1997b": 6948,
      "1998": 6949,
      "1998a": 6950,
      "1998b": 6951,
      "1998bw": 6952,
      "1999": 6953,
      "1999a": 6954,
      "1999b": 6955,
      "19th": 6956,
      "1A": 6957,
      "1B": 6958,
      "1C": 6959,
      "1D": 6960,
      "1E": 6961,
      "1ES": 6962,
      "1G": 6963,
      "1H": 6964,
      "1M": 6965,
      "1N": 6966,
      "1O": 6967,
      "1P": 6968,
      "1PN": 6969,
      "1R": 6970,
      "1S": 6971,
      "1a": 6972,
      "1b": 6973,
      "1c": 6974,
      "1d": 6975,
      "1e": 6976,
      "1f": 6977,
      "1m": 6978,
      "1o": 6979,
      "1s": 6980,
      "1st": 6981,
      "1°": 6982,
      "1σ": 6983,
      "1⁄4": 6984,
      "1−": 6985,
      "1−0": 6986,
      "2": 6987,
      "20": 6988,
      "200": 6989,
      "2000": 6990,
      "2000a": 6991,
      "2000b": 6992,
      "2001": 6993,
      "2001a": 6994,
      "2001b": 6995,
      "2002": 6996,
      "2002a": 6997,
      "2002b": 6998,
      "2003": 6999,
      "2003a": 7000,
      "2003b": 7001,
      "2004": 7002,
      "2004a": 7003,
      "2004b": 7004,
      "2005": 7005,
      "2005a": 7006,
      "2005b": 7007,
      "2006": 7008,
      "2006a": 7009,
      "2006b": 7010,
      "2007": 7011,
      "2007a": 7012,
      "2007b": 7013,
      "2008": 7014,
      "2008a": 7015,
      "2008b": 7016,
      "2009": 7017,
      "2009a": 7018,
      "2009b": 7019,
      "201": 7020,
      "2010": 7021,
      "2010a": 7022,
      "2010b": 7023,
      "2011": 7024,
      "2011a": 7025,
      "2011b": 7026,
      "2012": 7027,
      "2012a": 7028,
      "2012b": 7029,
      "2013": 7030,
      "2013a": 7031,
      "2013b": 7032,
      "2014": 7033,
      "2014a": 7034,
      "2014b": 7035,
      "2015": 7036,
      "2015a": 7037,
      "2015b": 7038,
      "2016": 7039,
      "2016a": 7040,
      "2016b": 7041,
      "2017": 7042,
      "2017a": 7043,
      "2017b": 7044,
      "2018": 7045,
      "2018a": 7046,
      "2018b": 7047,
      "2019": 7048,
      "2019a": 7049,
      "2019b": 7050,
      "202": 7051,
      "2020": 7052,
      "2020a": 7053,
      "2020b": 7054,
      "2021": 7055,
      "203": 7056,
      "2030": 7057,
      "204": 7058,
      "2048": 7059,
      "205": 7060,
      "2050": 7061,
      "206": 7062,
      "207": 7063,
      "208": 7064,
      "209": 7065,
      "209458": 7066,
      "209458b": 7067,
      "20E": 7068,
      "20th": 7069,
      "20°": 7070,
      "20°N": 7071,
      "21": 7072,
      "210": 7073,
      "2100": 7074,
      "211": 7075,
      "212": 7076,
      "213": 7077,
      "214": 7078,
      "215": 7079,
      "216": 7080,
      "217": 7081,
      "2175": 7082,
      "218": 7083,
      "219": 7084,
      "21st": 7085,
      "21°": 7086,
      "22": 7087,
      "220": 7088,
      "2200": 7089,
      "221": 7090,
      "222": 7091,
      "223": 7092,
      "224": 7093,
      "225": 7094,
      "226": 7095,
      "2264": 7096,
      "227": 7097,
      "228": 7098,
      "229": 7099,
      "23": 7100,
      "230": 7101,
      "2300": 7102,
      "231": 7103,
      "232": 7104,
      "233": 7105,
      "234": 7106,
      "235": 7107,
      "236": 7108,
      "237": 7109,
      "238": 7110,
      "239": 7111,
      "23°": 7112,
      "24": 7113,
      "240": 7114,
      "2400": 7115,
      "2403": 7116,
      "241": 7117,
      "242": 7118,
      "243": 7119,
      "244": 7120,
      "245": 7121,
      "246": 7122,
      "247": 7123,
      "248": 7124,
      "249": 7125,
      "25": 7126,
      "250": 7127,
      "2500": 7128,
      "251": 7129,
      "252": 7130,
      "253": 7131,
      "254": 7132,
      "255": 7133,
      "256": 7134,
      "257": 7135,
      "258": 7136,
      "259": 7137,
      "25°": 7138,
      "25°C": 7139,
      "26": 7140,
      "260": 7141,
      "2600": 7142,
      "261": 7143,
      "262": 7144,
      "263": 7145,
      "264": 7146,
      "265": 7147,
      "266": 7148,
      "267": 7149,
      "268": 7150,
      "269": 7151,
      "27": 7152,
      "270": 7153,
      "2700": 7154,
      "270°": 7155,
      "271": 7156,
      "272": 7157,
      "273": 7158,
      "274": 7159,
      "275": 7160,
      "276": 7161,
      "277": 7162,
      "278": 7163,
      "279": 7164,
      "2796": 7165,
      "28": 7166,
      "280": 7167,
      "2800": 7168,
      "281": 7169,
      "282": 7170,
      "283": 7171,
      "284": 7172,
      "285": 7173,
      "286": 7174,
      "287": 7175,
      "288": 7176,
      "289": 7177,
      "29": 7178,
      "290": 7179,
      "2900": 7180,
      "291": 7181,
      "292": 7182,
      "293": 7183,
      "294": 7184,
      "295": 7185,
      "296": 7186,
      "297": 7187,
      "298": 7188,
      "299": 7189,
      "2A": 7190,
      "2B": 7191,
      "2C": 7192,
      "2D": 7193,
      "2E": 7194,
      "2F": 7195,
      "2FGL": 7196,
      "2G": 7197,
      "2H": 7198,
      "2L": 7199,
      "2M": 7200,
      "2MASS": 7201,
      "2N": 7202,
      "2P": 7203,
      "2PCF": 7204,
      "2Q": 7205,
      "2S": 7206,
      "2T": 7207,
      "2X": 7208,
      "2a": 7209,
      "2b": 7210,
      "2c": 7211,
      "2d": 7212,
      "2dF": 7213,
      "2dFGRS": 7214,
      "2e": 7215,
      "2f": 7216,
      "2g": 7217,
      "2h": 7218,
      "2k": 7219,
      "2m": 7220,
      "2n": 7221,
      "2nd": 7222,
      "2o": 7223,
      "2p": 7224,
      "2s": 7225,
      "2°": 7226,
      "2π": 7227,
      "2σ": 7228,
      "2−": 7229,
      "3": 7230,
      "30": 7231,
      "300": 7232,
      "3000": 7233,
      "300°C": 7234,
      "301": 7235,
      "302": 7236,
      "303": 7237,
      "304": 7238,
      "305": 7239,
      "306": 7240,
      "307": 7241,
      "308": 7242,
      "309": 7243,
      "30E": 7244,
      "30°": 7245,
      "30°N": 7246,
      "31": 7247,
      "310": 7248,
      "3100": 7249,
      "311": 7250,
      "312": 7251,
      "313": 7252,
      "314": 7253,
      "315": 7254,
      "316": 7255,
      "317": 7256,
      "318": 7257,
      "319": 7258,
      "32": 7259,
      "320": 7260,
      "3200": 7261,
      "321": 7262,
      "322": 7263,
      "323": 7264,
      "324": 7265,
      "325": 7266,
      "326": 7267,
      "327": 7268,
      "328": 7269,
      "329": 7270,
      "33": 7271,
      "330": 7272,
      "3300": 7273,
      "331": 7274,
      "332": 7275,
      "333": 7276,
      "334": 7277,
      "335": 7278,
      "336": 7279,
      "337": 7280,
      "338": 7281,
      "339": 7282,
      "34": 7283,
      "340": 7284,
      "3400": 7285,
      "341": 7286,
      "342": 7287,
      "343": 7288,
      "344": 7289,
      "345": 7290,
      "346": 7291,
      "347": 7292,
      "348": 7293,
      "349": 7294,
      "35": 7295,
      "350": 7296,
      "3500": 7297,
      "351": 7298,
      "352": 7299,
      "353": 7300,
      "354": 7301,
      "355": 7302,
      "356": 7303,
      "357": 7304,
      "358": 7305,
      "359": 7306,
      "35°": 7307,
      "36": 7308,
      "360": 7309,
      "3600": 7310,
      "360°": 7311,
      "361": 7312,
      "362": 7313,
      "363": 7314,
      "364": 7315,
      "365": 7316,
      "366": 7317,
      "367": 7318,
      "368": 7319,
      "369": 7320,
      "36Ar": 7321,
      "37": 7322,
      "370": 7323,
      "3700": 7324,
      "371": 7325,
      "372": 7326,
      "3727": 7327,
      "373": 7328,
      "374": 7329,
      "375": 7330,
      "376": 7331,
      "377": 7332,
      "378": 7333,
      "379": 7334,
      "38": 7335,
      "380": 7336,
      "3800": 7337,
      "381": 7338,
      "382": 7339,
      "383": 7340,
      "384": 7341,
      "385": 7342,
      "386": 7343,
      "387": 7344,
      "388": 7345,
      "389": 7346,
      "39": 7347,
      "390": 7348,
      "391": 7349,
      "392": 7350,
      "393": 7351,
      "394": 7352,
      "395": 7353,
      "396": 7354,
      "397": 7355,
      "398": 7356,
      "399": 7357,
      "39Ar": 7358,
      "3A": 7359,
      "3B": 7360,
      "3C": 7361,
      "3D": 7362,
      "3E": 7363,
      "3F": 7364,
      "3FGL": 7365,
      "3H": 7366,
      "3He": 7367,
      "3P": 7368,
      "3S": 7369,
      "3a": 7370,
      "3b": 7371,
      "3c": 7372,
      "3d": 7373,
      "3e": 7374,
      "3f": 7375,
      "3m": 7376,
      "3p": 7377,
      "3rd": 7378,
      "3s": 7379,
      "3°": 7380,
      "3σ": 7381,
      "4": 7382,
      "40": 7383,
      "400": 7384,
      "4000": 7385,
      "401": 7386,
      "402": 7387,
      "403": 7388,
      "404": 7389,
      "405": 7390,
      "406": 7391,
      "407": 7392,
      "408": 7393,
      "409": 7394,
      "4096": 7395,
      "40Ar": 7396,
      "40E": 7397,
      "40°": 7398,
      "40°N": 7399,
      "41": 7400,
      "410": 7401,
      "411": 7402,
      "412": 7403,
      "413": 7404,
      "414": 7405,
      "415": 7406,
      "4151": 7407,
      "416": 7408,
      "417": 7409,
      "418": 7410,
      "419": 7411,
      "42": 7412,
      "420": 7413,
      "4200": 7414,
      "421": 7415,
      "422": 7416,
      "423": 7417,
      "424": 7418,
      "425": 7419,
      "4258": 7420,
      "426": 7421,
      "427": 7422,
      "428": 7423,
      "429": 7424,
      "43": 7425,
      "430": 7426,
      "431": 7427,
      "432": 7428,
      "433": 7429,
      "434": 7430,
      "435": 7431,
      "436": 7432,
      "437": 7433,
      "438": 7434,
      "439": 7435,
      "44": 7436,
      "440": 7437,
      "441": 7438,
      "442": 7439,
      "443": 7440,
      "444": 7441,
      "445": 7442,
      "446": 7443,
      "447": 7444,
      "448": 7445,
      "449": 7446,
      "45": 7447,
      "450": 7448,
      "4500": 7449,
      "451": 7450,
      "452": 7451,
      "453": 7452,
      "454": 7453,
      "455": 7454,
      "456": 7455,
      "457": 7456,
      "458": 7457,
      "459": 7458,
      "45°": 7459,
      "46": 7460,
      "460": 7461,
      "461": 7462,
      "462": 7463,
      "463": 7464,
      "464": 7465,
      "465": 7466,
      "466": 7467,
      "467": 7468,
      "468": 7469,
      "4686": 7470,
      "469": 7471,
      "47": 7472,
      "470": 7473,
      "471": 7474,
      "472": 7475,
      "473": 7476,
      "474": 7477,
      "475": 7478,
      "476": 7479,
      "477": 7480,
      "478": 7481,
      "479": 7482,
      "48": 7483,
      "480": 7484,
      "4800": 7485,
      "481": 7486,
      "482": 7487,
      "483": 7488,
      "484": 7489,
      "485": 7490,
      "486": 7491,
      "487": 7492,
      "488": 7493,
      "489": 7494,
      "49": 7495,
      "490": 7496,
      "491": 7497,
      "492": 7498,
      "493": 7499,
      "494": 7500,
      "495": 7501,
      "4959": 7502,
      "496": 7503,
      "497": 7504,
      "498": 7505,
      "499": 7506,
      "4A": 7507,
      "4C": 7508,
      "4D": 7509,
      "4E": 7510,
      "4F": 7511,
      "4He": 7512,
      "4P": 7513,
      "4S": 7514,
      "4U": 7515,
      "4a": 7516,
      "4b": 7517,
      "4c": 7518,
      "4d": 7519,
      "4e": 7520,
      "4f": 7521,
      "4m": 7522,
      "4p": 7523,
      "4s": 7524,
      "4th": 7525,
      "4°": 7526,
      "4°Ar": 7527,
      "4π": 7528,
      "4σ": 7529,
      "5": 7530,
      "50": 7531,
      "500": 7532,
      "5000": 7533,
      "5007": 7534,
      "501": 7535,
      "502": 7536,
      "503": 7537,
      "504": 7538,
      "505": 7539,
      "506": 7540,
      "507": 7541,
      "508": 7542,
      "509": 7543,
      "50E": 7544,
      "50°": 7545,
      "51": 7546,
      "510": 7547,
      "5100": 7548,
      "511": 7549,
      "512": 7550,
      "5128": 7551,
      "513": 7552,
      "514": 7553,
      "515": 7554,
      "516": 7555,
      "517": 7556,
      "518": 7557,
      "519": 7558,
      "52": 7559,
      "520": 7560,
      "5200": 7561,
      "521": 7562,
      "522": 7563,
      "523": 7564,
      "524": 7565,
      "525": 7566,
      "526": 7567,
      "527": 7568,
      "528": 7569,
      "529": 7570,
      "53": 7571,
      "530": 7572,
      "531": 7573,
      "532": 7574,
      "533": 7575,
      "534": 7576,
      "535": 7577,
      "536": 7578,
      "537": 7579,
      "538": 7580,
      "539": 7581,
      "54": 7582,
      "540": 7583,
      "541": 7584,
      "542": 7585,
      "543": 7586,
      "544": 7587,
      "545": 7588,
      "546": 7589,
      "547": 7590,
      "548": 7591,
      "549": 7592,
      "55": 7593,
      "550": 7594,
      "5500": 7595,
      "551": 7596,
      "552": 7597,
      "553": 7598,
      "554": 7599,
      "5548": 7600,
      "555": 7601,
      "556": 7602,
      "557": 7603,
      "5577": 7604,
      "558": 7605,
      "559": 7606,
      "55°": 7607,
      "56": 7608,
      "560": 7609,
      "561": 7610,
      "562": 7611,
      "563": 7612,
      "564": 7613,
      "565": 7614,
      "566": 7615,
      "567": 7616,
      "568": 7617,
      "569": 7618,
      "57": 7619,
      "570": 7620,
      "571": 7621,
      "572": 7622,
      "573": 7623,
      "574": 7624,
      "575": 7625,
      "576": 7626,
      "577": 7627,
      "578": 7628,
      "579": 7629,
      "58": 7630,
      "580": 7631,
      "581": 7632,
      "582": 7633,
      "583": 7634,
      "584": 7635,
      "585": 7636,
      "586": 7637,
      "587": 7638,
      "588": 7639,
      "589": 7640,
      "59": 7641,
      "590": 7642,
      "591": 7643,
      "592": 7644,
      "593": 7645,
      "594": 7646,
      "595": 7647,
      "596": 7648,
      "597": 7649,
      "598": 7650,
      "599": 7651,
      "5D": 7652,
      "5E": 7653,
      "5PN": 7654,
      "5a": 7655,
      "5b": 7656,
      "5c": 7657,
      "5d": 7658,
      "5e": 7659,
      "5m": 7660,
      "5th": 7661,
      "5°": 7662,
      "5°C": 7663,
      "5°N": 7664,
      "5°S": 7665,
      "5σ": 7666,
      "6": 7667,
      "60": 7668,
      "600": 7669,
      "6000": 7670,
      "601": 7671,
      "602": 7672,
      "603": 7673,
      "604": 7674,
      "605": 7675,
      "606": 7676,
      "607": 7677,
      "608": 7678,
      "609": 7679,
      "60E": 7680,
      "60°": 7681,
      "60°N": 7682,
      "61": 7683,
      "610": 7684,
      "611": 7685,
      "612": 7686,
      "613": 7687,
      "614": 7688,
      "615": 7689,
      "616": 7690,
      "617": 7691,
      "618": 7692,
      "619": 7693,
      "62": 7694,
      "620": 7695,
      "621": 7696,
      "622": 7697,
      "623": 7698,
      "624": 7699,
      "625": 7700,
      "626": 7701,
      "627": 7702,
      "628": 7703,
      "629": 7704,
      "63": 7705,
      "630": 7706,
      "6300": 7707,
      "631": 7708,
      "632": 7709,
      "633": 7710,
      "6334": 7711,
      "634": 7712,
      "635": 7713,
      "636": 7714,
      "637": 7715,
      "638": 7716,
      "639": 7717,
      "64": 7718,
      "640": 7719,
      "641": 7720,
      "642": 7721,
      "643": 7722,
      "644": 7723,
      "645": 7724,
      "646": 7725,
      "647": 7726,
      "648": 7727,
      "649": 7728,
      "65": 7729,
      "650": 7730,
      "6500": 7731,
      "651": 7732,
      "652": 7733,
      "653": 7734,
      "654": 7735,
      "655": 7736,
      "656": 7737,
      "657": 7738,
      "658": 7739,
      "659": 7740,
      "65°": 7741,
      "66": 7742,
      "660": 7743,
      "661": 7744,
      "662": 7745,
      "663": 7746,
      "664": 7747,
      "665": 7748,
      "666": 7749,
      "667": 7750,
      "668": 7751,
      "669": 7752,
      "67": 7753,
      "670": 7754,
      "671": 7755,
      "672": 7756,
      "673": 7757,
      "6731": 7758,
      "674": 7759,
      "675": 7760,
      "676": 7761,
      "677": 7762,
      "678": 7763,
      "679": 7764,
      "67P": 7765,
      "68": 7766,
      "680": 7767,
      "681": 7768,
      "682": 7769,
      "683": 7770,
      "684": 7771,
      "685": 7772,
      "686": 7773,
      "687": 7774,
      "688": 7775,
      "689": 7776,
      "69": 7777,
      "690": 7778,
      "691": 7779,
      "692": 7780,
      "693": 7781,
      "694": 7782,
      "6946": 7783,
      "695": 7784,
      "696": 7785,
      "697": 7786,
      "698": 7787,
      "699": 7788,
      "6C": 7789,
      "6D": 7790,
      "6E": 7791,
      "6a": 7792,
      "6b": 7793,
      "6c": 7794,
      "6d": 7795,
      "6dF": 7796,
      "6°": 7797,
      "7": 7798,
      "70": 7799,
      "700": 7800,
      "7000": 7801,
      "701": 7802,
      "702": 7803,
      "703": 7804,
      "7037": 7805,
      "704": 7806,
      "705": 7807,
      "706": 7808,
      "707": 7809,
      "708": 7810,
      "709": 7811,
      "70°": 7812,
      "71": 7813,
      "710": 7814,
      "711": 7815,
      "712": 7816,
      "713": 7817,
      "714": 7818,
      "715": 7819,
      "716": 7820,
      "717": 7821,
      "718": 7822,
      "719": 7823,
      "72": 7824,
      "720": 7825,
      "721": 7826,
      "722": 7827,
      "723": 7828,
      "724": 7829,
      "725": 7830,
      "727": 7831,
      "728": 7832,
      "729": 7833,
      "73": 7834,
      "730": 7835,
      "732": 7836,
      "733": 7837,
      "734": 7838,
      "735": 7839,
      "737": 7840,
      "738": 7841,
      "739": 7842,
      "74": 7843,
      "740": 7844,
      "741": 7845,
      "742": 7846,
      "743": 7847,
      "745": 7848,
      "747": 7849,
      "749": 7850,
      "75": 7851,
      "750": 7852,
      "7500": 7853,
      "752": 7854,
      "753": 7855,
      "754": 7856,
      "755": 7857,
      "757": 7858,
      "758": 7859,
      "75°": 7860,
      "76": 7861,
      "760": 7862,
      "762": 7863,
      "763": 7864,
      "765": 7865,
      "766": 7866,
      "768": 7867,
      "769": 7868,
      "77": 7869,
      "770": 7870,
      "773": 7871,
      "775": 7872,
      "776": 7873,
      "777": 7874,
      "78": 7875,
      "780": 7876,
      "784": 7877,
      "785": 7878,
      "79": 7879,
      "790": 7880,
      "791": 7881,
      "795": 7882,
      "7a": 7883,
      "7b": 7884,
      "7c": 7885,
      "7d": 7886,
      "7r": 7887,
      "7°": 7888,
      "8": 7889,
      "80": 7890,
      "800": 7891,
      "8000": 7892,
      "801": 7893,
      "805": 7894,
      "807": 7895,
      "809": 7896,
      "80°": 7897,
      "81": 7898,
      "810": 7899,
      "811": 7900,
      "812": 7901,
      "813": 7902,
      "814": 7903,
      "815": 7904,
      "816": 7905,
      "817": 7906,
      "818": 7907,
      "819": 7908,
      "82": 7909,
      "820": 7910,
      "821": 7911,
      "822": 7912,
      "823": 7913,
      "824": 7914,
      "825": 7915,
      "826": 7916,
      "827": 7917,
      "828": 7918,
      "829": 7919,
      "83": 7920,
      "830": 7921,
      "833": 7922,
      "835": 7923,
      "837": 7924,
      "84": 7925,
      "840": 7926,
      "841": 7927,
      "843": 7928,
      "845": 7929,
      "846": 7930,
      "847": 7931,
      "849": 7932,
      "84th": 7933,
      "85": 7934,
      "850": 7935,
      "855": 7936,
      "857": 7937,
      "85°": 7938,
      "86": 7939,
      "860": 7940,
      "865": 7941,
      "867": 7942,
      "869": 7943,
      "86Sr": 7944,
      "87": 7945,
      "870": 7946,
      "875": 7947,
      "876": 7948,
      "8799": 7949,
      "87Sr": 7950,
      "88": 7951,
      "880": 7952,
      "885": 7953,
      "89": 7954,
      "890": 7955,
      "891": 7956,
      "8E": 7957,
      "8a": 7958,
      "8b": 7959,
      "8c": 7960,
      "8°": 7961,
      "9": 7962,
      "90": 7963,
      "900": 7964,
      "9000": 7965,
      "901": 7966,
      "905": 7967,
      "90°": 7968,
      "91": 7969,
      "910": 7970,
      "911": 7971,
      "912": 7972,
      "913": 7973,
      "914": 7974,
      "915": 7975,
      "916": 7976,
      "917": 7977,
      "918": 7978,
      "919": 7979,
      "92": 7980,
      "920": 7981,
      "922": 7982,
      "923": 7983,
      "924": 7984,
      "925": 7985,
      "926": 7986,
      "927": 7987,
      "928": 7988,
      "929": 7989,
      "93": 7990,
      "930": 7991,
      "933": 7992,
      "935": 7993,
      "937": 7994,
      "94": 7995,
      "940": 7996,
      "945": 7997,
      "948": 7998,
      "95": 7999,
      "950": 8000,
      "951": 8001,
      "955": 8002,
      "96": 8003,
      "960": 8004,
      "961": 8005,
      "965": 8006,
      "97": 8007,
      "970": 8008,
      "973": 8009,
      "975": 8010,
      "977": 8011,
      "979": 8012,
      "98": 8013,
      "980": 8014,
      "981": 8015,
      "983": 8016,
      "984": 8017,
      "985": 8018,
      "987": 8019,
      "989": 8020,
      "99": 8021,
      "990": 8022,
      "991": 8023,
      "995": 8024,
      "996": 8025,
      "997": 8026,
      "998": 8027,
      "999": 8028,
      "9E": 8029,
      "9a": 8030,
      "9b": 8031,
      "9c": 8032,
      "9°": 8033,
      ":": 8034,
      ";": 8035,
      "<": 8036,
      "=": 8037,
      ">": 8038,
      "?": 8039,
      "@": 8040,
      "A": 8041,
      "A0": 8042,
      "A1": 8043,
      "A10": 8044,
      "A11": 8045,
      "A12": 8046,
      "A1203": 8047,
      "A13": 8048,
      "A14": 8049,
      "A15": 8050,
      "A16": 8051,
      "A17": 8052,
      "A18": 8053,
      "A2": 8054,
      "A20": 8055,
      "A3": 8056,
      "A4": 8057,
      "A5": 8058,
      "A6": 8059,
      "A7": 8060,
      "A8": 8061,
      "A9": 8062,
      "AA": 8063,
      "AAS": 8064,
      "AAT": 8065,
      "AB": 8066,
      "ABSTR": 8067,
      "ABSTRACT": 8068,
      "AC": 8069,
      "ACC": 8070,
      "ACE": 8071,
      "ACF": 8072,
      "ACIS": 8073,
      "ACK": 8074,
      "ACKNOWLED": 8075,
      "ACR": 8076,
      "ACS": 8077,
      "ACT": 8078,
      "AD": 8079,
      "ADAF": 8080,
      "ADC": 8081,
      "ADI": 8082,
      "ADM": 8083,
      "ADU": 8084,
      "AE": 8085,
      "AER": 8086,
      "AF": 8087,
      "AFGL": 8088,
      "AFT": 8089,
      "AG": 8090,
      "AGB": 8091,
      "AGILE": 8092,
      "AGN": 8093,
      "AGNs": 8094,
      "AH": 8095,
      "AI": 8096,
      "AIA": 8097,
      "AIC": 8098,
      "AIPS": 8099,
      "AIRS": 8100,
      "AJ": 8101,
      "AK": 8102,
      "AKARI": 8103,
      "AKR": 8104,
      "AL": 8105,
      "ALF": 8106,
      "ALFALFA": 8107,
      "ALH": 8108,
      "ALHA": 8109,
      "ALL": 8110,
      "ALMA": 8111,
      "ALP": 8112,
      "ALT": 8113,
      "AM": 8114,
      "AMD": 8115,
      "AMI": 8116,
      "AMO": 8117,
      "AMOC": 8118,
      "AMP": 8119,
      "AMR": 8120,
      "AMS": 8121,
      "AN": 8122,
      "ANAL": 8123,
      "ANALYS": 8124,
      "ANALYSIS": 8125,
      "AND": 8126,
      "ANDERS": 8127,
      "ANG": 8128,
      "ANN": 8129,
      "ANT": 8130,
      "AO": 8131,
      "AOD": 8132,
      "AP": 8133,
      "APEC": 8134,
      "APEX": 8135,
      "APM": 8136,
      "APO": 8137,
      "APOGEE": 8138,
      "APP": 8139,
      "APPENDIX": 8140,
      "APPL": 8141,
      "APPRO": 8142,
      "APR": 8143,
      "APS": 8144,
      "APXS": 8145,
      "AQ": 8146,
      "AR": 8147,
      "ARAA": 8148,
      "ARE": 8149,
      "ARM": 8150,
      "ARs": 8151,
      "AS": 8152,
      "ASA": 8153,
      "ASAS": 8154,
      "ASASSN": 8155,
      "ASC": 8156,
      "ASCA": 8157,
      "ASI": 8158,
      "ASK": 8159,
      "ASKAP": 8160,
      "ASM": 8161,
      "ASP": 8162,
      "ASS": 8163,
      "AST": 8164,
      "ASTER": 8165,
      "ASTRO": 8166,
      "AT": 8167,
      "AT20": 8168,
      "ATCA": 8169,
      "ATLAS": 8170,
      "ATLASGAL": 8171,
      "ATMOS": 8172,
      "AU": 8173,
      "AV": 8174,
      "AVHRR": 8175,
      "AW": 8176,
      "AX": 8177,
      "AXPs": 8178,
      "AZ": 8179,
      "Aa": 8180,
      "Ab": 8181,
      "Abaz": 8182,
      "Abazajian": 8183,
      "Abb": 8184,
      "Abbott": 8185,
      "Abd": 8186,
      "Abdo": 8187,
      "Abel": 8188,
      "Abelian": 8189,
      "Abell": 8190,
      "About": 8191,
      "Above": 8192,
      "Abraham": 8193,
      "Abram": 8194,
      "Abramowicz": 8195,
      "Abs": 8196,
      "Absolute": 8197,
      "Absorption": 8198,
      "Abstract": 8199,
      "Abund": 8200,
      "Abundance": 8201,
      "Abundances": 8202,
      "Ac": 8203,
      "Acad": 8204,
      "Academ": 8205,
      "Academic": 8206,
      "Academy": 8207,
      "Acc": 8208,
      "Acceler": 8209,
      "Acceleration": 8210,
      "According": 8211,
      "Accordingly": 8212,
      "Accounting": 8213,
      "Accretion": 8214,
      "Accur": 8215,
      "Accuracy": 8216,
      "Accurate": 8217,
      "Ach": 8218,
      "Ack": 8219,
      "Ackermann": 8220,
      "Ackn": 8221,
      "Acknowledg": 8222,
      "Acknowledge": 8223,
      "Acknowledgements": 8224,
      "Acknowledgments": 8225,
      "Across": 8226,
      "Act": 8227,
      "Acta": 8228,
      "Active": 8229,
      "Activity": 8230,
      "Actually": 8231,
      "Ad": 8232,
      "AdS": 8233,
      "Ada": 8234,
      "Adam": 8235,
      "Adams": 8236,
      "Adap": 8237,
      "Adaptive": 8238,
      "Adding": 8239,
      "Addition": 8240,
      "Additional": 8241,
      "Additionally": 8242,
      "Adel": 8243,
      "Adi": 8244,
      "Administration": 8245,
      "Adop": 8246,
      "Adopting": 8247,
      "Adri": 8248,
      "Adv": 8249,
      "Advanced": 8250,
      "Advances": 8251,
      "Ae": 8252,
      "Aegean": 8253,
      "Aer": 8254,
      "Aeron": 8255,
      "Aeronautics": 8256,
      "Aerosol": 8257,
      "Af": 8258,
      "Aff": 8259,
      "Afric": 8260,
      "Africa": 8261,
      "African": 8262,
      "After": 8263,
      "Ag": 8264,
      "Again": 8265,
      "Age": 8266,
      "Agency": 8267,
      "Ages": 8268,
      "Agol": 8269,
      "Agu": 8270,
      "Ah": 8271,
      "Ahar": 8272,
      "Aharonian": 8273,
      "Ai": 8274,
      "Aims": 8275,
      "Air": 8276,
      "Airy": 8277,
      "Ait": 8278,
      "Aj": 8279,
      "Ak": 8280,
      "Akad": 8281,
      "Akas": 8282,
      "Akasofu": 8283,
      "Aki": 8284,
      "Al": 8285,
      "Alam": 8286,
      "Alaska": 8287,
      "Alb": 8288,
      "Alber": 8289,
      "Albert": 8290,
      "Alcock": 8291,
      "Ald": 8292,
      "Ale": 8293,
      "Ales": 8294,
      "Alex": 8295,
      "Alexander": 8296,
      "Alf": 8297,
      "Alfven": 8298,
      "Alfvenic": 8299,
      "Alg": 8300,
      "Algor": 8301,
      "Algorithm": 8302,
      "Ali": 8303,
      "Alice": 8304,
      "All": 8305,
      "Allan": 8306,
      "Allard": 8307,
      "Allen": 8308,
      "Allende": 8309,
      "Aller": 8310,
      "Allow": 8311,
      "Allowing": 8312,
      "Almost": 8313,
      "Along": 8314,
      "Alonso": 8315,
      "Alpha": 8316,
      "Alpine": 8317,
      "Alps": 8318,
      "Also": 8319,
      "Alt": 8320,
      "Alter": 8321,
      "Altern": 8322,
      "Alternative": 8323,
      "Alternatively": 8324,
      "Although": 8325,
      "Altim": 8326,
      "Altitude": 8327,
      "Alto": 8328,
      "Altogether": 8329,
      "Alv": 8330,
      "Alvarez": 8331,
      "Alves": 8332,
      "Am": 8333,
      "Amaz": 8334,
      "Amazon": 8335,
      "Amazonian": 8336,
      "Amb": 8337,
      "Amer": 8338,
      "America": 8339,
      "American": 8340,
      "Ames": 8341,
      "Ammon": 8342,
      "Among": 8343,
      "Amp": 8344,
      "Ampl": 8345,
      "Amplitude": 8346,
      "Amster": 8347,
      "Amsterdam": 8348,
      "An": 8349,
      "Analog": 8350,
      "Analy": 8351,
      "Analyses": 8352,
      "Analysis": 8353,
      "Analytic": 8354,
      "Analytical": 8355,
      "Analyzer": 8356,
      "Anat": 8357,
      "And": 8358,
      "Andean": 8359,
      "Anders": 8360,
      "Andersen": 8361,
      "Anderson": 8362,
      "Andersson": 8363,
      "Andes": 8364,
      "Andre": 8365,
      "Andreas": 8366,
      "Andrews": 8367,
      "Androm": 8368,
      "Andromeda": 8369,
      "Ang": 8370,
      "Angel": 8371,
      "Angeles": 8372,
      "Angle": 8373,
      "Angular": 8374,
      "Anisot": 8375,
      "Anisotropy": 8376,
      "Ann": 8377,
      "Annual": 8378,
      "Anomal": 8379,
      "Anomalous": 8380,
      "Anomaly": 8381,
      "Another": 8382,
      "Ans": 8383,
      "Ant": 8384,
      "Antarctic": 8385,
      "Antarctica": 8386,
      "Antenn": 8387,
      "Antennae": 8388,
      "Anth": 8389,
      "Anti": 8390,
      "Anton": 8391,
      "Antona": 8392,
      "Antonucci": 8393,
      "Any": 8394,
      "Ao": 8395,
      "Aoki": 8396,
      "Ap": 8397,
      "ApJ": 8398,
      "ApJS": 8399,
      "Apart": 8400,
      "Apenn": 8401,
      "Apennines": 8402,
      "Aperture": 8403,
      "Apollo": 8404,
      "App": 8405,
      "Apparent": 8406,
      "Apparently": 8407,
      "Appendices": 8408,
      "Appendix": 8409,
      "Appl": 8410,
      "Applic": 8411,
      "Application": 8412,
      "Applications": 8413,
      "Applied": 8414,
      "Applying": 8415,
      "Appro": 8416,
      "Approach": 8417,
      "Approxim": 8418,
      "Approximate": 8419,
      "Approximately": 8420,
      "Apr": 8421,
      "April": 8422,
      "Aq": 8423,
      "Aql": 8424,
      "Aqr": 8425,
      "Aqu": 8426,
      "Aquarius": 8427,
      "Ar": 8428,
      "Ara": 8429,
      "Arab": 8430,
      "Arabia": 8431,
      "Arabian": 8432,
      "Arag": 8433,
      "Arc": 8434,
      "Arch": 8435,
      "Archae": 8436,
      "Archaean": 8437,
      "Arche": 8438,
      "Archean": 8439,
      "Archive": 8440,
      "Arctic": 8441,
      "Are": 8442,
      "Area": 8443,
      "Areas": 8444,
      "Arec": 8445,
      "Arecibo": 8446,
      "Arg": 8447,
      "Argenti": 8448,
      "Argentina": 8449,
      "Argo": 8450,
      "Argon": 8451,
      "Ari": 8452,
      "Arizona": 8453,
      "Ark": 8454,
      "Arm": 8455,
      "Armitage": 8456,
      "Armstrong": 8457,
      "Arn": 8458,
      "Arnaud": 8459,
      "Arnett": 8460,
      "Arnold": 8461,
      "Arnouts": 8462,
      "Around": 8463,
      "Arp": 8464,
      "Array": 8465,
      "Arrhen": 8466,
      "Arrhenius": 8467,
      "Arrows": 8468,
      "Art": 8469,
      "Artem": 8470,
      "Artif": 8471,
      "As": 8472,
      "Asc": 8473,
      "Aschw": 8474,
      "Aschwanden": 8475,
      "Ash": 8476,
      "Asia": 8477,
      "Asian": 8478,
      "Aside": 8479,
      "Asp": 8480,
      "Asplund": 8481,
      "Ass": 8482,
      "Assemb": 8483,
      "Assembly": 8484,
      "Assess": 8485,
      "Assessment": 8486,
      "Assoc": 8487,
      "Associ": 8488,
      "Associated": 8489,
      "Association": 8490,
      "Assume": 8491,
      "Assuming": 8492,
      "Ast": 8493,
      "Astero": 8494,
      "Asteroid": 8495,
      "Asteroids": 8496,
      "Astro": 8497,
      "Astromet": 8498,
      "Astrometric": 8499,
      "Astron": 8500,
      "Astronom": 8501,
      "Astronomical": 8502,
      "Astronomy": 8503,
      "Astrop": 8504,
      "Astrophys": 8505,
      "Astrophysical": 8506,
      "Astrophysics": 8507,
      "Asympto": 8508,
      "At": 8509,
      "Atac": 8510,
      "Atacama": 8511,
      "Ath": 8512,
      "Athan": 8513,
      "Athanass": 8514,
      "Athanassoula": 8515,
      "Athen": 8516,
      "Atlan": 8517,
      "Atlantic": 8518,
      "Atlas": 8519,
      "Atm": 8520,
      "Atmos": 8521,
      "Atmosphere": 8522,
      "Atmospheres": 8523,
      "Atmospheric": 8524,
      "Atomic": 8525,
      "Att": 8526,
      "Attemp": 8527,
      "Attempts": 8528,
      "Atten": 8529,
      "Au": 8530,
      "Aud": 8531,
      "Aug": 8532,
      "Auger": 8533,
      "August": 8534,
      "Aur": 8535,
      "Auroral": 8536,
      "Aus": 8537,
      "Aust": 8538,
      "Austral": 8539,
      "Australia": 8540,
      "Australian": 8541,
      "Aut": 8542,
      "Auth": 8543,
      "Av": 8544,
      "Available": 8545,
      "Aver": 8546,
      "Average": 8547,
      "Averaged": 8548,
      "Averaging": 8549,
      "Ax": 8550,
      "Ay": 8551,
      "Az": 8552,
      "AzTEC": 8553,
      "Azimuth": 8554,
      "Aμ": 8555,
      "B": 8556,
      "B0": 8557,
      "B1": 8558,
      "B10": 8559,
      "B11": 8560,
      "B12": 8561,
      "B15": 8562,
      "B16": 8563,
      "B17": 8564,
      "B18": 8565,
      "B19": 8566,
      "B2": 8567,
      "B3": 8568,
      "B4": 8569,
      "B5": 8570,
      "B6": 8571,
      "B7": 8572,
      "B8": 8573,
      "B9": 8574,
      "BA": 8575,
      "BACK": 8576,
      "BAL": 8577,
      "BALQ": 8578,
      "BALs": 8579,
      "BAN": 8580,
      "BAO": 8581,
      "BAR": 8582,
      "BAS": 8583,
      "BAT": 8584,
      "BATSE": 8585,
      "BB": 8586,
      "BBH": 8587,
      "BBHs": 8588,
      "BBN": 8589,
      "BC": 8590,
      "BC03": 8591,
      "BCD": 8592,
      "BCDs": 8593,
      "BCG": 8594,
      "BCGs": 8595,
      "BCS": 8596,
      "BD": 8597,
      "BDS": 8598,
      "BDs": 8599,
      "BE": 8600,
      "BEC": 8601,
      "BEL": 8602,
      "BEST": 8603,
      "BET": 8604,
      "BETWEEN": 8605,
      "BF": 8606,
      "BG": 8607,
      "BH": 8608,
      "BHB": 8609,
      "BHBs": 8610,
      "BHs": 8611,
      "BI": 8612,
      "BIC": 8613,
      "BIMA": 8614,
      "BIN": 8615,
      "BIS": 8616,
      "BJ": 8617,
      "BJD": 8618,
      "BK": 8619,
      "BL": 8620,
      "BLACK": 8621,
      "BLAST": 8622,
      "BLG": 8623,
      "BLR": 8624,
      "BLS": 8625,
      "BM": 8626,
      "BN": 8627,
      "BNS": 8628,
      "BO": 8629,
      "BOSS": 8630,
      "BOW": 8631,
      "BP": 8632,
      "BPS": 8633,
      "BPT": 8634,
      "BR": 8635,
      "BRO": 8636,
      "BROWN": 8637,
      "BS": 8638,
      "BSE": 8639,
      "BSR": 8640,
      "BSS": 8641,
      "BSSs": 8642,
      "BSs": 8643,
      "BT": 8644,
      "BTZ": 8645,
      "BU": 8646,
      "BUR": 8647,
      "BV": 8648,
      "BVRI": 8649,
      "BW": 8650,
      "BX": 8651,
      "BY": 8652,
      "BZ": 8653,
      "Ba": 8654,
      "Baade": 8655,
      "Bab": 8656,
      "Bac": 8657,
      "Bach": 8658,
      "Back": 8659,
      "Background": 8660,
      "Bacon": 8661,
      "Bad": 8662,
      "Bag": 8663,
      "Bah": 8664,
      "Bahcall": 8665,
      "Bai": 8666,
      "Baik": 8667,
      "Baikal": 8668,
      "Bail": 8669,
      "Bailey": 8670,
      "Baj": 8671,
      "Bak": 8672,
      "Baker": 8673,
      "Bal": 8674,
      "Balbus": 8675,
      "Bald": 8676,
      "Baldry": 8677,
      "Baldwin": 8678,
      "Ball": 8679,
      "Bally": 8680,
      "Balmer": 8681,
      "Balog": 8682,
      "Balogh": 8683,
      "Baltic": 8684,
      "Ban": 8685,
      "Band": 8686,
      "Bands": 8687,
      "Baner": 8688,
      "Banerjee": 8689,
      "Bang": 8690,
      "Bank": 8691,
      "Banks": 8692,
      "Bar": 8693,
      "Baraffe": 8694,
      "Barb": 8695,
      "Barber": 8696,
      "Bard": 8697,
      "Bardeen": 8698,
      "Barents": 8699,
      "Barger": 8700,
      "Bark": 8701,
      "Barker": 8702,
      "Barlow": 8703,
      "Barn": 8704,
      "Barnes": 8705,
      "Barrow": 8706,
      "Bars": 8707,
      "Bart": 8708,
      "Barth": 8709,
      "Bary": 8710,
      "Bas": 8711,
      "Basal": 8712,
      "Basalt": 8713,
      "Base": 8714,
      "Based": 8715,
      "Baseline": 8716,
      "Basic": 8717,
      "Basin": 8718,
      "Basri": 8719,
      "Bass": 8720,
      "Bastian": 8721,
      "Basu": 8722,
      "Bat": 8723,
      "Bate": 8724,
      "Bath": 8725,
      "Batt": 8726,
      "Bauer": 8727,
      "Baugh": 8728,
      "Baum": 8729,
      "Baumg": 8730,
      "Baumgardt": 8731,
      "Bay": 8732,
      "Bayes": 8733,
      "Bayesian": 8734,
      "Be": 8735,
      "Bea": 8736,
      "Beam": 8737,
      "Beau": 8738,
      "Bec": 8739,
      "Because": 8740,
      "Beck": 8741,
      "Becker": 8742,
      "Bed": 8743,
      "Beers": 8744,
      "Before": 8745,
      "Beg": 8746,
      "Begelman": 8747,
      "Beh": 8748,
      "Behav": 8749,
      "Behroozi": 8750,
      "Beij": 8751,
      "Beijing": 8752,
      "Being": 8753,
      "Bek": 8754,
      "Bekenstein": 8755,
      "Bekki": 8756,
      "Bel": 8757,
      "Belczynski": 8758,
      "Belg": 8759,
      "Bell": 8760,
      "Belloni": 8761,
      "Belob": 8762,
      "Beloborodov": 8763,
      "Belokurov": 8764,
      "Below": 8765,
      "Belt": 8766,
      "Ben": 8767,
      "Bender": 8768,
      "Bened": 8769,
      "Beng": 8770,
      "Bengal": 8771,
      "Benn": 8772,
      "Bennett": 8773,
      "Bennu": 8774,
      "Bens": 8775,
      "Bensby": 8776,
      "Benson": 8777,
      "Bent": 8778,
      "Benz": 8779,
      "Beppo": 8780,
      "BeppoSAX": 8781,
      "Ber": 8782,
      "Bere": 8783,
      "Berg": 8784,
      "Berger": 8785,
      "Bergeron": 8786,
      "Bergh": 8787,
      "Berk": 8788,
      "Berkeley": 8789,
      "Berlin": 8790,
      "Bern": 8791,
      "Bernard": 8792,
      "Bernardi": 8793,
      "Berner": 8794,
      "Bernou": 8795,
      "Bernstein": 8796,
      "Berry": 8797,
      "Bert": 8798,
      "Bertin": 8799,
      "Bes": 8800,
      "Besides": 8801,
      "Bessel": 8802,
      "Bessell": 8803,
      "Best": 8804,
      "Bet": 8805,
      "Beta": 8806,
      "Bethe": 8807,
      "Between": 8808,
      "Bey": 8809,
      "Beyond": 8810,
      "Bez": 8811,
      "Bh": 8812,
      "Bhat": 8813,
      "Bhatt": 8814,
      "Bhattach": 8815,
      "Bhattachary": 8816,
      "Bi": 8817,
      "Bian": 8818,
      "Bianchi": 8819,
      "Bias": 8820,
      "Bica": 8821,
      "Big": 8822,
      "Bil": 8823,
      "Bild": 8824,
      "Bildsten": 8825,
      "Bin": 8826,
      "Binaries": 8827,
      "Binary": 8828,
      "Bing": 8829,
      "Binney": 8830,
      "Bio": 8831,
      "Bir": 8832,
      "Birch": 8833,
      "Bird": 8834,
      "Birn": 8835,
      "Bis": 8836,
      "Bisch": 8837,
      "Bischoff": 8838,
      "Bish": 8839,
      "Bishop": 8840,
      "Bj": 8841,
      "Bl": 8842,
      "Bla": 8843,
      "Black": 8844,
      "Blake": 8845,
      "Blanc": 8846,
      "Blanco": 8847,
      "Bland": 8848,
      "Blandford": 8849,
      "Blanton": 8850,
      "Blaz": 8851,
      "Blazhko": 8852,
      "Blitz": 8853,
      "Blo": 8854,
      "Block": 8855,
      "Blok": 8856,
      "Blond": 8857,
      "Bloom": 8858,
      "Blu": 8859,
      "Blue": 8860,
      "Blum": 8861,
      "Blund": 8862,
      "Bn": 8863,
      "Bo": 8864,
      "Board": 8865,
      "Bob": 8866,
      "Bock": 8867,
      "Bod": 8868,
      "Bodenheimer": 8869,
      "Bog": 8870,
      "Bogd": 8871,
      "Boh": 8872,
      "Bohm": 8873,
      "Bohringer": 8874,
      "Bol": 8875,
      "Bolton": 8876,
      "Boltz": 8877,
      "Boltzmann": 8878,
      "Bon": 8879,
      "Bond": 8880,
      "Bondi": 8881,
      "Bonn": 8882,
      "Bonnell": 8883,
      "Bonnet": 8884,
      "Boo": 8885,
      "Book": 8886,
      "Bootes": 8887,
      "Booth": 8888,
      "Bopp": 8889,
      "Bor": 8890,
      "Bore": 8891,
      "Borg": 8892,
      "Boris": 8893,
      "Born": 8894,
      "Bos": 8895,
      "Bosch": 8896,
      "Bose": 8897,
      "Boss": 8898,
      "Bost": 8899,
      "Bot": 8900,
      "Both": 8901,
      "Bott": 8902,
      "Bottke": 8903,
      "Bottom": 8904,
      "Bou": 8905,
      "Bouguer": 8906,
      "Boul": 8907,
      "Bould": 8908,
      "Boulder": 8909,
      "Bound": 8910,
      "Boundary": 8911,
      "Bour": 8912,
      "Bouss": 8913,
      "Boussinesq": 8914,
      "Bouvier": 8915,
      "Bouwens": 8916,
      "Bovy": 8917,
      "Bow": 8918,
      "Bowen": 8919,
      "Bower": 8920,
      "Box": 8921,
      "Boy": 8922,
      "Boyd": 8923,
      "Boyer": 8924,
      "Boyle": 8925,
      "Br": 8926,
      "Bra": 8927,
      "Brad": 8928,
      "Bradley": 8929,
      "Brag": 8930,
      "Bram": 8931,
      "Bran": 8932,
      "Branch": 8933,
      "Brand": 8934,
      "Brandenburg": 8935,
      "Brandt": 8936,
      "Brans": 8937,
      "Braun": 8938,
      "Braz": 8939,
      "Brazil": 8940,
      "Brazilian": 8941,
      "Bre": 8942,
      "Break": 8943,
      "Brear": 8944,
      "Brearley": 8945,
      "Breg": 8946,
      "Bregman": 8947,
      "Bren": 8948,
      "Bress": 8949,
      "Bressan": 8950,
      "Bri": 8951,
      "Brid": 8952,
      "Bridge": 8953,
      "Bridle": 8954,
      "Brief": 8955,
      "Briefly": 8956,
      "Brien": 8957,
      "Briggs": 8958,
      "Bright": 8959,
      "Brightness": 8960,
      "Brill": 8961,
      "Brin": 8962,
      "Brinchmann": 8963,
      "Brink": 8964,
      "Brit": 8965,
      "Britain": 8966,
      "British": 8967,
      "Bro": 8968,
      "Broad": 8969,
      "Broadband": 8970,
      "Brog": 8971,
      "Brom": 8972,
      "Bromm": 8973,
      "Brook": 8974,
      "Brooks": 8975,
      "Brow": 8976,
      "Brown": 8977,
      "Brownian": 8978,
      "Bru": 8979,
      "Brun": 8980,
      "Brunt": 8981,
      "Bruzual": 8982,
      "Bry": 8983,
      "Bryan": 8984,
      "Brγ": 8985,
      "Bu": 8986,
      "Bubble": 8987,
      "Buch": 8988,
      "Buck": 8989,
      "Bud": 8990,
      "Building": 8991,
      "Bul": 8992,
      "Bulge": 8993,
      "Bulk": 8994,
      "Bull": 8995,
      "Bullock": 8996,
      "Bun": 8997,
      "Bur": 8998,
      "Burb": 8999,
      "Bure": 9000,
      "Bureau": 9001,
      "Burg": 9002,
      "Burgasser": 9003,
      "Burke": 9004,
      "Burkert": 9005,
      "Burl": 9006,
      "Burlaga": 9007,
      "Burn": 9008,
      "Burns": 9009,
      "Burrows": 9010,
      "Burst": 9011,
      "Bursts": 9012,
      "Burton": 9013,
      "Bus": 9014,
      "Bush": 9015,
      "But": 9016,
      "Butler": 9017,
      "By": 9018,
      "Byr": 9019,
      "Bz": 9020,
      "BzK": 9021,
      "C": 9022,
      "C0": 9023,
      "C02": 9024,
      "C1": 9025,
      "C10": 9026,
      "C12": 9027,
      "C2": 9028,
      "C3": 9029,
      "C4": 9030,
      "C5": 9031,
      "C6": 9032,
      "C7": 9033,
      "C8": 9034,
      "C9": 9035,
      "CA": 9036,
      "CAI": 9037,
      "CAIs": 9038,
      "CAL": 9039,
      "CALCUL": 9040,
      "CALIF": 9041,
      "CALIFA": 9042,
      "CAM": 9043,
      "CAN": 9044,
      "CAND": 9045,
      "CANDELS": 9046,
      "CAP": 9047,
      "CAPS": 9048,
      "CAR": 9049,
      "CARMA": 9050,
      "CAS": 9051,
      "CASA": 9052,
      "CAT": 9053,
      "CB": 9054,
      "CC": 9055,
      "CCC": 9056,
      "CCD": 9057,
      "CCDs": 9058,
      "CCF": 9059,
      "CCFs": 9060,
      "CCH": 9061,
      "CCM": 9062,
      "CCN": 9063,
      "CCS": 9064,
      "CCSN": 9065,
      "CCSNe": 9066,
      "CCs": 9067,
      "CD": 9068,
      "CDF": 9069,
      "CDFS": 9070,
      "CDM": 9071,
      "CDMS": 9072,
      "CDS": 9073,
      "CE": 9074,
      "CEL": 9075,
      "CEMP": 9076,
      "CEN": 9077,
      "CER": 9078,
      "CERN": 9079,
      "CES": 9080,
      "CF": 9081,
      "CFHT": 9082,
      "CFHTLS": 9083,
      "CFL": 9084,
      "CFT": 9085,
      "CG": 9086,
      "CGM": 9087,
      "CGs": 9088,
      "CH": 9089,
      "CH3": 9090,
      "CH4": 9091,
      "CHAMP": 9092,
      "CHAN": 9093,
      "CHAR": 9094,
      "CHI": 9095,
      "CHIANTI": 9096,
      "CHO": 9097,
      "CI": 9098,
      "CIA": 9099,
      "CIAO": 9100,
      "CIB": 9101,
      "CIE": 9102,
      "CII": 9103,
      "CIR": 9104,
      "CIRS": 9105,
      "CIRs": 9106,
      "CIS": 9107,
      "CJ": 9108,
      "CK": 9109,
      "CL": 9110,
      "CLA": 9111,
      "CLASS": 9112,
      "CLE": 9113,
      "CLEAN": 9114,
      "CLO": 9115,
      "CLUST": 9116,
      "CLUSTER": 9117,
      "CM": 9118,
      "CM2": 9119,
      "CMASS": 9120,
      "CMB": 9121,
      "CMC": 9122,
      "CMD": 9123,
      "CMDs": 9124,
      "CME": 9125,
      "CMEs": 9126,
      "CMF": 9127,
      "CMIP": 9128,
      "CMIP5": 9129,
      "CMR": 9130,
      "CMS": 9131,
      "CMT": 9132,
      "CMZ": 9133,
      "CMa": 9134,
      "CN": 9135,
      "CND": 9136,
      "CNM": 9137,
      "CNN": 9138,
      "CNO": 9139,
      "CNRS": 9140,
      "CO": 9141,
      "CO2": 9142,
      "COBE": 9143,
      "COL": 9144,
      "COM": 9145,
      "COMP": 9146,
      "COMPAR": 9147,
      "COMPARISON": 9148,
      "CON": 9149,
      "CONC": 9150,
      "CONCLUS": 9151,
      "CONCLUSION": 9152,
      "CONCLUSIONS": 9153,
      "COND": 9154,
      "CONST": 9155,
      "COR": 9156,
      "CORR": 9157,
      "COS": 9158,
      "COSM": 9159,
      "COSMIC": 9160,
      "COSMOS": 9161,
      "COSP": 9162,
      "COSPAR": 9163,
      "COUP": 9164,
      "COZ": 9165,
      "COz": 9166,
      "CP": 9167,
      "CPC": 9168,
      "CPD": 9169,
      "CPL": 9170,
      "CPS": 9171,
      "CPU": 9172,
      "CQ": 9173,
      "CR": 9174,
      "CRE": 9175,
      "CRISM": 9176,
      "CRO": 9177,
      "CRRES": 9178,
      "CRs": 9179,
      "CS": 9180,
      "CSF": 9181,
      "CSM": 9182,
      "CSO": 9183,
      "CSP": 9184,
      "CSS": 9185,
      "CT": 9186,
      "CTA": 9187,
      "CTD": 9188,
      "CTIO": 9189,
      "CTTS": 9190,
      "CTTSs": 9191,
      "CTX": 9192,
      "CU": 9193,
      "CUR": 9194,
      "CV": 9195,
      "CV3": 9196,
      "CVn": 9197,
      "CVs": 9198,
      "CW": 9199,
      "CX": 9200,
      "CXB": 9201,
      "CXO": 9202,
      "CXOU": 9203,
      "CY": 9204,
      "CZ": 9205,
      "Ca": 9206,
      "CaCO": 9207,
      "CaCl": 9208,
      "CaO": 9209,
      "CaT": 9210,
      "Cab": 9211,
      "Cad": 9212,
      "Cai": 9213,
      "Cal": 9214,
      "Calab": 9215,
      "Calc": 9216,
      "Calcium": 9217,
      "Calcul": 9218,
      "Calculated": 9219,
      "Calculating": 9220,
      "Calculation": 9221,
      "Calculations": 9222,
      "Cald": 9223,
      "Caldwell": 9224,
      "Caled": 9225,
      "Calibration": 9226,
      "Calif": 9227,
      "Californ": 9228,
      "California": 9229,
      "Call": 9230,
      "Callisto": 9231,
      "Caltech": 9232,
      "Calzetti": 9233,
      "Cam": 9234,
      "Camb": 9235,
      "Cambrian": 9236,
      "Cambridge": 9237,
      "Camer": 9238,
      "Camera": 9239,
      "Cameron": 9240,
      "Camp": 9241,
      "Campaign": 9242,
      "Campbell": 9243,
      "Can": 9244,
      "Canada": 9245,
      "Canadian": 9246,
      "Cand": 9247,
      "Candid": 9248,
      "Candidate": 9249,
      "Candidates": 9250,
      "Canfield": 9251,
      "Cannon": 9252,
      "Cant": 9253,
      "Cany": 9254,
      "Canyon": 9255,
      "Cao": 9256,
      "Cap": 9257,
      "Cape": 9258,
      "Capp": 9259,
      "Cappell": 9260,
      "Cappellari": 9261,
      "Car": 9262,
      "Carbon": 9263,
      "Carbonate": 9264,
      "Carboniferous": 9265,
      "Card": 9266,
      "Cardelli": 9267,
      "Care": 9268,
      "Cari": 9269,
      "Carib": 9270,
      "Caribbean": 9271,
      "Carilli": 9272,
      "Carina": 9273,
      "Carl": 9274,
      "Carlberg": 9275,
      "Carlo": 9276,
      "Carlson": 9277,
      "Carnegie": 9278,
      "Carp": 9279,
      "Carpenter": 9280,
      "Carr": 9281,
      "Carretta": 9282,
      "Carrington": 9283,
      "Carroll": 9284,
      "Cart": 9285,
      "Cartan": 9286,
[...]
