!
"
#
##0
##00
##000
##0000
##00000
##00000000
##0000000000000000
##001
##002
##003
##004
##005
##01
##02
##03
##04
##05
##06
##07
##08
##0817
##09
##1
##10
##100
##1000
##101
##102
##103
##104
##105
##106
##107
##108
##109
##11
##111
##1111
##112
##113
##114
##115
##116
##117
##118
##119
##12
##120
##121
##122
##123
##124
##125
##126
##127
##128
##129
##13
##130
##131
##132
##133
##134
##135
##136
##137
##138
##139
##14
##140
##141
##142
##143
##144
##145
##146
##147
##148
##149
##14W
##15
##150
##151
##152
##155
##156
##158
##159
##16
##160
##163
##17
##170
##175
##177
##18
##180
##19
##190
##191
##192
##195
##197
##199
##1E
##1s
##2
##20
##200
##2000
##2001
##2003
##2005
##2008
##201
##2010
##2012
##2014
##2015
##202
##203
##204
##205
##206
##207
##208
##209
##21
##22
##222
##223
##224
##227
##23
##235
##238
##24
##245
##25
##255
##256
##258
##26
##27
##270
##273
##275
##279
##28
##29
##293
##296
##2E
##2p
##2s
##3
##30
##300
##301
##302
##303
##304
##305
##307
##308
##309
##31
##32
##33
##336
##336W
##34
##35
##355
##36
##37
##370
##37−
##38
##39
##3D
##3E
##3d
##3p
##4
##40
##400
##401
##405
##41
##42
##43
##44
##45
##458
##46
##47
##48
##49
##4959
##4E
##5
##50
##500
##5007
##501
##502
##503
##505
##506
##508
##509
##51
##52
##53
##54
##55
##555
##55−
##56
##57
##58
##59
##5W
##6
##60
##600
##606
##61
##62
##63
##6300
##64
##65
##658
##66
##67
##68
##69
##6E
##7
##70
##71
##72
##73
##74
##75
##76
##77
##78
##79
##7E
##8
##80
##800
##81
##82
##83
##84
##85
##86
##87
##88
##89
##8E
##9
##90
##91
##914
##92
##93
##94
##95
##96
##97
##98
##99
##9E
##A
##A1
##AA
##AB
##ABILITY
##AC
##ACE
##ACH
##ACK
##ACS
##ACT
##ACTION
##AD
##AF
##AFS
##AG
##AH
##AI
##AK
##AL
##ALE
##ALFA
##ALL
##ALP
##ALS
##AM
##AME
##AMES
##AMP
##AMS
##AN
##ANCE
##AND
##ANE
##ANES
##ANG
##ANS
##ANT
##ANTI
##AO
##AP
##APE
##APH
##APP
##AR
##ARA
##ARC
##ARCH
##ARD
##ARE
##ARES
##ARI
##ARK
##ARS
##ART
##ARY
##AS
##ASA
##ASE
##ASH
##ASI
##ASP
##ASS
##AST
##AT
##ATA
##ATE
##ATED
##ATES
##ATH
##ATING
##ATION
##ATIONAL
##ATIONS
##ATIVE
##ATURE
##AU
##AV
##AVE
##AVEL
##AW
##AX
##AY
##Al
##Ap
##Ar
##As
##B
##BA
##BAL
##BB
##BC
##BE
##BER
##BERG
##BG
##BH
##BHs
##BI
##BJ
##BL
##BLE
##BN
##BO
##BOSS
##BP
##BR
##BS
##BUR
##BW
##BY
##Be
##Br
##Bs
##C
##C03
##C1
##C2
##CA
##CAM
##CAT
##CC
##CD
##CDM
##CE
##CES
##CF
##CH
##CHE
##CHI
##CI
##CK
##CL
##CM
##CMT
##CN
##CO
##COS
##COSMOS
##CP
##CR
##CS
##CT
##CTION
##CTR
##CU
##CUL
##CV
##CW
##CWCT
##CX
##CZ
##Ca
##Cam
##Cl
##Co
##Cr
##Cs
##Cube
##D
##D0
##D1
##D2
##D3
##D3D
##D6
##D7
##D8
##D9
##DA
##DAR
##DARN
##DAS
##DB
##DC
##DD
##DE
##DEF
##DEN
##DER
##DF
##DFs
##DI
##DL
##DM
##DO
##DP
##DR
##DS
##DW
##Ds
##E
##EA
##EB
##EC
##ECK
##ECS
##ECT
##ECTION
##ECTS
##ED
##EE
##EEN
##EF
##EG
##EL
##ELA
##ELD
##ELL
##ELLAR
##ELS
##ELT
##EM
##EMP
##EN
##ENA
##ENC
##ENCE
##ENCY
##END
##ENDI
##ENDIX
##ENE
##ENG
##ENGER
##ENGTH
##ENN
##ENS
##ENSITY
##ENT
##ENTIAL
##ENTS
##EO
##EP
##EP2
##ER
##ERA
##ERC
##ERE
##ERG
##ERICAL
##ERM
##ERN
##ERS
##ERSON
##ERT
##ERV
##ES
##ESS
##EST
##ET
##ETER
##ETERS
##ETR
##ETT
##EV
##EW
##EX
##Es
##E−
##F
##F1
##F2
##FA
##FC
##FE
##FER
##FERENC
##FF
##FGL
##FI
##FIT
##FL
##FM
##FOR
##FORM
##FR
##FS
##FT
##Fad
##Fe
##Fs
##G
##GA
##GAL
##GAN
##GB
##GC
##GCM
##GCs
##GD
##GE
##GEE
##GEM
##GEN
##GER
##GES
##GET
##GH
##GHz
##GL
##GM
##GO
##GPa
##GR
##GRA
##GRI
##GRO
##GRS
##GS
##GT
##GTs
##Ga
##Ge
##GeV
##Graphic
##Gs
##H
##H2
##HA
##HAN
##HD
##HE
##HER
##HH
##HI
##HK
##HL
##HM
##HN
##HO
##HR
##HRR
##HS
##HT
##He
##Hf
##Hs
##Hz
##I
##IA
##IAL
##IAN
##IB
##IC
##ICA
##ICAL
##ICATION
##ICATIONS
##ICE
##ICH
##ICI
##ICK
##ICS
##ID
##IDE
##IDs
##IE
##IER
##IES
##IF
##IFI
##IFT
##IG
##IGH
##IGHT
##IGO
##II
##III
##IIII
##IK
##IL
##ILE
##ILITY
##ILL
##ILLI
##IM
##IMA
##IME
##IMOS
##IMP
##IN
##INA
##IND
##INE
##ING
##INGS
##INO
##INS
##INSON
##INT
##IO
##IOD
##ION
##IONS
##IP
##IR
##IRE
##IRG
##IRGs
##IRIS
##IRO
##IRS
##IRST
##IRT
##IS
##ISA
##ISE
##ISH
##ISIS
##ISISISIS
##ISM
##ISON
##ISS
##IST
##ISTA
##IT
##ITA
##ITAS
##ITE
##ITES
##ITH
##ITIES
##ITION
##ITS
##ITT
##ITU
##ITUDE
##ITY
##ITZ
##IUM
##IV
##IVE
##IVITY
##IW
##IX
##IZ
##IZATION
##Ia
##In
##Is
##J
##JD
##JJ
##Jy
##K
##KA
##KAL
##KB
##KE
##KEN
##KER
##KH
##KI
##KIN
##KO
##KP
##KS
##KY
##L
##LA
##LAB
##LAG
##LAND
##LAS
##LASS
##LE
##LED
##LER
##LES
##LET
##LEX
##LEY
##LF
##LFs
##LI
##LIN
##LING
##LL
##LM
##LO
##LP
##LR
##LS
##LSON
##LT
##LUS
##LY
##Len
##LenS
##Li
##Ls
##M
##M1
##M2
##MA
##MAG
##MAGNET
##MAN
##MANN
##MAP
##MASS
##MB
##MC
##ME
##MENT
##MENTS
##MER
##MF
##MHD
##MHz
##MIS
##ML
##MM
##MO
##MOS
##MP
##MR
##MS
##MW
##MWF
##Ma
##MeV
##Mg
##Mn
##Mpc
##Ms
##Myr
##N
##N2
##NA
##NAL
##NC
##ND
##NE
##NER
##NET
##NF
##NGA
##NH
##NI
##NM
##NN
##NNNN
##NNNNNNNN
##NO
##NOW
##NOWLED
##NP
##NR
##NS
##NT
##Na
##Nd
##Ne
##Net
##Ni
##Ns
##O
##O2
##OA
##OB
##OC
##OCH
##OCK
##OD
##ODS
##ODUCTION
##OE
##OF
##OFF
##OG
##OH
##OK
##OL
##OLD
##OLOG
##OLOGICAL
##OLOGY
##OLUTION
##OM
##OMETR
##ON
##OND
##ONE
##ONES
##ONG
##ONI
##ONS
##OO
##OOH
##OOK
##OOO
##OOOO
##OP
##OR
##ORD
##ORE
##ORK
##ORM
##ORP
##ORS
##ORT
##ORY
##OS
##OSAT
##OSC
##OSE
##OSIT
##OST
##OT
##OTO
##OTT
##OU
##OV
##OVA
##OW
##OWS
##Os
##P
##P1
##P2
##PA
##PC
##PCF
##PE
##PER
##PEX
##PH
##PHER
##PHERE
##PHERIC
##PHOT
##PHYS
##PI
##PL
##PLE
##PM
##PN
##PO
##PP
##PR
##PS
##PSE
##PT
##PTF
##Pa
##Pb
##Pher
##Ps
##Q
##QS
##QU
##Qs
##Qu
##R
##R2
##RA
##RAN
##RC
##RE
##REE
##REEP
##RES
##RF
##RG
##RI
##RIS
##RM
##RO
##ROP
##ROR
##RP
##RR
##RS
##RSI
##RT
##Ra
##Ro
##Rs
##S
##S1
##S2
##SA
##SAT
##SAX
##SC
##SE
##SF
##SFR
##SH
##SI
##SM
##SO
##SON
##SOR
##SOs
##SP
##SPEC
##SR
##SS
##SSI
##SSION
##SSM
##SSN
##SSON
##ST
##STAR
##STE
##STEIN
##STR
##SU
##SY
##SZ
##Sat
##Si
##SiO
##Spec
##Sr
##Ss
##St
##T
##T2
##TA
##TD
##TE
##TEC
##TED
##TEM
##TER
##TF
##TH
##THER
##TI
##TIC
##TIES
##TIN
##TION
##TIS
##TM
##TN
##TO
##TON
##TR
##TRIB
##TRM
##TS
##TSs
##TT
##TZ
##Te
##Th
##The
##This
##Ti
##Ts
##U
##UAL
##UB
##UBA
##UC
##UCT
##UCTION
##UD
##UDY
##UE
##UES
##UG
##UL
##ULAR
##ULL
##ULT
##UM
##UN
##UND
##UNG
##UNT
##UP
##UR
##URB
##URE
##URES
##URON
##US
##USE
##UST
##UT
##UTH
##UTION
##UTIONS
##UU
##UV
##Us
##V
##VA
##VD
##VE
##VEL
##VEN
##VER
##VI
##VIS
##VO
##VS
##VV
##VZ
##Vs
##W
##WA
##WB
##WD
##WE
##WEEN
##WISE
##WM
##WN
##WO
##WP
##WS
##WW
##WWWW
##We
##Witt
##Ws
##X
##XB
##XBs
##XR
##XS
##XX
##Xe
##Xiv
##Y
##YA
##YER
##YL
##YM
##YN
##YNAM
##YS
##YT
##YY
##Z
##ZA
##ZE
##a
##aa
##ab
##aba
##abad
##abase
##abases
##abatic
##abe
##abhan
##abil
##abilistic
##abilities
##ability
##able
##ables
##ably
##abor
##aboration
##abric
##abs
##absorbed
##absorption
##abund
##ac
##aca
##acal
##acc
##acci
##ace
##acecraft
##aced
##acement
##acent
##aceous
##acer
##aces
##acet
##acey
##ach
##ache
##ached
##achent
##acher
##aches
##achi
##achian
##achie
##aching
##achment
##achs
##acht
##achus
##achusetts
##achy
##acial
##acian
##acies
##acing
##acite
##acities
##acity
##ack
##acker
##ackett
##acki
##acking
##acks
##aco
##acock
##acon
##acoustic
##acs
##act
##acted
##acter
##actic
##acting
##action
##actions
##active
##actocentric
##acts
##acu
##acular
##acuum
##acy
##ad
##ada
##adal
##aday
##adays
##addi
##ade
##adec
##aded
##adeh
##adel
##adequ
##ades
##adget
##adh
##adi
##adia
##adiabatic
##adian
##adily
##ading
##adir
##adis
##adium
##ado
##ador
##ados
##ads
##adsley
##adsleyite
##adus
##advant
##ady
##adze
##ae
##aeh
##ael
##aeus
##af
##aff
##affe
##afic
##after
##ag
##aga
##agan
##agawa
##age
##aged
##agen
##ager
##ages
##agger
##agh
##aghan
##agher
##agi
##agic
##aging
##agle
##aglia
##agn
##agne
##agner
##agneti
##agnetic
##agnetism
##agnetized
##ago
##agon
##agonal
##agons
##agos
##agraph
##agraphic
##agu
##aguchi
##ah
##ahara
##ahl
##ahn
##ahr
##ahue
##ahy
##ai
##aid
##aign
##ail
##ailability
##ailable
##aille
##ails
##aim
##ain
##aine
##ained
##ainen
##aines
##aining
##ains
##aint
##air
##aire
##aired
##airs
##ais
##ait
##aiting
##aitre
##aj
##ajan
##ajek
##ajian
##ajima
##ajor
##ak
##aka
##akas
##akawa
##ake
##aked
##aken
##aker
##akers
##akes
##akh
##aki
##aking
##akis
##akos
##akov
##aks
##aksh
##aku
##akura
##al
##ala
##alactic
##aland
##alas
##alate
##alax
##alay
##alc
##ald
##ale
##aled
##ales
##alez
##alg
##ali
##alic
##alid
##aline
##aling
##alis
##alistic
##alite
##alities
##ality
##alk
##all
##alla
##allas
##allel
##alli
##alling
##allow
##ally
##alo
##alog
##als
##alse
##alsgaard
##alski
##alt
##alth
##alu
##aluable
##alue
##alues
##aly
##alys
##alyses
##alysis
##am
##ama
##aman
##amara
##amb
##ambigu
##ambrian
##ame
##ament
##amental
##aments
##amer
##amera
##ameras
##ames
##amet
##ameter
##ami
##amic
##amide
##amil
##amilton
##amin
##aminated
##amination
##amine
##amir
##amis
##amm
##amma
##amon
##amori
##amorph
##amoto
##amp
##ampaign
##amped
##ampl
##ample
##ampled
##amples
##ampling
##amps
##ams
##amura
##amy
##an
##ana
##anal
##analysis
##anas
##anc
##ancay
##ance
##anced
##ances
##anche
##anched
##anches
##anchez
##ancies
##ancing
##anck
##ancy
##and
##anda
##andard
##ande
##andem
##anden
##ander
##andering
##andez
##andid
##anding
##andom
##andra
##andro
##ands
##ane
##anek
##anel
##anelli
##anen
##anenko
##aneous
##anes
##anese
##anet
##anetary
##aney
##ang
##anganese
##ange
##anged
##anger
##anges
##anging
##angle
##angs
##ani
##anian
##anic
##anine
##anite
##ank
##anka
##anke
##anki
##anks
##ankton
##ann
##anna
##annap
##anned
##annel
##anner
##anning
##annon
##annual
##ano
##anol
##anov
##anova
##ans
##ansen
##ansion
##anski
##ansky
##anson
##ansson
##ant
##anta
##antation
##ante
##anted
##anth
##anti
##antle
##antly
##antom
##anton
##ants
##antum
##antz
##any
##anz
##ao
##aotic
##ap
##apagos
##apause
##ape
##aper
##apes
##aph
##apid
##apor
##aporation
##aport
##app
##appa
##apped
##apping
##aps
##apse
##apsed
##apsh
##apsing
##apsis
##apunov
##aque
##ar
##ara
##arajan
##arallel
##aran
##arant
##arb
##arbon
##arbonate
##arc
##arca
##arch
##arching
##arcos
##arcsec
##arcsecond
##arctic
##ard
##arde
##arded
##ardi
##arding
##ardment
##ardo
##ards
##ardt
##ardy
##are
##ared
##arelli
##aren
##arency
##arent
##arents
##areous
##ares
##arest
##aret
##arev
##arez
##arg
##arge
##arged
##arges
##argeting
##arging
##argle
##ari
##aria
##arian
##arias
##ariate
##aries
##arik
##arily
##arine
##aring
##ario
##aris
##arithm
##arithms
##arities
##arity
##arium
##arius
##ark
##arks
##arm
##arn
##aro
##around
##arov
##arp
##arr
##arri
##arriaga
##arro
##arrow
##ars
##arse
##arsec
##arser
##arsis
##arski
##arsky
##arst
##art
##arted
##arth
##arthy
##article
##articles
##artition
##artment
##artner
##arts
##artz
##aru
##ary
##arying
##arz
##as
##asa
##asaki
##asawa
##asc
##asca
##asch
##asco
##ase
##ased
##aseous
##aser
##ases
##ash
##ashi
##ashima
##ashita
##asi
##asil
##asim
##asing
##asinger
##ask
##aska
##askell
##asm
##asma
##ason
##asonal
##asons
##asp
##ass
##assa
##asse
##assed
##assen
##asser
##asses
##assi
##assic
##assif
##assing
##assium
##assive
##assively
##asso
##asson
##ast
##asted
##aster
##astern
##astic
##astically
##asting
##asto
##aston
##astron
##asts
##at
##ata
##atable
##atch
##atches
##ate
##ated
##ately
##aten
##ateness
##ater
##ateral
##aterial
##atern
##aternary
##aterrestrial
##aters
##ates
##atever
##ath
##athan
##ather
##athered
##athi
##athiou
##athrust
##aths
##ati
##atibility
##atible
##atic
##atil
##atile
##atin
##ating
##atini
##atinum
##ation
##ational
##ationary
##ations
##atis
##atisf
##atism
##atit
##atite
##atites
##atitic
##atitude
##atitudes
##atitudinal
##ativ
##ative
##atively
##atives
##ativistic
##ativity
##atized
##atm
##ato
##atoire
##atom
##atomic
##aton
##ator
##atorial
##atoric
##atories
##ators
##atory
##atos
##atov
##atra
##atron
##ats
##atsu
##att
##atten
##atter
##attern
##atterson
##atti
##atto
##atton
##aturated
##aturation
##ature
##atures
##atus
##aty
##atz
##au
##auc
##aud
##auea
##auer
##aug
##augh
##aughan
##aughlin
##aught
##ault
##aun
##aus
##ausage
##ause
##aut
##auti
##autics
##auts
##aux
##av
##ava
##avage
##aval
##ave
##aved
##avelength
##aver
##aves
##avi
##avin
##aving
##avor
##aw
##awa
##awater
##away
##awn
##awson
##ax
##axed
##axial
##axis
##axton
##ay
##aya
##ayama
##ayan
##ayas
##ayashi
##aye
##ayed
##ayer
##ays
##az
##azaki
##azimuth
##azin
##azite
##azov
##azz
##azzi
##azzo
##b
##ba
##bach
##back
##bal
##ball
##ban
##band
##bands
##bank
##bar
##bard
##bas
##bate
##bauer
##baum
##baz
##bb
##be
##beam
##bean
##beck
##bed
##bedded
##bein
##beiner
##beit
##bel
##bell
##ben
##ber
##beration
##berg
##berger
##berl
##bers
##bert
##berts
##bes
##bet
##bg
##bi
##bic
##bid
##bilities
##bility
##bin
##binary
##bing
##bins
##bit
##bite
##bl
##ble
##bled
##blende
##bles
##bling
##blom
##bly
##bo
##board
##bodies
##body
##bon
##bone
##bons
##book
##bor
##born
##borne
##bound
##bour
##bow
##box
##br
##bra
##brand
##bras
##bre
##brevi
##brid
##bright
##bro
##brock
##bs
##bsite
##bu
##bur
##burg
##burgh
##burn
##burst
##bursting
##bursts
##bury
##bus
##by
##bye
##bys
##byshev
##c
##ca
##cal
##cale
##call
##cam
##can
##car
##carus
##cast
##castle
##cat
##cc
##ccentric
##ce
##cean
##ced
##cedure
##ceed
##cel
##celand
##cence
##cent
##centric
##cep
##cept
##cepted
##cepti
##ception
##ceptions
##cepts
##ces
##cess
##cessed
##cessible
##cessing
##cession
##ch
##cha
##change
##char
##chard
##che
##ched
##chek
##chel
##chell
##chelle
##chem
##chemical
##chen
##chenko
##cher
##chers
##ches
##chet
##chi
##chia
##child
##chin
##ching
##chini
##chio
##chlor
##chmann
##cho
##chond
##chron
##chter
##chuk
##chw
##ci
##cia
##cil
##cing
##cio
##ck
##cke
##cl
##clockwise
##cloud
##clu
##clump
##clusive
##cm
##co
##cock
##col
##com
##coming
##comings
##comp
##compar
##comparison
##con
##coni
##continent
##cooling
##cope
##cor
##cos
##cr
##craft
##cs
##ct
##cul
##culating
##culation
##cur
##current
##cury
##cut
##cy
##cz
##czak
##czynski
##d
##da
##dahl
##dal
##dale
##dam
##dard
##day
##days
##dc
##dd
##de
##ded
##deg
##dehy
##dehyde
##dell
##den
##dened
##dening
##der
##ders
##des
##det
##df
##dh
##di
##dian
##die
##din
##ding
##dinger
##dington
##dis
##dition
##ditions
##dle
##do
##dom
##don
##dor
##down
##dr
##ds
##dt
##duc
##ducation
##duce
##duction
##dy
##dynam
##dzi
##e
##eV
##ea
##ead
##eady
##ean
##ear
##earch
##eared
##earing
##ears
##eas
##ease
##eau
##eav
##eb
##ec
##eca
##ecadal
##ecchio
##ece
##ecess
##ech
##echan
##echt
##eck
##ecker
##ecraft
##ect
##ectable
##ected
##ectic
##ecting
##ection
##ections
##ective
##ectively
##ectiveness
##ectives
##ectivity
##ector
##ectors
##ectric
##ectron
##ects
##ecu
##ecular
##ecules
##ecutive
##ed
##eda
##eder
##edi
##edman
##edom
##ee
##eed
##een
##eep
##eeper
##eeping
##ees
##ef
##eff
##effer
##effici
##efined
##eg
##ega
##egel
##eger
##eget
##egger
##egies
##egler
##ego
##egreen
##eh
##ei
##ein
##eismic
##ek
##eks
##el
##ela
##eland
##elastic
##eld
##eldovich
##ele
##elect
##electric
##electron
##electronic
##elength
##elens
##eleon
##eleothem
##eler
##eleration
##eles
##elesc
##elescope
##elescopes
##eleseismic
##eless
##elestial
##elet
##elets
##eley
##elf
##eli
##elice
##elier
##elihood
##elike
##elin
##eline
##elines
##eling
##ell
##ella
##ellae
##ellar
##ellation
##ellations
##elle
##elled
##ellem
##eller
##elles
##elli
##elling
##ellini
##ellite
##ellites
##ello
##ellow
##ellowship
##ells
##ellular
##elluric
##elly
##elman
##elmann
##elo
##eloc
##elocity
##elock
##els
##elsberg
##elsen
##elson
##elstein
##elt
##elve
##elves
##ely
##elynite
##em
##ema
##emaker
##eman
##emann
##emans
##ember
##embers
##eme
##emen
##emer
##emi
##emic
##emisp
##emp
##empl
##en
##ena
##enari
##enbach
##enberg
##enbrand
##enburg
##enc
##ence
##enced
##encer
##ences
##ench
##encies
##encil
##encing
##encl
##enclature
##ency
##end
##enda
##endar
##ende
##ended
##enden
##ender
##endez
##endices
##ending
##endip
##endix
##endre
##ends
##endy
##ene
##ened
##ener
##enerate
##energetic
##enes
##enesis
##eness
##enetic
##enez
##eng
##enged
##enger
##enging
##ength
##enh
##enhe
##enheimer
##eni
##ening
##enings
##enite
##enites
##enith
##enko
##enkov
##enn
##enna
##ennan
##ennes
##ennial
##ennium
##eno
##enov
##ens
##ensation
##ensch
##ense
##ensed
##ensen
##ensi
##ensile
##ensing
##ension
##ensis
##ensities
##ensity
##ensive
##ensky
##ensler
##enson
##ensor
##ensors
##enstein
##ensus
##ent
##enta
##ental
##entang
##ente
##ented
##enter
##enth
##enthal
##enti
##ential
##entially
##entiated
##entif
##entific
##entine
##enting
##ention
##entioned
##entist
##ently
##enton
##entric
##ents
##enty
##enum
##eny
##enz
##enzel
##enzie
##eo
##eod
##eor
##eors
##ep
##epe
##epend
##eper
##ept
##epti
##eption
##equ
##equilib
##equilibrium
##er
##era
##eral
##erate
##erature
##erc
##erden
##ere
##ereal
##ered
##erer
##eres
##erg
##erge
##erger
##ergy
##erial
##eries
##ering
##eris
##erisks
##erite
##erm
##erman
##ermann
##erme
##ermi
##ermined
##ermitian
##ermost
##ern
##erni
##ernible
##erning
##ero
##erobic
##eron
##eros
##eroy
##eroz
##erozoic
##err
##ers
##ersen
##ersic
##erson
##ert
##ertain
##erts
##erv
##ervation
##erville
##ervoir
##ery
##es
##esc
##escence
##escent
##esch
##escu
##ese
##esen
##esh
##esian
##esides
##esis
##esite
##esium
##ess
##essel
##essell
##ession
##essler
##essor
##est
##esta
##estal
##ested
##ester
##estern
##estim
##esting
##estone
##ests
##et
##eta
##etal
##etch
##ete
##eted
##eter
##eterm
##etermined
##eters
##eth
##ethe
##etheless
##ether
##ethite
##ethyl
##ethylene
##eti
##etic
##eties
##eting
##etite
##eto
##eton
##etric
##etry
##ets
##etson
##etsu
##ett
##etta
##ette
##etter
##etti
##etting
##etts
##etus
##ety
##etz
##eu
##ev
##eva
##eval
##event
##ever
##evic
##evitch
##ew
##eward
##ewicz
##ewise
##ewitt
##ework
##eworld
##eworthy
##ewski
##ex
##exc
##exp
##ext
##ey
##eyama
##eyer
##eys
##ez
##ezium
##f
##face
##faces
##fact
##factor
##facts
##fall
##fanov
##far
##fast
##fav
##fc
##fe
##fect
##feld
##fer
##ference
##ff
##ffer
##ffey
##ffici
##ffy
##fi
##field
##fields
##fig
##finder
##fine
##fit
##fits
##fitting
##fl
##flare
##flares
##flight
##flo
##floor
##flow
##flows
##flu
##fluid
##fly
##fo
##fold
##for
##ford
##fore
##form
##formal
##formation
##formed
##forms
##fort
##forth
##fortunately
##forward
##fract
##frame
##fre
##frequencies
##frequency
##fs
##ft
##ften
##fter
##fu
##ful
##fully
##function
##g
##ga
##gaard
##gado
##galactic
##gan
##gar
##garn
##garno
##gas
##gate
##gawa
##ge
##gean
##ged
##gel
##gen
##gence
##gent
##geometric
##ger
##gers
##gert
##ges
##gest
##get
##getic
##gets
##gett
##gg
##gh
##gher
##ght
##gi
##gie
##gin
##ging
##gino
##gl
##glacial
##glers
##glomer
##glow
##go
##going
##gor
##gory
##got
##gr
##greg
##gren
##grid
##ground
##group
##gs
##gu
##guer
##gy
##h
##ha
##hal
##ham
##han
##hane
##hannel
##haps
##har
##hard
##hardt
##harmonic
##hart
##has
##hat
##haus
##hauser
##haust
##haut
##hav
##he
##head
##heast
##heastern
##heat
##heated
##heath
##heating
##hed
##hedral
##heet
##heim
##hel
##helion
##hell
##hem
##hema
##hematic
##hematically
##heme
##hemisp
##hemispheric
##hemite
##hen
##hene
##heng
##henko
##her
##here
##hered
##heren
##herence
##herenkov
##herent
##heres
##hergot
##heric
##herical
##herically
##hers
##herty
##hertz
##herz
##hes
##heses
##hesis
##hest
##hester
##het
##hether
##hetic
##hetti
##heus
##hev
##hey
##hi
##hib
##hic
##high
##hill
##hing
##hip
##hire
##hko
##hl
##hlen
##hler
##hlin
##hlung
##hm
##hman
##hn
##hnen
##ho
##hock
##hoe
##hofer
##hoff
##hol
##hold
##hole
##holes
##holm
##holtz
##holz
##hood
##hoon
##horizon
##hot
##hotra
##hou
##house
##how
##hr
##ht
##hu
##huri
##hurst
##hus
##hy
##hyan
##hyd
##hydrite
##hyl
##hys
##i
##ia
##iable
##ial
##ially
##ian
##iana
##iang
##iani
##iano
##ians
##iant
##ianti
##iants
##iao
##iar
##ias
##iased
##iated
##iation
##ib
##iba
##iber
##ibility
##ible
##ibly
##ibo
##ibrated
##ibration
##ic
##ica
##ical
##ically
##icam
##ican
##icate
##icated
##icates
##ication
##ications
##icative
##icc
##ice
##icent
##iceous
##ices
##ich
##iche
##icher
##ichi
##ichlet
##icht
##ici
##icial
##icially
##icit
##icities
##icits
##icity
##ick
##icka
##icke
##ickel
##icki
##icky
##ico
##ics
##ict
##ictor
##icular
##icus
##icz
##id
##ida
##idal
##idan
##idation
##idden
##ide
##ided
##idel
##idelob
##iden
##idence
##idences
##ident
##idental
##identally
##identif
##identified
##idently
##ider
##iders
##ides
##idespread
##idge
##idhar
##idi
##idic
##idine
##iding
##idirectional
##idis
##idity
##idium
##idiurnal
##ido
##ids
##idth
##idual
##ie
##iec
##ieco
##ied
##ieder
##ief
##iel
##ield
##ien
##ience
##ient
##iently
##ients
##ieqn
##ier
##ierarch
##ieri
##iero
##iers
##ies
##iess
##iest
##iet
##ieu
##iev
##if
##ife
##ifer
##ifera
##iferous
##ifers
##iff
##iffe
##iffer
##iffusion
##ifi
##ific
##ifically
##ification
##ifications
##ified
##ifier
##ifiers
##ifies
##ifold
##iform
##ift
##ifted
##ifth
##ifting
##ifts
##ify
##ifying
##ig
##iga
##igan
##igar
##igation
##ige
##igen
##igenic
##igenous
##iger
##igg
##iggle
##iggs
##igh
##ighb
##ighed
##ight
##ighted
##ighter
##ighth
##ighting
##ights
##igible
##igl
##igm
##ign
##igned
##ignific
##ignificant
##ignment
##igny
##igo
##igrating
##igt
##igu
##iguchi
##ih
##ihara
##ihood
##ii
##ij
##ijer
##ijk
##ijs
##ik
##ika
##ikawa
##ike
##iken
##ikh
##iki
##ikonal
##ikov
##il
##ila
##ilar
##ilarities
##ilateral
##ilation
##ilations
##ild
##ilding
##ile
##iled
##iler
##iles
##iley
##ili
##iliary
##ilib
##ilibrated
##ilibrium
##ilic
##ilight
##ilinear
##iling
##ilit
##ilite
##ilites
##ilities
##ility
##ilization
##ilized
##ill
##illa
##illan
##illard
##illary
##ille
##illed
##illen
##iller
##illera
##illeux
##illi
##illing
##illo
##ills
##illy
##ilos
##ils
##ilst
##ilt
##iltered
##ily
##im
##ima
##imajor
##imal
##imally
##imals
##iman
##imation
##imb
##imbert
##ime
##imension
##imensional
##iment
##imentary
##iments
##imer
##imes
##imet
##imeter
##imeters
##imetre
##imetric
##imetry
##imi
##imin
##imination
##imir
##imm
##imodal
##imoto
##imp
##ims
##imum
##imura
##imuth
##in
##ina
##inafter
##inal
##inally
##inary
##ination
##inations
##inav
##inc
##ince
##inces
##ind
##inder
##inding
##indler
##ine
##inear
##ined
##inelli
##inement
##inen
##iner
##ineral
##ines
##inese
##inesq
##iness
##inet
##inf
##ing
##inga
##inger
##ingly
##ings
##ington
##ini
##inia
##inian
##inic
##inin
##ining
##inis
##inite
##initely
##inites
##inities
##inition
##inity
##ink
##inker
##inn
##inned
##inner
##inney
##inning
##innon
##ino
##inois
##inormal
##inos
##inov
##ins
##insic
##inska
##inski
##insky
##insley
##inson
##insula
##int
##inted
##integ
##inter
##interp
##intill
##inting
##intock
##ints
##intu
##inus
##io
##ioc
##iocene
##iocentric
##ioclase
##iod
##iol
##iolis
##ion
##ional
##ionally
##ione
##ioneer
##ioneering
##ioni
##ionic
##ionization
##ionized
##ions
##iop
##ior
##iors
##ios
##iot
##iotic
##ious
##iously
##ip
##ipel
##iper
##iph
##iphatic
##ipher
##ipient
##ipii
##ipit
##ipitation
##ipolar
##ipp
##ipped
##ipping
##ipple
##ips
##iqu
##ique
##iques
##ir
##ira
##irable
##iral
##iration
##irc
##ircon
##ircons
##ircular
##ird
##ire
##irect
##ired
##ires
##irez
##irical
##iring
##irm
##iro
##iron
##irst
##irth
##irty
##is
##isal
##isance
##isation
##isations
##isc
##iscan
##isch
##ische
##ischer
##iscid
##isco
##ise
##isec
##ised
##isely
##isen
##isenberg
##iser
##ises
##ish
##ished
##isher
##ishers
##ishes
##ishi
##ishing
##isi
##iside
##ising
##ision
##isis
##isk
##isler
##ism
##ismic
##isms
##ison
##isons
##isot
##isp
##ispect
##ispectra
##ispectrum
##isper
##iss
##issa
##issance
##issen
##isser
##issi
##issible
##ission
##issner
##isson
##ist
##ista
##istan
##istant
##istatic
##isted
##istent
##ister
##istered
##istic
##isting
##istingu
##istinguish
##istinguishable
##isto
##istocene
##iston
##istration
##istry
##ists
##isu
##it
##ita
##itable
##itably
##itage
##ital
##itan
##itance
##itation
##itational
##itations
##itatis
##itch
##itched
##itches
##ite
##itect
##ited
##itely
##iten
##iteness
##iter
##iters
##ites
##ith
##ithe
##ither
##ithermal
##itherto
##ithm
##ithms
##ithub
##iti
##itic
##itical
##itics
##ities
##iting
##ition
##itions
##itive
##itively
##itization
##itized
##ito
##iton
##itor
##itored
##itors
##itous
##itously
##itr
##itri
##itrification
##its
##itsch
##itsky
##itt
##itter
##ittle
##itude
##itudes
##itudinal
##ity
##itz
##itzer
##ium
##iunas
##ius
##iv
##ival
##ivalent
##ivan
##ivariate
##ive
##ived
##ively
##iven
##iver
##ivers
##ives
##iving
##ivity
##iw
##ix
##ixed
##ixel
##ixels
##ixing
##ixon
##iy
##iz
##izability
##izable
##ization
##izations
##ize
##ized
##izer
##izers
##izes
##izing
##izou
##izu
##izz
##izzo
##i¬
##j
##ja
##jak
##jan
##jar
##je
##ject
##jecta
##jected
##jecting
##jection
##jections
##jective
##jector
##jectories
##jectory
##jects
##jee
##jer
##jet
##jevic
##ji
##jiang
##jk
##jo
##joint
##jord
##js
##just
##k
##ka
##kal
##kan
##kar
##karni
##kaya
##ke
##keV
##ked
##kel
##keley
##ken
##kenstein
##ker
##kers
##kert
##kes
##key
##kg
##kh
##khar
##ki
##kian
##kiewicz
##kii
##kin
##kine
##king
##kins
##kinson
##kis
##kl
##km
##kms
##kn
##knife
##known
##ko
##koh
##kop
##kopf
##kov
##kova
##kovsky
##kowski
##kpc
##ks
##kt
##ky
##kyo
##l
##la
##lab
##lac
##lacial
##lag
##lam
##lan
##land
##landite
##lands
##lanet
##lar
##las
##lase
##lass
##lassical
##lassif
##lassified
##lastic
##late
##lated
##lation
##law
##lay
##layer
##ld
##ldt
##le
##lean
##lear
##led
##lee
##leg
##legre
##leigh
##lem
##lement
##lementary
##lementing
##lements
##len
##ler
##lers
##les
##less
##lessen
##lest
##let
##letin
##leton
##lets
##lett
##leum
##lev
##levich
##lew
##lex
##ley
##leys
##li
##lia
##lic
##lich
##lid
##lide
##lidean
##lides
##lie
##lied
##lier
##liers
##lies
##liest
##light
##lik
##like
##lim
##lin
##linary
##lind
##linder
##line
##linear
##linearities
##lines
##ling
##linger
##lings
##link
##linski
##linson
##lio
##lip
##lique
##lis
##lish
##lished
##lit
##lite
##ll
##lla
##ller
##lli
##llier
##llium
##llll
##llo
##lm
##ln
##lo
##load
##lob
##lock
##log
##logop
##logopite
##lomer
##lon
##long
##look
##lop
##lor
##lored
##los
##lot
##lov
##low
##lowski
##loy
##loying
##ls
##lu
##luence
##luent
##lumin
##luminal
##lump
##lund
##lung
##lus
##lust
##luster
##lusters
##lution
##lux
##ly
##lyc
##lying
##lys
##lysis
##lysmic
##lysses
##m
##ma
##maf
##mafic
##mafrost
##mag
##mair
##mal
##man
##mann
##mans
##map
##mar
##mark
##mas
##mass
##matic
##matically
##matism
##max
##maz
##mb
##mber
##mberg
##me
##meas
##med
##medi
##mediate
##mediately
##meier
##meister
##melt
##men
##menite
##ment
##mental
##mentation
##mented
##menting
##mentioned
##ments
##mer
##merc
##mes
##met
##metz
##mg
##mi
##mic
##mid
##midnight
##midt
##mill
##min
##ming
##ministration
##mis
##mission
##mit
##mite
##mith
##mitt
##mittance
##mitte
##mitted
##mittee
##mium
##ml
##mm
##mmet
##mmmm
##mo
##mock
##mog
##mol
##momentum
##mon
##mond
##monic
##mont
##monti
##more
##most
##mouth
##mp
##mph
##mpl
##ms
##msstrahlung
##muir
##mund
##my
##n
##nS
##na
##naissance
##nal
##nals
##nam
##nan
##nar
##nas
##nat
##naud
##nc
##nd
##nden
##nder
##nders
##ndes
##nds
##ne
##neath
##neau
##nected
##nection
##ned
##nedy
##neg
##negie
##neiss
##nel
##nell
##nelt
##neous
##ner
##ners
##nes
##ness
##nest
##net
##neut
##ney
##ng
##ngoing
##ni
##niak
##nick
##nier
##night
##nih
##nik
##nikov
##ning
##nis
##nite
##nition
##nium
##nm
##nn
##no
##non
##noon
##norm
##normal
##normally
##not
##note
##nov
##nova
##novae
##ns
##nt
##nton
##nts
##ntz
##nual
##nus
##ny
##o
##oa
##oan
##oard
##ob
##oba
##obacter
##obar
##obi
##obos
##obs
##oc
##ocal
##ocally
##ocarbon
##ocate
##ocated
##ocation
##ocations
##occ
##occul
##ocene
##ocent
##ocenter
##ocentric
##och
##oche
##ochem
##ochemical
##ochemistry
##ochim
##ochron
##ochthon
##ochthonous
##oci
##ociated
##ociation
##ociety
##ock
##ocki
##ocking
##ockwise
##oclase
##oclim
##oclin
##ocline
##oclinic
##ocor
##ocryst
##ocrystalline
##ocrysts
##oct
##octial
##ocy
##od
##oda
##odal
##ode
##oded
##odel
##oder
##odes
##odetic
##odi
##odiacal
##odic
##odies
##oding
##odior
##odium
##ods
##ody
##odymium
##odynam
##odynamic
##odynamics
##odyne
##oe
##oeck
##oeff
##oelastic
##oen
##oenix
##oenviron
##oes
##oester
##of
##off
##offel
##oft
##ofu
##og
##ogan
##oge
##ogee
##ogel
##ogen
##ogene
##ogenesis
##ogenic
##ogenous
##ogens
##ogether
##ogg
##ogi
##ogl
##ogn
##ogr
##ogram
##ograms
##ogran
##ograph
##ographic
##ographical
##ographically
##ographs
##ography
##ogu
##oh
##ohaline
##ohl
##ohn
##ohyd
##ohydrodynam
##oi
##oic
##oid
##oidal
##oids
##oij
##oil
##oing
##oint
##ointensity
##oints
##oir
##ois
##oise
##ok
##oka
##okande
##okawa
##oke
##oker
##okes
##okh
##oki
##oking
##okk
##okkum
##oku
##okurov
##ol
##ola
##olar
##olarized
##olate
##olated
##olates
##olating
##olation
##olations
##olc
##old
##oldi
##olds
##ole
##olecular
##oles
##olet
##olev
##oley
##olf
##oli
##olia
##olian
##olic
##olid
##olidated
##olidus
##olin
##oline
##oling
##olis
##olite
##olites
##olith
##olithic
##oliths
##olitic
##oliubov
##oll
##olla
##ollary
##olle
##ollo
##ollow
##olly
##olo
##olog
##ologic
##ological
##ologically
##ologie
##ologies
##ologists
##ology
##olor
##ols
##olsky
##olt
##oluble
##olute
##olution
##olve
##olved
##olves
##olving
##oly
##olysis
##om
##oma
##omag
##omagn
##omagnetic
##omagnetism
##omain
##omal
##omar
##omas
##omati
##omatic
##omb
##ombic
##ombination
##ombo
##ome
##omen
##oment
##omentum
##omer
##omers
##omes
##omet
##ometer
##ometers
##omething
##ometric
##ometrically
##ometry
##omew
##omez
##omi
##omial
##omic
##omin
##ominant
##oming
##omit
##omite
##omm
##ommod
##ommut
##omo
##omogene
##omogeneity
##omogeneous
##omon
##omorph
##omorphic
##omp
##ompact
##ompl
##omplet
##omponent
##oms
##on
##ona
##onal
##onald
##onally
##onance
##onant
##ond
##onda
##onde
##onder
##ondes
##ondition
##onds
##onduc
##one
##oned
##onen
##onent
##onents
##ones
##oney
##onf
##ong
##oni
##onia
##onian
##onic
##onical
##onically
##onis
##onite
##onites
##onitic
##onn
##onom
##onomic
##onomy
##onormal
##onov
##onova
##ons
##onse
##onses
##onsin
##onski
##onso
##onsolidated
##ont
##onuclear
##onv
##ony
##onym
##onymous
##oo
##ood
##ool
##oon
##oons
##oooo
##oot
##ooter
##ootes
##ooth
##oothed
##oother
##ooting
##ootstra
##op
##oparsec
##opause
##ope
##oped
##oper
##opers
##opes
##oph
##ophile
##ophistic
##ophy
##ophyll
##ophys
##ophysical
##ophysics
##opia
##opic
##opically
##oping
##opl
##oplan
##oplanet
##oplanets
##oplankton
##ople
##opole
##opotential
##opoul
##opoulos
##opro
##oproterozoic
##ops
##opsi
##opside
##opsided
##optic
##opy
##opyc
##opyrite
##opyrox
##opyroxene
##opyroxenes
##or
##ora
##orad
##oradi
##orado
##orage
##oral
##oration
##oratories
##oratory
##orb
##orbed
##orbit
##orbital
##ord
##ordance
##ordant
##order
##orders
##ordi
##ordial
##ordin
##ordination
##ording
##ords
##ore
##ored
##oreg
##oren
##orer
##ores
##orf
##org
##organ
##organic
##orge
##orh
##ori
##oric
##orient
##ories
##orily
##oring
##oris
##orite
##oriz
##orizon
##ork
##orld
##orm
##ormal
##orn
##orny
##oro
##orod
##orodov
##orot
##orotational
##orous
##orously
##orov
##orp
##orph
##orption
##orr
##orrected
##orrel
##orrelated
##orrelation
##orrelations
##ors
##orsch
##orses
##orseshoe
##orski
##orst
##ort
##ortant
##orte
##orted
##orter
##orth
##orthy
##orting
##ortion
##ortions
##ortium
##orton
##orts
##ortun
##ortunately
##orus
##ory
##os
##osa
##osal
##osc
##oscal
##oscalar
##oscale
##osch
##oscopic
##ose
##osed
##oseism
##oseismic
##oseismology
##osely
##osen
##oser
##oses
##osh
##osheath
##oshi
##osi
##osilic
##osilicate
##osing
##osis
##osit
##osite
##ositely
##osites
##ositic
##osities
##osition
##ositions
##osito
##ository
##osity
##osium
##osley
##osol
##osols
##oson
##osonde
##osondes
##osov
##osp
##ospace
##osph
##osphere
##ospheres
##ospheric
##ospherically
##ospin
##oss
##ossi
##ossible
##ossil
##ossils
##ost
##ostas
##ostasis
##ostat
##ostatic
##oster
##ostic
##osting
##ostra
##ostratig
##ostratigraphic
##ostratigraphy
##osure
##osy
##osynt
##osynthesis
##osynthetic
##osystem
##ot
##ota
##otail
##otal
##ote
##otect
##otectonic
##oted
##otely
##otemp
##otemporal
##otential
##otes
##oth
##othem
##other
##otherm
##othermal
##othermic
##oti
##otic
##oting
##otion
##otland
##oto
##otom
##otov
##otransp
##otranspiration
##otron
##otrophic
##otropic
##ots
##ott
##otta
##otte
##otted
##ottest
##otti
##otto
##ottom
##oturb
##otz
##otzky
##ou
##oub
##oubted
##oubtedly
##oud
##oue
##oug
##ough
##ought
##ouin
##oul
##oula
##ould
##oule
##oun
##ounce
##ounced
##ound
##ounds
##oung
##ount
##ountain
##ounted
##ounting
##ounts
##oupl
##ouple
##oupled
##ouples
##our
##oura
##ourable
##ourag
##ource
##ources
##oured
##ouri
##ournal
##ours
##ourt
##ous
##ouse
##ousins
##ously
##ouss
##oustic
##out
##outh
##outs
##oux
##ov
##ova
##oval
##ovani
##ove
##ovember
##over
##overed
##overing
##overn
##overy
##ovi
##ovian
##ovic
##ovich
##ovici
##ovician
##oville
##oving
##ovite
##ovsk
##ovski
##ovsky
##ovy
##ow
##owa
##owed
##ower
##owever
##owicz
##owing
##owitz
##owled
##owledg
##owledge
##own
##ows
##owski
##owsky
##ox
##oxic
##oxide
##oxy
##oxyl
##oxylic
##oy
##oya
##oyama
##oyle
##oys
##oz
##oza
##ozi
##ozoic
##p
##pa
##pack
##pan
##par
##parallel
##paramet
##parametric
##part
##particle
##pass
##pat
##pati
##patrick
##pb
##pc
##pe
##pec
##pect
##pective
##pectives
##pend
##pended
##pendicular
##penti
##per
##percent
##period
##periodic
##pern
##perturb
##perturbed
##perture
##ph
##pha
##phal
##phan
##phas
##phase
##pher
##pherd
##phot
##phy
##phys
##physical
##pi
##pin
##pine
##pite
##pl
##plan
##planar
##plane
##planetary
##plate
##ple
##ples
##plet
##plot
##plots
##plotted
##pm
##po
##point
##points
##pole
##port
##pp
##ppe
##pped
##pper
##ppi
##pping
##ppler
##ppm
##ppo
##pps
##pr
##pread
##print
##prising
##prisingly
##pro
##proton
##ps
##pt
##ption
##ptor
##pu
##pur
##put
##py
##q
##qn
##qu
##quake
##quakes
##quar
##quas
##que
##quencies
##quency
##queous
##ques
##quet
##quez
##qui
##quiring
##quis
##quisite
##quist
##qvist
##r
##r2
##ra
##rab
##rac
##races
##rack
##ract
##racted
##ractical
##racting
##raction
##ractions
##ractive
##ractor
##ractory
##racts
##rad
##radation
##rade
##raded
##rades
##radi
##rading
##rae
##rael
##raf
##raft
##rafts
##rag
##ragalactic
##raham
##rain
##rained
##raining
##rains
##rak
##ral
##rally
##ram
##rame
##ramm
##rams
##ran
##rance
##rand
##rane
##ranean
##ranes
##rang
##range
##rans
##ransp
##ranular
##rap
##raph
##raphic
##raphy
##rard
##rared
##raries
##rary
##ras
##rase
##rason
##rasonic
##rasound
##rast
##rastructure
##rat
##rate
##rated
##rateg
##rates
##rath
##rather
##rathermal
##ratic
##ratically
##rating
##ration
##rational
##rations
##rative
##rator
##rators
##ratum
##rav
##ravitational
##ravity
##raw
##ray
##rays
##rd
##re
##rea
##read
##ready
##ream
##reat
##reated
##rec
##reced
##recedented
##recht
##recipitation
##rect
##rected
##rection
##rectional
##red
##redic
##redict
##reduc
##ree
##reed
##reek
##reement
##reen
##rees
##ref
##refring
##reg
##regon
##regular
##rehen
##reich
##rel
##relativistic
##rell
##rels
##rem
##rema
##ren
##rence
##rences
##rend
##rene
##rens
##rent
##rep
##requ
##rer
##res
##rese
##resent
##resh
##reshold
##resolved
##resonant
##resp
##respective
##respond
##ress
##ressed
##ressibility
##ressible
##ressing
##ression
##ressions
##ressive
##ressively
##rest
##restrial
##ret
##retation
##rete
##reted
##reting
##retion
##rett
##retta
##rew
##rey
##reys
##rez
##rg
##rgensen
##rhen
##rho
##rhotite
##ri
##ria
##riad
##rial
##rian
##rib
##ribe
##ribed
##ributed
##ribution
##ric
##rical
##rically
##ricane
##rice
##rices
##rich
##riched
##rick
##rict
##rid
##ridge
##rie
##ried
##rief
##riel
##rient
##rier
##riers
##ries
##rig
##right
##rij
##rijver
##riker
##ril
##rill
##rim
##rime
##rin
##rine
##ring
##ringer
##rings
##rington
##rini
##rink
##rino
##rinos
##rint
##rinted
##rints
##rip
##ript
##ription
##riptions
##ripts
##ris
##rise
##rish
##rising
##rison
##rist
##rit
##rite
##rites
##ritic
##ritical
##riting
##ritt
##ritten
##rity
##ritz
##rium
##riv
##rix
##riz
##rization
##rized
##rizona
##rl
##rm
##rmann
##rme
##rn
##ro
##robe
##roc
##rocal
##rock
##rod
##roduc
##roduce
##roduced
##roducing
##roduction
##rodynam
##rog
##rogen
##rogram
##rograph
##rographic
##roid
##rol
##rolite
##roll
##rolog
##rology
##rom
##romagnetic
##romat
##romatic
##romet
##rometer
##ron
##rone
##rong
##ronic
##ronite
##ronom
##rons
##ront
##rook
##roozi
##rop
##rope
##ropes
##roph
##rophic
##rophot
##rophy
##rophys
##ropic
##ropical
##ropics
##ropies
##ropolar
##roportion
##ropri
##ropriate
##ropy
##ror
##roring
##rors
##ros
##rosc
##roscopic
##rose
##rosh
##rosp
##ross
##rost
##rot
##rotating
##rote
##rotons
##rotron
##rou
##rough
##rought
##round
##roup
##roupa
##rous
##rov
##rove
##row
##rowave
##rown
##rows
##rowth
##rowths
##rox
##roy
##rr
##rrrr
##rs
##rt
##ru
##ruary
##ruc
##rucite
##ruck
##ruct
##ructure
##rud
##rug
##ruh
##ruit
##rule
##rules
##rum
##rung
##rup
##rupt
##rupted
##ruption
##rus
##rust
##rustal
##rusting
##rutin
##ry
##rys
##ryst
##rystall
##rystalline
##s
##sa
##sal
##sat
##sation
##sc
##scale
##scatter
##scattered
##sch
##sche
##scher
##schild
##sci
##scill
##scured
##se
##sec
##sed
##see
##seen
##sef
##seg
##segrain
##seismic
##sem
##semb
##semble
##sembles
##sen
##sequ
##sequent
##sequently
##ser
##sers
##serv
##servation
##serve
##ses
##set
##sets
##seud
##seum
##sev
##sey
##sh
##shaw
##shine
##ship
##shitz
##shock
##shocked
##shop
##shore
##shovite
##shtein
##si
##sia
##sian
##sians
##sibility
##sible
##sibly
##sid
##side
##sidence
##sider
##sier
##sif
##sik
##silon
##sim
##simpl
##sin
##sing
##sion
##sions
##sip
##sis
##sition
##sium
##sius
##siv
##sive
##sively
##sivities
##sivity
##size
##sized
##sizing
##sk
##ska
##ski
##skii
##skir
##sky
##sl
##sler
##slip
##slope
##sm
##so
##soft
##son
##sonic
##sor
##sorbed
##sorption
##sov
##sp
##space
##spar
##spath
##spathic
##spec
##spect
##spectral
##spot
##spots
##sprung
##ss
##sson
##st
##sta
##stac
##stad
##stan
##stand
##standing
##star
##static
##station
##statite
##ste
##sted
##stedt
##stein
##stellar
##stem
##sten
##ster
##steresis
##sterite
##stit
##ston
##stone
##stones
##storm
##str
##stra
##stract
##stracts
##strahlung
##strained
##stream
##streaming
##strom
##strong
##struc
##struct
##structed
##struction
##structure
##sts
##su
##suing
##sum
##sun
##sure
##t
##ta
##tain
##tal
##tan
##tane
##taneous
##tas
##tation
##tations
##td
##te
##teb
##tech
##ted
##teen
##tein
##tek
##temp
##ten
##tenance
##teness
##tens
##ter
##tered
##terfly
##teri
##tering
##terior
##tern
##ternal
##ternally
##terozoic
##ters
##tes
##tesy
##tex
##th
##thal
##than
##the
##theless
##then
##ther
##therly
##therm
##thermal
##thermally
##thern
##thest
##thing
##thon
##though
##through
##ths
##thur
##ti
##tia
##tial
##tially
##tian
##tiary
##tible
##tic
##tical
##tically
##tice
##tices
##ticity
##ticle
##ticles
##tics
##ticular
##tidal
##tie
##tier
##ties
##tif
##tification
##tifications
##tified
##tifying
##tig
##til
##tile
##tiles
##till
##tim
##timate
##timately
##time
##timer
##times
##tin
##tinc
##tinction
##tine
##tinent
##tinental
##tineut
##ting
##tingu
##tini
##tino
##tinos
##tinu
##tion
##tional
##tions
##tious
##tis
##tish
##tit
##tite
##tites
##titial
##tition
##titious
##titude
##titution
##tium
##tiv
##tivated
##tivation
##tive
##tively
##tiveness
##tives
##tivities
##tivity
##tl
##tle
##tler
##tm
##tmor
##tmorill
##tmorillonite
##to
##tober
##ton
##tones
##toon
##tooth
##top
##tor
##tors
##tr
##tra
##tropic
##ts
##tsch
##tsev
##tsov
##tt
##tta
##ttp
##tu
##tur
##turb
##ture
##tures
##turing
##ty
##tz
##tze
##tzman
##u
##ua
##uage
##ual
##ually
##uan
##uary
##uate
##uated
##uation
##ub
##uba
##ubble
##ubbles
##ube
##ubes
##ubia
##uble
##ublic
##ubo
##ubov
##uc
##uca
##uccess
##uccessful
##ucci
##uce
##uced
##ucent
##uch
##ucher
##uchi
##uchus
##uchy
##ucial
##ucid
##ucity
##uck
##ucker
##uckerman
##ucle
##uclear
##uction
##uctu
##ucz
##ud
##uda
##udation
##ude
##uded
##uder
##udes
##udi
##udinal
##udinally
##udritz
##ue
##ued
##ueil
##uel
##uela
##uer
##ues
##uez
##uf
##ufact
##uff
##uffici
##ug
##uge
##ugita
##ui
##uir
##uit
##uits
##uj
##uk
##uka
##ukh
##uki
##ukov
##ul
##ula
##ulae
##ular
##ularities
##ulas
##ulate
##ulated
##ulates
##ulating
##ulation
##ulations
##ulator
##ule
##ulence
##ulent
##uler
##ules
##ulf
##ulfide
##uli
##ulic
##ulin
##ull
##uller
##ullies
##ullivan
##ully
##ulo
##ulose
##ulph
##ulse
##ulsion
##ulsive
##ult
##ultaneous
##ulted
##ulti
##ulting
##ultipl
##ults
##ultural
##ulture
##ulu
##ulum
##ulus
##uly
##um
##uma
##uman
##umann
##umar
##umation
##umb
##umber
##umbral
##ume
##umed
##umen
##umer
##umes
##umi
##umin
##uminescence
##uming
##uminous
##umm
##ummer
##umn
##ump
##umph
##umpolar
##umption
##umul
##un
##una
##unar
##unas
##unc
##unch
##unching
##unction
##unctions
##und
##under
##undred
##undum
##undy
##une
##ung
##unge
##ungen
##ungs
##ungsten
##unite
##unk
##unks
##unn
##uno
##unov
##uns
##unt
##uous
##up
##uper
##upp
##upta
##uption
##ur
##ura
##urable
##ural
##urally
##urance
##urated
##uration
##urations
##urb
##urbed
##urc
##urch
##ure
##ured
##urer
##ures
##urf
##urface
##urfaces
##urg
##uri
##urian
##uric
##uries
##uring
##uristic
##urities
##urity
##urm
##urn
##urnal
##urning
##uroral
##urs
##ursor
##urst
##ursting
##urt
##urth
##urther
##urus
##urvature
##ury
##us
##usa
##usc
##use
##used
##ush
##ushed
##ushes
##ushing
##usian
##using
##usion
##usive
##usk
##uson
##usp
##uss
##ussen
##ust
##uster
##usting
##ustion
##ustom
##ustral
##ustrial
##ustrine
##ut
##uta
##utable
##utani
##ute
##uted
##utely
##uter
##utes
##uth
##uther
##uti
##uting
##ution
##uto
##uts
##utsk
##utskie
##utt
##utta
##utter
##uttered
##utti
##uttle
##uture
##uty
##utz
##uv
##uvel
##uven
##uw
##ux
##uy
##uyama
##uz
##uzz
##v
##v2
##va
##vaal
##vable
##vae
##val
##valent
##vall
##vals
##van
##vanishing
##vant
##var
##vard
##vari
##variant
##vas
##vature
##ve
##vector
##ved
##vel
##veld
##velocity
##velop
##velope
##vely
##ven
##vent
##ver
##vers
##versal
##verse
##versely
##versi
##versible
##versities
##versity
##versy
##vert
##ves
##vest
##vestig
##vet
##vey
##vez
##vezic
##vi
##vial
##vially
##vic
##vich
##vie
##vier
##view
##vik
##vili
##ville
##vin
##vine
##ving
##violet
##vious
##vir
##viron
##vis
##vised
##vist
##vities
##vity
##vive
##vn
##vo
##vol
##vs
##w
##wa
##wal
##wald
##wall
##wamy
##wan
##wana
##war
##ward
##wards
##ware
##warf
##warm
##wart
##water
##waters
##wave
##wavelength
##way
##ways
##we
##weak
##web
##ween
##weg
##wegian
##weight
##wek
##well
##welling
##wellings
##wen
##wens
##went
##wer
##wers
##west
##western
##wey
##wh
##where
##which
##while
##wich
##wick
##wide
##width
##wig
##wijk
##win
##wind
##wing
##wise
##with
##withstanding
##wn
##wo
##wood
##woodite
##work
##worth
##ws
##wt
##ww
##x
##x10
##xim
##xl
##xt
##xtractor
##xx
##y
##ya
##yaev
##yama
##yan
##yb
##yc
##ycl
##ycle
##yclic
##yd
##yder
##ye
##year
##years
##yen
##yer
##yes
##yg
##ygen
##ygens
##yi
##ying
##yk
##yl
##yle
##ylene
##ylvan
##ym
##ymmet
##ymmetric
##ymmetry
##ymp
##ympto
##yn
##ynam
##ynch
##ynchron
##ynchronous
##ynchrotron
##yne
##ynes
##ynet
##yon
##yp
##ype
##ypes
##ypical
##ypsum
##ypt
##yr
##yre
##yright
##yrite
##yro
##yrox
##yroxene
##ys
##yscale
##ysen
##ysis
##yson
##yssal
##ystem
##yt
##yth
##z
##za
##zak
##zaku
##zan
##zar
##zaros
##zation
##zations
##zburg
##ze
##zed
##zek
##zel
##zen
##zens
##zer
##zero
##zes
##zetti
##zh
##zi
##zing
##zinger
##zner
##zo
##zon
##zone
##zt
##zual
##zy
##zyn
##zynski
##zz
##zzi
##zzle
##zzo
##¢
##£
##¤
##¥
##¦
##¨
##©
##ª
##¬
##®
##¯
##°
##°C
##°E
##°K
##°N
##°S
##°W
##±
##±0
##±1
##±2
##²
##³
##´
##µ
##¹
##º
##¼
##½
##Æ
##Ð
##×
##×10
##Ø
##Þ
##ß
##æ
##ð
##÷
##ø
##þ
##Đ
##đ
##ħ
##ı
##Ł
##ł
##ŋ
##Œ
##œ
##ƒ
##Ɵ
##ǁ
##ǃ
##ɑ
##ɛ
##ɡ
##ɪ
##ɳ
##ɸ
##ɹ
##ʃ
##ʋ
##ʘ
##ʹ
##ʺ
##ʻ
##ʼ
##ʿ
##ˆ
##ˇ
##ˈ
##ˊ
##ː
##˗
##˘
##˙
##˚
##˜
##˦
##ˮ
##΄
##Α
##Β
##Γ
##Δ
##Ε
##Ζ
##Η
##Θ
##Ι
##Κ
##Λ
##Μ
##Ν
##Ξ
##Ο
##Π
##Ρ
##Σ
##Τ
##Υ
##Φ
##Χ
##Ψ
##Ω
##α
##β
##γ
##δ
##ε
##ζ
##η
##θ
##ι
##κ
##λ
##μ
##ν
##ξ
##ο
##π
##ρ
##ς
##σ
##τ
##υ
##φ
##χ
##ψ
##ω
##ϑ
##ϕ
##ϖ
##ϝ
##Ϭ
##ϱ
##Ͻ
##А
##В
##Г
##Д
##Е
##З
##И
##К
##Л
##М
##Н
##О
##П
##Р
##С
##Т
##У
##Ф
##Х
##Ш
##Ы
##Ь
##Я
##а
##б
##в
##г
##д
##е
##ж
##з
##и
##к
##л
##м
##н
##о
##п
##р
##с
##т
##у
##ф
##ц
##ч
##ш
##щ
##ы
##ь
##э
##ю
##я
##є
##і
##ћ
##Ѳ
##ѳ
##ҫ
##ө
##ԉ
##א
##ر
##ط
##ߕ
##ߚ
##ߝ
##ᄊ
##ᅧ
##ᅯ
##ᆪ
##ᆰ
##ᆽ
##ᐅ
##ᒥ
##ᔭ
##ᖅ
##⁄
##⁄2
##⁄4
##₁
##₂
##₃
##€
##⃞
##ℊ
##ℋ
##ℏ
##ℐ
##ℒ
##ℓ
##℘
##ℜ
##™
##ℳ
##ℵ
##⅓
##←
##↑
##→
##↓
##↔
##↗
##↘
##↞
##↦
##↪
##↷
##⇀
##⇂
##⇄
##⇆
##⇋
##⇌
##⇒
##⇓
##⇔
##⇝
##∀
##∂
##∅
##∆
##∇
##∈
##∊
##∋
##∏
##∑
##−
##−0
##−00
##−03
##−05
##−1
##−2
##−20
##−24
##−29
##−3
##−4
##−5
##−6
##−7
##∓
##∕
##∖
##∗
##∘
##∙
##√
##∝
##∞
##∠
##∡
##∢
##∣
##∥
##∧
##∨
##∩
##∪
##∫
##∮
##∳
##∶
##∷
##∼
##∽
##≂
##≃
##≅
##≈
##≊
##≌
##≍
##≐
##≔
##≕
##≜
##≟
##≡
##≤
##≥
##≦
##≧
##≪
##≫
##≲
##≳
##≶
##≷
##≺
##≻
##≼
##≽
##≿
##⊂
##⊃
##⊆
##⊇
##⊎
##⊑
##⊓
##⊔
##⊕
##⊖
##⊗
##⊘
##⊙
##⊚
##⊛
##⊢
##⊣
##⊥
##⊸
##⊺
##⊻
##⋀
##⋃
##⋅
##⋆
##⋇
##⋉
##⋊
##⋋
##⋍
##⋖
##⋙
##⋜
##⋦
##⋨
##⋩
##⋯
##⌃
##⌝
##⌟
##⍺
##⎕
##⎸
##␣
##─
##│
##┴
##═
##║
##▒
##■
##□
##▪
##△
##▴
##▵
##▷
##▹
##▼
##▽
##▿
##◁
##◉
##○
##●
##◦
##◯
##◻
##◼
##★
##☆
##☉
##☐
##♀
##♂
##♣
##♦
##♭
##♮
##♯
##✓
##✕
##✗
##✘
##✟
##✻
##➔
##⟂
##⟶
##⟷
##⟹
##⟺
##⦶
##⧫
##⧵
##⧸
##⧹
##⨀
##⨂
##⨇
##⨍
##⨯
##⨼
##⩲
##⩽
##⩾
##⪅
##⪆
##⪉
##⪊
##⪌
##⪝
##⪡
##⪢
##⪭
##⫽
##⿢
##⿨
##〳
##く
##さ
##す
##ち
##の
##ふ
##や
##ら
##ん
##キ
##チ
##ツ
##ト
##ハ
##フ
##モ
##リ
##ワ
##ヲ
##Ꙩ
##ﬃ
##𝒨
##𝒩
##𝒪
##𝒴
##𝓁
##𝔩
##𝔲
$
%
&
'
(
)
*
+
,
-
.
/
0
00
000
0000
00000
000000
0000000
0001
0002
0003
0004
0005
0006
0007
0008
0009
001
0010
0011
0012
0013
0014
0015
0016
0017
0018
0019
002
0020
0022
0024
0025
003
0032
0035
004
005
006
007
008
009
00E
01
010
0100
011
012
013
014
015
016
017
018
019
02
020
0200
021
022
023
0235
024
0240
025
026
027
0273
028
029
03
030
0300
031
032
033
034
035
036
037
038
039
04
040
0400
041
042
043
044
0440
045
046
047
048
049
05
050
0500
051
052
053
054
055
056
057
058
059
06
060
0600
061
062
063
064
065
066
067
068
069
07
070
0700
071
072
073
074
075
076
077
078
079
08
080
0800
081
082
083
084
085
086
087
088
089
09
090
0900
091
092
093
094
095
096
097
098
099
0E
0°
0°C
1
10
100
1000
10000
1001
1005
1006
100°
100°C
101
1010
1011
1012
1013
1014
1015
1016
1019
102
1020
10216
1023
1024
1025
1029
103
1030
1035
104
1040
1048
105
1050
1052
106
1068
107
108
1080
109
10E
10a
10b
10m
10s
10th
10°
11
110
1100
1103
111
1111
112
113
1130
114
1140
115
1150
116
117
1177
118
119
11a
11b
12
120
1200
120°
121
1214
1216
122
123
1230
1235
124
1240
125
1250
126
1260
127
1275
128
1280
129
12a
12b
12°
13
130
1300
1304
131
132
133
1330
1333
134
135
1350
136
1365
137
138
139
1399
13E
13°
14
140
1400
1407
141
1415
142
1420
1425
143
144
145
1450
146
147
148
149
14°
15
150
1500
150°
151
1510
152
1520
153
154
155
1550
156
157
158
159
15°
16
160
1600
161
1612
162
163
1630
164
1640
165
1650
166
1665
1667
167
168
169
16th
17
170
1700
171
172
1720
173
174
175
1750
176
177
178
179
18
180
1800
180°
181
182
1820
183
1830
184
185
1850
186
187
188
189
1897
189733
189733b
18°
19
190
1900
1908
1909
191
1910
1915
1916
192
1920
1924
1925
1926
1928
1929
193
1930
1931
1932
1933
1934
1935
1936
1937
1938
1939
194
1940
1941
1942
1943
1944
1945
1946
1947
1948
1949
195
1950
1951
1952
1953
1954
1955
1956
1957
1958
1959
196
1960
1960s
1961
1962
1963
1964
1965
1966
1967
1968
1969
197
1970
1970s
1971
1972
1973
1974
1975
1976
1977
1978
1979
198
1980
1980s
1981
1982
1983
1984
1985
1986
1987
1987A
1988
1989
1989a
199
1990
1990a
1990s
1991
1991a
1992
1992a
1992b
1993
1993a
1993b
1994
1994a
1994b
1995
1995a
1995b
1996
1996a
1996b
1997
1997a
1997b
1998
1998a
1998b
1998bw
1999
1999a
1999b
19th
1A
1B
1C
1D
1E
1ES
1G
1H
1M
1N
1O
1P
1PN
1R
1S
1a
1b
1c
1d
1e
1f
1m
1o
1s
1st
1°
1σ
1⁄4
1−
1−0
2
20
200
2000
2000a
2000b
2001
2001a
2001b
2002
2002a
2002b
2003
2003a
2003b
2004
2004a
2004b
2005
2005a
2005b
2006
2006a
2006b
2007
2007a
2007b
2008
2008a
2008b
2009
2009a
2009b
201
2010
2010a
2010b
2011
2011a
2011b
2012
2012a
2012b
2013
2013a
2013b
2014
2014a
2014b
2015
2015a
2015b
2016
2016a
2016b
2017
2017a
2017b
2018
2018a
2018b
2019
2019a
2019b
202
2020
2020a
2020b
2021
203
2030
204
2048
205
2050
206
207
208
209
209458
209458b
20E
20th
20°
20°N
21
210
2100
211
212
213
214
215
216
217
2175
218
219
21st
21°
22
220
2200
221
222
223
224
225
226
2264
227
228
229
23
230
2300
231
232
233
234
235
236
237
238
239
23°
24
240
2400
2403
241
242
243
244
245
246
247
248
249
25
250
2500
251
252
253
254
255
256
257
258
259
25°
25°C
26
260
2600
261
262
263
264
265
266
267
268
269
27
270
2700
270°
271
272
273
274
275
276
277
278
279
2796
28
280
2800
281
282
283
284
285
286
287
288
289
29
290
2900
291
292
293
294
295
296
297
298
299
2A
2B
2C
2D
2E
2F
2FGL
2G
2H
2L
2M
2MASS
2N
2P
2PCF
2Q
2S
2T
2X
2a
2b
2c
2d
2dF
2dFGRS
2e
2f
2g
2h
2k
2m
2n
2nd
2o
2p
2s
2°
2π
2σ
2−
3
30
300
3000
300°C
301
302
303
304
305
306
307
308
309
30E
30°
30°N
31
310
3100
311
312
313
314
315
316
317
318
319
32
320
3200
321
322
323
324
325
326
327
328
329
33
330
3300
331
332
333
334
335
336
337
338
339
34
340
3400
341
342
343
344
345
346
347
348
349
35
350
3500
351
352
353
354
355
356
357
358
359
35°
36
360
3600
360°
361
362
363
364
365
366
367
368
369
36Ar
37
370
3700
371
372
3727
373
374
375
376
377
378
379
38
380
3800
381
382
383
384
385
386
387
388
389
39
390
391
392
393
394
395
396
397
398
399
39Ar
3A
3B
3C
3D
3E
3F
3FGL
3H
3He
3P
3S
3a
3b
3c
3d
3e
3f
3m
3p
3rd
3s
3°
3σ
4
40
400
4000
401
402
403
404
405
406
407
408
409
4096
40Ar
40E
40°
40°N
41
410
411
412
413
414
415
4151
416
417
418
419
42
420
4200
421
422
423
424
425
4258
426
427
428
429
43
430
431
432
433
434
435
436
437
438
439
44
440
441
442
443
444
445
446
447
448
449
45
450
4500
451
452
453
454
455
456
457
458
459
45°
46
460
461
462
463
464
465
466
467
468
4686
469
47
470
471
472
473
474
475
476
477
478
479
48
480
4800
481
482
483
484
485
486
487
488
489
49
490
491
492
493
494
495
4959
496
497
498
499
4A
4C
4D
4E
4F
4He
4P
4S
4U
4a
4b
4c
4d
4e
4f
4m
4p
4s
4th
4°
4°Ar
4π
4σ
5
50
500
5000
5007
501
502
503
504
505
506
507
508
509
50E
50°
51
510
5100
511
512
5128
513
514
515
516
517
518
519
52
520
5200
521
522
523
524
525
526
527
528
529
53
530
531
532
533
534
535
536
537
538
539
54
540
541
542
543
544
545
546
547
548
549
55
550
5500
551
552
553
554
5548
555
556
557
5577
558
559
55°
56
560
561
562
563
564
565
566
567
568
569
57
570
571
572
573
574
575
576
577
578
579
58
580
581
582
583
584
585
586
587
588
589
59
590
591
592
593
594
595
596
597
598
599
5D
5E
5PN
5a
5b
5c
5d
5e
5m
5th
5°
5°C
5°N
5°S
5σ
6
60
600
6000
601
602
603
604
605
606
607
608
609
60E
60°
60°N
61
610
611
612
613
614
615
616
617
618
619
62
620
621
622
623
624
625
626
627
628
629
63
630
6300
631
632
633
6334
634
635
636
637
638
639
64
640
641
642
643
644
645
646
647
648
649
65
650
6500
651
652
653
654
655
656
657
658
659
65°
66
660
661
662
663
664
665
666
667
668
669
67
670
671
672
673
6731
674
675
676
677
678
679
67P
68
680
681
682
683
684
685
686
687
688
689
69
690
691
692
693
694
6946
695
696
697
698
699
6C
6D
6E
6a
6b
6c
6d
6dF
6°
7
70
700
7000
701
702
703
7037
704
705
706
707
708
709
70°
71
710
711
712
713
714
715
716
717
718
719
72
720
721
722
723
724
725
727
728
729
73
730
732
733
734
735
737
738
739
74
740
741
742
743
745
747
749
75
750
7500
752
753
754
755
757
758
75°
76
760
762
763
765
766
768
769
77
770
773
775
776
777
78
780
784
785
79
790
791
795
7a
7b
7c
7d
7r
7°
8
80
800
8000
801
805
807
809
80°
81
810
811
812
813
814
815
816
817
818
819
82
820
821
822
823
824
825
826
827
828
829
83
830
833
835
837
84
840
841
843
845
846
847
849
84th
85
850
855
857
85°
86
860
865
867
869
86Sr
87
870
875
876
8799
87Sr
88
880
885
89
890
891
8E
8a
8b
8c
8°
9
90
900
9000
901
905
90°
91
910
911
912
913
914
915
916
917
918
919
92
920
922
923
924
925
926
927
928
929
93
930
933
935
937
94
940
945
948
95
950
951
955
96
960
961
965
97
970
973
975
977
979
98
980
981
983
984
985
987
989
99
990
991
995
996
997
998
999
9E
9a
9b
9c
9°
:
;
<
=
>
?
@
A
A0
A1
A10
A11
A12
A1203
A13
A14
A15
A16
A17
A18
A2
A20
A3
A4
A5
A6
A7
A8
A9
AA
AAS
AAT
AB
ABSTR
ABSTRACT
AC
ACC
ACE
ACF
ACIS
ACK
ACKNOWLED
ACR
ACS
ACT
AD
ADAF
ADC
ADI
ADM
ADU
AE
AER
AF
AFGL
AFT
AG
AGB
AGILE
AGN
AGNs
AH
AI
AIA
AIC
AIPS
AIRS
AJ
AK
AKARI
AKR
AL
ALF
ALFALFA
ALH
ALHA
ALL
ALMA
ALP
ALT
AM
AMD
AMI
AMO
AMOC
AMP
AMR
AMS
AN
ANAL
ANALYS
ANALYSIS
AND
ANDERS
ANG
ANN
ANT
AO
AOD
AP
APEC
APEX
APM
APO
APOGEE
APP
APPENDIX
APPL
APPRO
APR
APS
APXS
AQ
AR
ARAA
ARE
ARM
ARs
AS
ASA
ASAS
ASASSN
ASC
ASCA
ASI
ASK
ASKAP
ASM
ASP
ASS
AST
ASTER
ASTRO
AT
AT20
ATCA
ATLAS
ATLASGAL
ATMOS
AU
AV
AVHRR
AW
AX
AXPs
AZ
Aa
Ab
Abaz
Abazajian
Abb
Abbott
Abd
Abdo
Abel
Abelian
Abell
About
Above
Abraham
Abram
Abramowicz
Abs
Absolute
Absorption
Abstract
Abund
Abundance
Abundances
Ac
Acad
Academ
Academic
Academy
Acc
Acceler
Acceleration
According
Accordingly
Accounting
Accretion
Accur
Accuracy
Accurate
Ach
Ack
Ackermann
Ackn
Acknowledg
Acknowledge
Acknowledgements
Acknowledgments
Across
Act
Acta
Active
Activity
Actually
Ad
AdS
Ada
Adam
Adams
Adap
Adaptive
Adding
Addition
Additional
Additionally
Adel
Adi
Administration
Adop
Adopting
Adri
Adv
Advanced
Advances
Ae
Aegean
Aer
Aeron
Aeronautics
Aerosol
Af
Aff
Afric
Africa
African
After
Ag
Again
Age
Agency
Ages
Agol
Agu
Ah
Ahar
Aharonian
Ai
Aims
Air
Airy
Ait
Aj
Ak
Akad
Akas
Akasofu
Aki
Al
Alam
Alaska
Alb
Alber
Albert
Alcock
Ald
Ale
Ales
Alex
Alexander
Alf
Alfven
Alfvenic
Alg
Algor
Algorithm
Ali
Alice
All
Allan
Allard
Allen
Allende
Aller
Allow
Allowing
Almost
Along
Alonso
Alpha
Alpine
Alps
Also
Alt
Alter
Altern
Alternative
Alternatively
Although
Altim
Altitude
Alto
Altogether
Alv
Alvarez
Alves
Am
Amaz
Amazon
Amazonian
Amb
Amer
America
American
Ames
Ammon
Among
Amp
Ampl
Amplitude
Amster
Amsterdam
An
Analog
Analy
Analyses
Analysis
Analytic
Analytical
Analyzer
Anat
And
Andean
Anders
Andersen
Anderson
Andersson
Andes
Andre
Andreas
Andrews
Androm
Andromeda
Ang
Angel
Angeles
Angle
Angular
Anisot
Anisotropy
Ann
Annual
Anomal
Anomalous
Anomaly
Another
Ans
Ant
Antarctic
Antarctica
Antenn
Antennae
Anth
Anti
Anton
Antona
Antonucci
Any
Ao
Aoki
Ap
ApJ
ApJS
Apart
Apenn
Apennines
Aperture
Apollo
App
Apparent
Apparently
Appendices
Appendix
Appl
Applic
Application
Applications
Applied
Applying
Appro
Approach
Approxim
Approximate
Approximately
Apr
April
Aq
Aql
Aqr
Aqu
Aquarius
Ar
Ara
Arab
Arabia
Arabian
Arag
Arc
Arch
Archae
Archaean
Arche
Archean
Archive
Arctic
Are
Area
Areas
Arec
Arecibo
Arg
Argenti
Argentina
Argo
Argon
Ari
Arizona
Ark
Arm
Armitage
Armstrong
Arn
Arnaud
Arnett
Arnold
Arnouts
Around
Arp
Array
Arrhen
Arrhenius
Arrows
Art
Artem
Artif
As
Asc
Aschw
Aschwanden
Ash
Asia
Asian
Aside
Asp
Asplund
Ass
Assemb
Assembly
Assess
Assessment
Assoc
Associ
Associated
Association
Assume
Assuming
Ast
Astero
Asteroid
Asteroids
Astro
Astromet
Astrometric
Astron
Astronom
Astronomical
Astronomy
Astrop
Astrophys
Astrophysical
Astrophysics
Asympto
At
Atac
Atacama
Ath
Athan
Athanass
Athanassoula
Athen
Atlan
Atlantic
Atlas
Atm
Atmos
Atmosphere
Atmospheres
Atmospheric
Atomic
Att
Attemp
Attempts
Atten
Au
Aud
Aug
Auger
August
Aur
Auroral
Aus
Aust
Austral
Australia
Australian
Aut
Auth
Av
Available
Aver
Average
Averaged
Averaging
Ax
Ay
Az
AzTEC
Azimuth
Aμ
B
B0
B1
B10
B11
B12
B15
B16
B17
B18
B19
B2
B3
B4
B5
B6
B7
B8
B9
BA
BACK
BAL
BALQ
BALs
BAN
BAO
BAR
BAS
BAT
BATSE
BB
BBH
BBHs
BBN
BC
BC03
BCD
BCDs
BCG
BCGs
BCS
BD
BDS
BDs
BE
BEC
BEL
BEST
BET
BETWEEN
BF
BG
BH
BHB
BHBs
BHs
BI
BIC
BIMA
BIN
BIS
BJ
BJD
BK
BL
BLACK
BLAST
BLG
BLR
BLS
BM
BN
BNS
BO
BOSS
BOW
BP
BPS
BPT
BR
BRO
BROWN
BS
BSE
BSR
BSS
BSSs
BSs
BT
BTZ
BU
BUR
BV
BVRI
BW
BX
BY
BZ
Ba
Baade
Bab
Bac
Bach
Back
Background
Bacon
Bad
Bag
Bah
Bahcall
Bai
Baik
Baikal
Bail
Bailey
Baj
Bak
Baker
Bal
Balbus
Bald
Baldry
Baldwin
Ball
Bally
Balmer
Balog
Balogh
Baltic
Ban
Band
Bands
Baner
Banerjee
Bang
Bank
Banks
Bar
Baraffe
Barb
Barber
Bard
Bardeen
Barents
Barger
Bark
Barker
Barlow
Barn
Barnes
Barrow
Bars
Bart
Barth
Bary
Bas
Basal
Basalt
Base
Based
Baseline
Basic
Basin
Basri
Bass
Bastian
Basu
Bat
Bate
Bath
Batt
Bauer
Baugh
Baum
Baumg
Baumgardt
Bay
Bayes
Bayesian
Be
Bea
Beam
Beau
Bec
Because
Beck
Becker
Bed
Beers
Before
Beg
Begelman
Beh
Behav
Behroozi
Beij
Beijing
Being
Bek
Bekenstein
Bekki
Bel
Belczynski
Belg
Bell
Belloni
Belob
Beloborodov
Belokurov
Below
Belt
Ben
Bender
Bened
Beng
Bengal
Benn
Bennett
Bennu
Bens
Bensby
Benson
Bent
Benz
Beppo
BeppoSAX
Ber
Bere
Berg
Berger
Bergeron
Bergh
Berk
Berkeley
Berlin
Bern
Bernard
Bernardi
Berner
Bernou
Bernstein
Berry
Bert
Bertin
Bes
Besides
Bessel
Bessell
Best
Bet
Beta
Bethe
Between
Bey
Beyond
Bez
Bh
Bhat
Bhatt
Bhattach
Bhattachary
Bi
Bian
Bianchi
Bias
Bica
Big
Bil
Bild
Bildsten
Bin
Binaries
Binary
Bing
Binney
Bio
Bir
Birch
Bird
Birn
Bis
Bisch
Bischoff
Bish
Bishop
Bj
Bl
Bla
Black
Blake
Blanc
Blanco
Bland
Blandford
Blanton
Blaz
Blazhko
Blitz
Blo
Block
Blok
Blond
Bloom
Blu
Blue
Blum
Blund
Bn
Bo
Board
Bob
Bock
Bod
Bodenheimer
Bog
Bogd
Boh
Bohm
Bohringer
Bol
Bolton
Boltz
Boltzmann
Bon
Bond
Bondi
Bonn
Bonnell
Bonnet
Boo
Book
Bootes
Booth
Bopp
Bor
Bore
Borg
Boris
Born
Bos
Bosch
Bose
Boss
Bost
Bot
Both
Bott
Bottke
Bottom
Bou
Bouguer
Boul
Bould
Boulder
Bound
Boundary
Bour
Bouss
Boussinesq
Bouvier
Bouwens
Bovy
Bow
Bowen
Bower
Box
Boy
Boyd
Boyer
Boyle
Br
Bra
Brad
Bradley
Brag
Bram
Bran
Branch
Brand
Brandenburg
Brandt
Brans
Braun
Braz
Brazil
Brazilian
Bre
Break
Brear
Brearley
Breg
Bregman
Bren
Bress
Bressan
Bri
Brid
Bridge
Bridle
Brief
Briefly
Brien
Briggs
Bright
Brightness
Brill
Brin
Brinchmann
Brink
Brit
Britain
British
Bro
Broad
Broadband
Brog
Brom
Bromm
Brook
Brooks
Brow
Brown
Brownian
Bru
Brun
Brunt
Bruzual
Bry
Bryan
Brγ
Bu
Bubble
Buch
Buck
Bud
Building
Bul
Bulge
Bulk
Bull
Bullock
Bun
Bur
Burb
Bure
Bureau
Burg
Burgasser
Burke
Burkert
Burl
Burlaga
Burn
Burns
Burrows
Burst
Bursts
Burton
Bus
Bush
But
Butler
By
Byr
Bz
BzK
C
C0
C02
C1
C10
C12
C2
C3
C4
C5
C6
C7
C8
C9
CA
CAI
CAIs
CAL
CALCUL
CALIF
CALIFA
CAM
CAN
CAND
CANDELS
CAP
CAPS
CAR
CARMA
CAS
CASA
CAT
CB
CC
CCC
CCD
CCDs
CCF
CCFs
CCH
CCM
CCN
CCS
CCSN
CCSNe
CCs
CD
CDF
CDFS
CDM
CDMS
CDS
CE
CEL
CEMP
CEN
CER
CERN
CES
CF
CFHT
CFHTLS
CFL
CFT
CG
CGM
CGs
CH
CH3
CH4
CHAMP
CHAN
CHAR
CHI
CHIANTI
CHO
CI
CIA
CIAO
CIB
CIE
CII
CIR
CIRS
CIRs
CIS
CJ
CK
CL
CLA
CLASS
CLE
CLEAN
CLO
CLUST
CLUSTER
CM
CM2
CMASS
CMB
CMC
CMD
CMDs
CME
CMEs
CMF
CMIP
CMIP5
CMR
CMS
CMT
CMZ
CMa
CN
CND
CNM
CNN
CNO
CNRS
CO
CO2
COBE
COL
COM
COMP
COMPAR
COMPARISON
CON
CONC
CONCLUS
CONCLUSION
CONCLUSIONS
COND
CONST
COR
CORR
COS
COSM
COSMIC
COSMOS
COSP
COSPAR
COUP
COZ
COz
CP
CPC
CPD
CPL
CPS
CPU
CQ
CR
CRE
CRISM
CRO
CRRES
CRs
CS
CSF
CSM
CSO
CSP
CSS
CT
CTA
CTD
CTIO
CTTS
CTTSs
CTX
CU
CUR
CV
CV3
CVn
CVs
CW
CX
CXB
CXO
CXOU
CY
CZ
Ca
CaCO
CaCl
CaO
CaT
Cab
Cad
Cai
Cal
Calab
Calc
Calcium
Calcul
Calculated
Calculating
Calculation
Calculations
Cald
Caldwell
Caled
Calibration
Calif
Californ
California
Call
Callisto
Caltech
Calzetti
Cam
Camb
Cambrian
Cambridge
Camer
Camera
Cameron
Camp
Campaign
Campbell
Can
Canada
Canadian
Cand
Candid
Candidate
Candidates
Canfield
Cannon
Cant
Cany
Canyon
Cao
Cap
Cape
Capp
Cappell
Cappellari
Car
Carbon
Carbonate
Carboniferous
Card
Cardelli
Care
Cari
Carib
Caribbean
Carilli
Carina
Carl
Carlberg
Carlo
Carlson
Carnegie
Carp
Carpenter
Carr
Carretta
Carrington
Carroll
Cart
Cartan
Carter
Cartesian
Cas
Casc
Case
Cases
Casey
Cash
Casimir
Cass
Cassegrain
Cassi
Cassini
Cast
Castro
Caswell
Cat
Catal
Catalog
Catalogue
Cauchy
Cav
Cave
Cay
Cd
Ce
Cec
Cel
Cell
Cen
Cenozoic
Cent
Centa
Centauri
Centaurs
Centaurus
Center
Central
Centre
Cep
Cephe
Cepheid
Cepheids
Cer
Cerenkov
Ceres
Cern
Cerro
Certain
Certainly
Ces
Cet
Ceti
Cf
CfA
Ch
ChRM
Cha
Chab
Chabrier
Chain
Chak
Chakrab
Chakrabar
Chakrabarti
Chall
Cham
Chambers
Chan
Chand
Chandra
Chandrase
Chandrasekhar
Chang
Change
Changes
Changing
Chann
Channel
Chap
Chapman
Chapter
Char
Character
Characteristic
Characteristics
Characterization
Charbon
Charbonneau
Charge
Charles
Charlot
Charn
Charon
Chasma
Chatter
Chatterjee
Chau
Che
Chebyshev
Chem
Chemical
Chemistry
Chen
Cheng
Cher
Cherenkov
Chern
Cheval
Chevalier
Chi
Chiang
Chic
Chicago
Chile
Chin
China
Chinese
Chl
Chlor
Cho
Choi
Chond
Choosing
Chou
Chris
Christ
Christensen
Christoffel
Chrom
Chron
Chu
Chung
Chur
Churazov
Church
Churchill
Churchwell
Ci
Cim
Cir
Circ
Circles
Circular
Circulation
City
Civ
Civita
Cl
ClO
Claret
Clark
Clarke
Class
Classical
Classif
Classification
Clay
Clayton
Cle
Clear
Clearly
Clem
Clementine
Clim
Climate
Clo
Close
Cloud
Clouds
Clump
Cluster
Clusters
Cm
Cnc
Co
CoRo
CoRoT
Coast
Coastal
Cob
Coc
Coch
Code
Coe
Coeffici
Coefficients
Cohen
Col
Cold
Cole
Coleman
Coll
Collaboration
Colle
College
Collier
Collins
Collision
Collisions
Color
Colorado
Colors
Colour
Cols
Columb
Columbia
Column
Columns
Com
Coma
Comb
Combes
Combined
Combining
Comet
Comets
Comm
Comments
Commission
Committee
Common
Commun
Community
Comp
Compact
Company
Compar
Compared
Comparing
Comparison
Comparisons
Compl
Complet
Complete
Completeness
Complex
Component
Components
Composite
Composition
Compositions
Compton
Comptonization
Comptonized
Comput
Computer
Computing
Con
Conc
Concent
Concentration
Concentrations
Concept
Concerning
Conclu
Concluding
Conclusion
Conclusions
Cond
Conditions
Condon
Conduc
Conf
Conference
Config
Cong
Conn
Connell
Conroy
Cons
Conselice
Consequently
Consider
Considering
Consist
Consistent
Consortium
Const
Constant
Constrain
Constraints
Cont
Contamination
Context
Continental
Continu
Continued
Continuous
Continuum
Contour
Contours
Contrary
Contrib
Contribution
Contributions
Control
Conv
Convection
Conven
Conver
Convergence
Conversely
Cook
Cool
Cooling
Cooper
Coor
Cooray
Coordin
Coordinates
Cop
Copern
Copernicus
Copyright
Cor
Cord
Cordes
Cordillera
Core
Cores
Coriolis
Corn
Cornell
Coron
Corona
Coronal
Corp
Corporation
Correc
Corrected
Correction
Corrections
Correl
Correlation
Correlations
Correspond
Corresponding
Correspondingly
Cos
Cosm
Cosmic
Cosmochim
Cosmochimica
Cosmological
Cosmology
Cost
Costa
Cot
Cou
Couch
Coul
Coulomb
Coun
Council
Count
Counter
County
Coupl
Coupled
Coupling
Cour
Courant
Cousins
Cov
Cow
Cowan
Cowie
Cowley
Cowling
Cox
Cp
Cpx
Cr
CrB
Cra
Crab
Craig
Crater
Craters
Craton
Craw
Crawford
Cre
Creek
Cret
Cretaceous
Cris
Criter
Critical
Cro
Cross
Croton
Crow
Crowther
Cru
Crust
Crustal
Crut
Cruz
Cry
Cryst
Crystal
Cs
Cu
Cui
Cum
Cumul
Cumulative
Cun
Cunha
Cur
Curi
Curie
Curiosity
Current
Currently
Curve
Curves
Cut
Cutri
Cuzzi
Cy
Cyc
Cycl
Cycle
Cyg
Cygni
Cygnus
Cz
Czech
D
D0
D1
D2
D3
D4
D5
D6
D7
D8
DA
DAC
DAM
DAMA
DAO
DAOPHOT
DATA
DAV
DB
DBI
DC
DCO
DD
DDO
DE
DE3
DEC
DEEP2
DEIMOS
DEL
DEM
DEMETER
DEMs
DEN
DENSITY
DEP
DER
DES
DET
DF
DFT
DFs
DG
DGP
DH
DI
DIA
DIB
DIBs
DIC
DIF
DIG
DIM
DIR
DIRBE
DIS
DISCU
DISCUSSION
DIST
DISTRIB
DISTRIBUTION
DJ
DJF
DK
DL
DLA
DLAs
DLR
DM
DMS
DMSP
DN
DNA
DNS
DO
DOC
DOGs
DOM
DON
DOR
DORIS
DOY
DP
DQ
DR
DR1
DR12
DR2
DR3
DR4
DR5
DR7
DS
DSA
DSDP
DSF
DSS
DT
DTD
DTM
DU
DUR
DUST
DV
DW
DX
DY
DYNAM
DZ
Da
Dab
Daddi
Dahl
Dahlen
Dai
Daily
Dal
Dale
Dalgarno
Dam
Dame
Dan
Dani
Dar
Dark
Darwin
Das
Dashed
Dat
Data
Database
Date
Dau
Dav
Dave
David
Davidson
Davies
Davis
Dawn
Dawson
Day
De
DeM
DeWitt
Dead
Deb
Debris
Debye
Dec
Decay
Deccan
December
Decomp
Decre
Deep
Def
Defining
Definition
Deformation
Deg
Degree
Dehnen
Dekel
Del
Delgado
Dell
Delta
Dem
Den
Deng
Denn
Dense
Densities
Density
Dep
Department
Depend
Dependence
Depending
Depth
Der
Deriv
Derived
Derm
Dermer
Des
Desc
Description
Desert
Design
Despite
Dess
Dessart
Det
Detail
Detailed
Details
Detected
Detection
Detector
Determ
Determination
Determining
Deut
Dev
Develop
Development
Devi
Deviations
Devonian
Dew
Dh
Di
Dia
Diag
Diagn
Diagram
Diam
Diamond
Diaz
Dick
Dicke
Dickey
Dickinson
Die
Diego
Diet
Dif
Diff
Differ
Difference
Differences
Different
Differential
Diffuse
Diffusion
Dig
Digital
Dijk
Dim
Dimension
Din
Ding
Dione
Dip
Dir
Dirac
Direct
Director
Dirichlet
Dis
Disc
Discovery
Discus
Discussion
Discussions
Dish
Dishoeck
Disk
Disks
Disper
Dispersion
Displ
Diss
Dissolved
Dist
Distance
Distances
Distribution
Distributions
Diurnal
Div
Division
Dixon
Dj
Djorg
Djorgovski
Do
Dob
Dod
Does
Dokkum
Dol
Domain
Dome
Domin
Doming
Dominik
Don
Donahue
Donati
Done
Dong
Donn
Dop
Dopita
Doppler
Dor
Dorad
Doradus
Dord
Dordrecht
Dot
Dotted
Dou
Double
Dougl
Douglas
Dow
Down
Downes
Dr
Dra
Drac
Draco
Drag
Draine
Drake
Dre
Dress
Dressler
Dri
Drift
Drilling
Driver
Dro
Dry
Dst
Du
Dual
Dub
Duc
Due
Dul
Dum
Dun
Dunc
Duncan
Dunlop
Dunn
Dup
Dur
During
Dust
Dut
Dw
Dwarf
Dwek
Dy
Dynam
Dynamic
Dynamical
Dynamics
Dzi
Dziew
Dziewonski
E
E0
E1
E2
E3
E4
E5
EA
EAG
EAGLE
EAR
EARTH
EAS
EB
EBL
EBs
EC
ECH
ECMWF
ECS
ED
EDM
EDR
EDS
EDX
EE
EEJ
EEP
EET
EF
EFF
EFFECT
EFT
EG
EGB
EGR
EGRET
EGS
EH
EHB
EHT
EI
EIA
EIS
EISCAT
EIT
EJ
EK
EL
ELA
ELE
ELECTR
ELECTRON
ELF
ELS
ELT
EM
EMI
EMIC
EMISSION
EMP
EN
ENA
ENAs
ENERG
ENERGY
ENSO
EO
EOB
EOF
EOS
EOSs
EP
EPB
EPBs
EPIC
EPMA
EPR
EPS
EQ
EQU
EQUATIONS
ER
ERA
ERO
EROs
ERROR
ERS
ES
ESA
ESF
ESM
ESO
ESP
ESR
EST
ESTIM
ET
ETG
ETGs
EU
EUV
EUVE
EUVI
EV
EVOLUTION
EVPA
EW
EWs
EX
EXAFS
EXP
EXPER
EXPERIM
EXPERIMENT
EXPERIMENTAL
EZ
Each
Ear
Earlier
Early
Earth
Earthquake
Earths
East
Eastern
Eb
Ebel
Eber
Ebert
Ec
Echelle
Eck
Eclip
Econ
Ed
Edd
Eddington
Edge
Editor
Editorial
Editors
Eds
Education
Edwards
EeV
Ef
Eff
Effect
Effective
Effects
Effelsberg
Effici
Efst
Efstathiou
Eg
Egg
Eggleton
Eh
Ehl
Ehren
Ei
Eich
Eigen
Eight
Ein
Einasto
Einstein
Eisen
Eisenstein
Either
Ejecta
Ek
Ekman
Ekstrom
El
Elastic
Elbaz
Eld
Ele
Elect
Electric
Electro
Electromagnetic
Electron
Electronic
Electrons
Element
Elemental
Elements
Elev
Elias
Ell
Ellip
Ellis
Ellison
Elm
Elmegreen
Els
Else
Elsevier
Elvis
Ely
Elysium
Em
Emb
Emission
Emp
Empirical
Ems
Emsellem
En
Enc
Encel
Enceladus
End
Ener
Energ
Energetic
Energies
Energy
Eng
Engel
Engine
Engineering
England
English
Enh
Enhanced
Ent
Environ
Environment
Environmental
Eo
EoR
EoS
Eocene
Ep
Epoch
Epstein
Eq
Eqn
Eqs
Equ
Equation
Equations
Equator
Equatorial
Equilibrium
Equival
Equivalent
Er
Erb
Eri
Ern
Eros
Error
Errors
Es
Esc
Escude
Esp
Espec
Especially
Ess
Essentially
Est
Estim
Estimated
Estimates
Estimating
Estimation
Et
Eth
Etna
Eu
Euc
Euclid
Euclidean
Euler
Eulerian
Eur
Euras
Eurasia
Eurasian
Europ
Europa
Europe
European
Ev
Evalu
Evaluating
Evaluation
Evans
Even
Event
Events
Eventually
Ever
Every
Evidence
Evidently
Evolution
Evolutionary
Evrard
Ex
Exact
Exam
Examination
Examining
Example
Examples
Exc
Except
Excess
Excitation
Exclu
Excluding
Exo
Exoplanet
Exp
Expanding
Expansion
Expected
Exper
Experiment
Experimental
Experiments
Expl
Explan
Explanation
Explicit
Explo
Exploration
Explorer
Exposure
Express
Ext
Extended
Extension
Extensive
External
Extinction
Extragalactic
Extrap
Extrem
Extreme
Ey
F
F0
F1
F10
F12
F160
F160W
F2
F3
F336W
F4
F5
F55
F555W
F6
F606
F606W
F7
F8
F814W
FA
FAC
FACs
FAP
FAR
FAST
FB
FC
FD
FDM
FE
FER
FF
FFT
FG
FGK
FH
FI
FIB
FIELD
FIG
FIN
FIP
FIR
FIRE
FIRST
FITS
FK
FL
FLR
FLRW
FLU
FLUX
FM
FN
FO
FOC
FOF
FOR
FORM
FORMATION
FORS2
FOS
FOV
FP
FPI
FR
FRB
FRBs
FRE
FREQU
FRI
FROM
FRW
FS
FSR
FSRQs
FT
FTE
FTEs
FTIR
FTS
FU
FUN
FUNCTION
FUSE
FUV
FV
FW
FWHM
FWHMs
FZ
Fa
Fab
Fabb
Faber
Fabian
Fabry
Fac
Facility
Fact
Factor
Factors
Faint
Fair
Fal
Fall
Fan
Fang
Far
Faraday
Fast
Fault
Fe
Fe2
FeH
FeNi
FeO
FeS
Feature
Features
Feb
February
Fed
Feder
Federr
Federrath
Feed
Feedback
Feg
Feig
Feigelson
Fejer
Fel
Feld
Feldman
Fender
Feng
Fenn
Fer
Ferg
Ferguson
Ferland
Fermi
Fern
Fernand
Fernandes
Fernandez
Ferr
Ferra
Ferrara
Ferrarese
Ferraro
Ferre
Few
Feyn
Feynman
Fi
Field
Fields
Fig
Figs
Figure
Figures
Fil
Filipp
Filippenko
Filled
Filter
Fin
Final
Finally
Finding
Fine
Finite
Fink
Finkbeiner
Finland
Finn
Fins
First
Firstly
Fis
Fischer
Fish
Fisher
Fit
Fits
Fitted
Fitting
Fitz
Fitzpatrick
Five
Fl
Flare
Flares
Flat
Fle
Flet
Fletcher
Flight
Flo
Flor
Florida
Flow
Flu
Fluctu
Fluctuations
Fluid
Fluids
Flux
Fluxes
Fly
Flynn
Fm
Fo
FoF
FoM
FoV
Foc
Fock
Focusing
Fok
Fokker
Fol
Fold
Foley
Follow
Following
Fomal
Fon
Font
Foot
For
Forb
Forbes
Force
Ford
Fore
Forec
Forest
Form
Formally
Formation
Forn
Fornax
Fors
Forster
Fort
Fortney
Fortunately
Foss
Fossae
Foster
Fou
Found
Foundation
Four
Fourier
Fourth
Fow
Fowler
Fox
Fr
Fra
Fract
Fraction
Fractional
Fracture
Frag
Frail
Fram
Frame
Fran
Franc
France
Frances
Francis
Francisco
Frank
Franx
Fraser
Fre
Fred
Free
Freedman
Freeman
Fren
French
Frenk
Frequency
Fres
Fresnel
Frey
Fri
Fried
Friedman
Friedmann
Friedrich
Fris
Fritz
Fro
From
Fron
Front
Fry
Fryer
Fs
Fu
Fuj
Fuji
Fuk
Fukugita
Ful
Full
Fuller
Function
Functions
Fund
Fundamental
Fur
Furlanet
Furlanetto
Further
Furthermore
Future
G
G0
G1
G10
G2
G29
G3
G33
G35
G4
G5
G8
GA
GAL
GALAX
GALAXIES
GALAXY
GALEX
GALFIT
GAM
GAMA
GAMMA
GAS
GASS
GB
GBM
GBT
GC
GCE
GCM
GCMs
GCR
GCRs
GCS
GCs
GD
GDR
GDS
GE
GEM
GEMS
GEN
GENER
GEO
GEOS
GF
GG
GH
GHRS
GHz
GI
GIA
GIM
GIS
GJ
GK
GL
GLAST
GLE
GLEAM
GLIM
GLIMPSE
GM
GMC
GMCs
GMOS
GMRT
GMT
GN
GNSS
GO
GOC
GOES
GOL
GOLD
GOODS
GP
GPP
GPR
GPS
GPU
GPa
GR
GRA
GRACE
GRAV
GRAVITY
GRB
GRBs
GREEN
GRMHD
GRO
GRS
GS
GSC
GSE
GSFC
GSM
GSS
GT
GU
GUT
GUV
GUVI
GV
GW
GW150
GW150914
GW17
GW170817
GWB
GWs
GX
GZ
GZK
Ga
Gab
Gad
Gaia
Gal
Galactic
Galactocentric
Galapagos
Galax
Galaxies
Galaxy
Gale
Galile
Galilean
Galileo
Galileon
Gall
Gallagher
Gam
Gamm
Gamma
Gammie
Gan
Gang
Gans
Gany
Ganymed
Ganymede
Gao
Gar
Garc
Garcia
Gard
Gardner
Garn
Gary
Gas
Gau
Gaus
Gauss
Gaussian
Gaussianity
Gaussians
Gav
Gavazzi
Gaz
Gd
Ge
GeV
Geb
Gebhardt
Geh
Gehrels
Gel
Geller
Gem
Geminga
Gemini
Gen
Gene
Gener
General
Generally
Generation
Geneva
Genzel
Geo
Geochem
Geochemical
Geochemistry
Geochim
Geochimica
Geol
Geologic
Geological
Geology
Geomagnetic
Geometry
Geophys
Geophysical
Geophysics
Georg
George
Geos
Geosci
Geotail
Ger
Gerhard
Germ
German
Germany
Gh
Ghe
Ghis
Ghisellini
Ghosh
Gi
Giac
Gian
Giant
Gib
Gibbons
Gibbs
Gibson
Gier
Gies
Gil
Gilbert
Gill
Gilmore
Gin
Giov
Giovanelli
Gir
Girardi
Given
Giz
Gl
Glac
Glacial
Glacier
Glad
Glass
Gle
Glo
Glob
Global
Globular
Gned
Gnedin
Go
God
Goddard
Gol
Gold
Goldberg
Goldreich
Golds
Goldstein
Goldstone
Gomez
Gon
Gond
Gondwana
Gonz
Gonzalez
Good
Goodman
Goodrich
Gop
Gopals
Gopalswamy
Gor
Gord
Gordon
Gos
Goto
Gott
Gou
Gough
Gould
Govern
Government
Gpc
Gr
Gra
Grad
Gradi
Graham
Grain
Grains
Gran
Grand
Grande
Granite
Grant
Graph
Gratton
Grav
Gravitational
Gravity
Gray
Gre
Great
Greece
Green
Greenberg
Greene
Greenland
Greg
Gregory
Gren
Greves
Grevesse
Grey
Gri
Grid
Griff
Griffin
Griffith
Griffiths
Gro
Gron
Gros
Gross
Grossman
Ground
Group
Groups
Growth
Gru
Gt
Gu
Gub
Gud
Guide
Guill
Guillot
Guine
Gul
Gulf
Gull
Gun
Gunn
Guo
Gupta
Gur
Gurn
Gurnett
Gusev
Gust
Gustaf
Gut
Guz
Gy
Gyr
H
H0
H1
H2
H20
H2O
H3
H4
H5
HA
HAL
HAM
HAR
HARPS
HAT
HAW
HB
HBL
HC
HC1
HCG
HCN
HCO
HCS
HCl
HD
HDF
HDO
HE
HED
HEL
HER
HESS
HET
HEX
HEXTE
HF
HFI
HFS
HG
HH
HI
HIFI
HIGH
HII
HIM
HIP
HIPASS
HIR
HIRES
HIT
HJ
HJD
HK
HL
HM
HMF
HMI
HMXB
HMXBs
HN
HNC
HNCO
HNO
HO
HOD
HOL
HOR
HP
HR
HRC
HRD
HREE
HRI
HRS
HRSC
HS
HSC
HSE
HSS
HST
HT
HU
HUDF
HV
HVC
HVCs
HW
HWM
HX
HXR
HY
HZ
Ha
Haardt
Hab
Haber
Hach
Hachisu
Had
Hadley
Haeh
Haehnelt
Hag
Hahn
Haim
Haiman
Hain
Hal
Hale
Half
Hall
Halley
Halo
Halpern
Ham
Hamann
Hamb
Hamilton
Hamiltonian
Hammer
Hamuy
Han
Hand
Handbook
Hank
Hann
Hansen
Hanson
Hap
Hapke
Har
Hard
Hardcastle
Harding
Haro
Harris
Harrison
Hart
Hartle
Hartman
Hartmann
Hartree
Harvard
Harvey
Has
Hase
Hasegawa
Hash
Hashimoto
Hasinger
Hass
Hat
Hatz
Hau
Haus
Having
Haw
Hawai
Hawaii
Hawaiian
Hawking
Hawley
Hawth
Hawthorn
Hay
Hayashi
Hayes
Haynes
Haz
He
Head
Hear
Hearn
Heat
Heating
Heav
Heavens
Heaviside
Heavy
Heck
Heckman
Hed
Heg
Heger
Heggie
Height
Heiles
Hein
Heisenberg
Hel
Helf
Heli
Helios
Heliospheric
Helium
Hell
Hellas
Helm
Helmholtz
Helmi
Hem
Hemisp
Hemisphere
Hen
Hence
Hend
Henderson
Henn
Henne
Henning
Henri
Henry
Her
Herb
Herbig
Herbst
Hercul
Hercules
Here
Hereafter
Herm
Hermite
Hermitian
Hern
Hernandez
Hernquist
Herr
Herrero
Hers
Herschel
Hertz
Hertzsprung
Herz
Herzberg
Hes
Hesper
Hesperian
Hess
Hessian
Hew
Hey
Hf
Hg
Hi
HiR
HiRISE
Hib
Hick
Hig
Higgs
High
Higher
Highly
Hil
Hilbert
Hild
Hilde
Hildebrand
Hill
Hillenbrand
Hillier
Hills
Himal
Himalaya
Himalayan
Hin
Hind
Hinode
Hipp
Hipparcos
Hir
Hirata
Hiro
Hirsch
His
Hist
Histogram
Histograms
Histor
History
Hj
Ho
Hob
Hobbs
Hod
Hodge
Hoek
Hof
Hoff
Hoffman
Hofmann
Hogg
Hol
Hole
Holl
Holland
Hollenbach
Holman
Holmberg
Holocene
Holt
Hom
Home
Hon
Hong
Hood
Hop
Hopkins
Hor
Horiz
Horizon
Horizons
Horizontal
Horn
Horndes
Horndeski
Horne
Hos
Host
Hot
Hou
Hough
Houston
How
Howard
Howell
However
Hoyle
Hsi
Hsu
Hu
Huang
Hub
Hubbard
Hubble
Hubeny
Huber
Huch
Huchra
Hud
Hudson
Hug
Hughes
Hugoni
Hugoniot
Hui
Hul
Hum
Humph
Humphreys
Hun
Hung
Hunt
Hunter
Hur
Hurley
Hus
Huss
Hut
Hutch
Huygens
Hw
Hwang
Hy
Hya
Hyades
Hybrid
Hyd
Hydra
Hydro
Hydrodynam
Hydrogen
Hydrothermal
Hyp
Hyper
Hz
Hα
Hβ
Hγ
Hδ
I
I0
I1
I1⁄2
I2
I3
IA
IAB
IAU
IB
IBEX
IBIS
IC
ICB
ICE
ICL
ICM
ICME
ICMEs
ICP
ICPMS
ICS
ID
IDL
IDP
IDPs
IDs
IE
IF
IFS
IFU
IG
IGM
IGR
IGRF
IGS
IH
II
IIA
III
IIP
IIb
IIn
IJ
IK
IL
ILC
ILR
IM
IMA
IMAGE
IMBH
IMBHs
IMF
IMFs
IMP
IMS
IN
IND
INMS
INT
INTE
INTEGR
INTEGRAL
INTER
INTR
INTRODUCTION
INV
IO
IOD
IOM
ION
IP
IPAC
IPC
IPP
IPS
IQ
IR
IRAC
IRAF
IRAM
IRAS
IRC
IRD
IRDC
IRDCs
IRI
IRIS
IRM
IRS
IRTF
IRX
IS
ISA
ISCO
ISEE
ISIS
ISM
ISO
ISP
ISR
ISRF
ISS
IST
ISW
IT
ITCZ
ITR
IUE
IV
IW
IX
IZ
Ia
Iap
Iapetus
Ib
Ibata
Iben
Iber
Iberian
Ic
Icarus
Ice
IceCube
Iceland
Icelandic
Ich
Id
Ida
Ide
Ideally
Identif
Identification
Identifying
If
Ig
Ign
Ignoring
Ik
Il
Ilbert
Ill
Illinois
Illust
Illustration
Illustris
Im
Image
Imager
Images
Imaging
Imb
Imbrium
Imm
Imp
Impact
Impl
Implications
Import
Important
Importantly
Impro
Improved
In
InS
InSAR
Inc
Incl
Inclu
Including
Inclusion
Incorp
Incre
Increased
Increasing
Ind
Indeed
Independ
Independent
Index
India
Indian
Indices
Indiv
Individual
Indo
Indones
Indonesia
Inf
Infer
Inflation
Influence
Information
Infra
Infrared
Ing
Ini
Initial
Initially
Inner
Inoue
Input
Ins
Inser
Inserting
Inside
Insp
Inspection
Inst
Instability
Instead
Instit
Institut
Institute
Institution
Instrum
Instrument
Instrumental
Instruments
Int
Integ
Integral
Integrated
Integrating
Integration
Intensity
Inter
Interaction
Interactions
Interest
Interesting
Interestingly
Interfer
Interferometer
Interim
Interior
Interiors
Intermediate
Intern
Internal
International
Interp
Interplanetary
Interpretation
Interstellar
Intr
Intrinsic
Introducing
Introduction
Inver
Inverse
Inversion
Investig
Investigation
Investigations
Io
Ion
Ionization
Ionosphere
Ionospheric
Ions
Ip
Ir
Iran
Irel
Ireland
Iron
Irradi
Irwin
Is
Isa
Ish
Isid
Isidis
Island
Islands
Iso
Isot
Isotope
Isotopic
Israel
Iss
It
Ital
Italian
Italy
Ito
Itokawa
Its
Iv
Ivan
Ivanov
Ivezic
Ivison
Iw
Iz
Izotov
I±
J
J0
J00
J03
J04
J05
J06
J07
J08
J09
J1
J10
J11
J12
J13
J14
J15
J16
J17
J18
J19
J2
J20
J2000
J22
J23
JA
JAC
JAN
JB
JCMT
JD
JE
JET
JF
JH
JHK
JJ
JJA
JK
JO
JOH
JOHNS
JONES
JPL
JR
JS
JSC
JV
JW
JWST
Ja
Jac
Jack
Jackson
Jacob
Jacobi
Jacobian
Jacobson
Jaffe
Jager
Jain
Jak
James
Jan
Janka
January
Jap
Japan
Japanese
Jar
Jarvis
Jason
Java
Je
Jean
Jeans
Jeff
Jeffer
Jen
Jenkins
Jenn
Jensen
Jer
Jet
Jewitt
Ji
Jiang
Jicam
Jicamarca
Jim
Jimenez
Jin
Jing
Jo
Joh
Johansen
John
Johns
Johnson
Johnston
Johnstone
Joint
Jok
Jokipii
Jon
Jones
Jong
Jord
Jordan
Jose
Joseph
Joule
Journal
Jovian
Joy
Jr
Ju
Juan
Jud
Jul
Julian
July
Jun
June
Jung
Juno
Jup
Jupiter
Jupiters
Jur
Jura
Jurassic
Just
Jy
Jø
Jørgensen
K
K0
K1
K2
K20
K3
K5
KA
KAW
KB
KBO
KBOs
KC
KCl
KD
KE
KELT
KF
KG
KH
KHI
KI
KIC
KIN
KING
KK
KL
KM
KN
KO
KOI
KP
KPNO
KR
KREEP
KS
KT
KV
KW
Ka
Kah
Kahler
Kaiser
Kal
Kall
Kalman
Kalu
Kaluza
Kam
Kami
Kamiokande
Kan
Kanamori
Kane
Kang
Kap
Kaplan
Kar
Karachent
Karachentsev
Karato
Karl
Kas
Kasen
Kash
Kaspi
Kast
Kasting
Kat
Kato
Katz
Kau
Kauf
Kauff
Kauffmann
Kaufman
Kav
Kaw
Kay
Kaz
Ke
Kea
Keck
Keeping
Keil
Kel
Kell
Keller
Kelley
Kelly
Kelvin
Kemp
Ken
Kend
Kendall
Kenn
Kennedy
Kennett
Kennic
Kennicutt
Kent
Kenyon
Kep
Kepler
Keplerian
Ker
Kern
Kerr
Kes
Kew
Kewley
Key
Kh
Ki
KiDS
Kie
Kil
Kilauea
Killing
Kim
Kimura
Kin
Kine
Kinema
Kinematic
Kinematics
Kinetic
King
Kingdom
Kir
Kirby
Kirk
Kirkpatrick
Kis
Kiss
Kit
Kitt
Kiv
Kivelson
Kj
Kl
Kle
Klein
Klessen
Klim
Klis
Klu
Kly
Klypin
Km
Kn
Kne
Knowing
Knowledge
Knud
Knudsen
Ko
Kob
Kobayashi
Koch
Kochanek
Kod
Kodama
Koen
Koester
Koh
Kohl
Kok
Kol
Kolb
Kolmog
Kolmogorov
Kom
Komatsu
Kon
Kong
Koop
Kop
Kopp
Kor
Kore
Korea
Korm
Kormendy
Kos
Kot
Kou
Kov
Kow
Koyama
Koz
Kozai
Kp
Kr
Kra
Kraft
Kram
Kramer
Kras
Krasn
Kraus
Krause
Krav
Kravtsov
Kre
Kris
Krish
Krist
Kro
Krolik
Kron
Krot
Kroupa
Kru
Krum
Krumholz
Ks
Ku
Kub
Kuiper
Kul
Kulkarni
Kumar
Kun
Kund
Kur
Kurtz
Kurucz
Kus
Kush
Kutta
Kuz
Kw
Ky
Kyoto
Kα
L
L0
L1
L11
L14
L15
L16
L2
L3
L4
L5
L6
L7
L9
LA
LAB
LAE
LAEs
LAM
LAMOST
LAN
LANL
LAP
LAR
LAS
LASCO
LAT
LB
LBG
LBGs
LBH
LBV
LBVs
LC
LCP
LCs
LD
LDA
LE
LED
LEO
LEP
LER
LES
LET
LETT
LETTERS
LEW
LF
LFM
LFs
LG
LGM
LGR
LGRBs
LGS
LH
LHC
LHS
LI
LIGHT
LIGO
LIM
LIN
LINE
LINEAR
LINER
LINERs
LIRGs
LIS
LISA
LISM
LK
LL
LLAG
LLBL
LLS
LM
LMC
LMXB
LMXBs
LN
LO
LOC
LOF
LOFAR
LONG
LOS
LOW
LP
LQ
LQC
LQG
LR
LREE
LRG
LRGs
LRIS
LRS
LS
LSB
LSD
LSF
LSP
LSR
LSS
LSST
LST
LT
LTE
LU
LV
LVG
LW
LY
LZ
La
Lab
Labor
Laboratory
Labrad
Labrador
Lac
Lacey
Lacs
Lacy
Lad
Lada
Laf
Lag
Lagr
Lagrang
Lagrange
Lagrangian
Lagrangians
Lah
Lai
Lake
Lal
Lam
Lamb
Lambert
Lamers
Lan
Lanc
Land
Landau
Lander
Landi
Landolt
Landsat
Lane
Lang
Lange
Langer
Langmuir
Lanz
Laor
Lap
Lapl
Laplace
Laplacian
Lar
Large
Larger
Larm
Larmor
Lars
Larsen
Larson
Las
Laser
Lask
Laskar
Last
Lastly
Lat
Late
Later
Latin
Latitude
Lau
Lauer
Laur
Laure
Lauren
Lav
Law
Lawrence
Lay
Layer
Laz
Lazarian
Le
Lead
Leahy
Leb
Lec
Led
Lee
Leeu
Leeuwen
Left
Leg
Legacy
Legendre
Leh
Lehner
Leib
Leither
Leitherer
Lem
Lemaitre
Lemma
Length
Lens
Lensing
Leo
Leon
Leonard
Lep
Leroy
Les
Less
Let
Lett
Letter
Letters
Lev
Level
Leven
Levenberg
Levi
Levin
Levison
Levy
Lew
Lewis
Li
Liang
Lib
Library
Lick
Lid
Lie
Lif
Life
Lifshitz
Light
Lik
Like
Likewise
Lilly
Lim
Limits
Lin
Lind
Lindbl
Lindblad
Line
Linear
Lines
Ling
Link
Liou
Liouville
Lip
Liqu
Liquid
Lis
Liss
Lissauer
List
Lit
Literature
Lith
Little
Liu
Liv
Liver
Living
Livio
Lk
Ll
Llo
Lloyd
Lo
Lob
Local
Location
Locations
Lock
Lockman
Lockwood
Lod
Lodders
Loeb
Log
Loh
Lomb
Lon
Lond
London
Long
Longitude
Looking
Loop
Lope
Lopez
Lor
Lore
Loren
Lorentz
Lorentzian
Lorenz
Lorimer
Los
Loss
Lou
Louis
Lov
Love
Lovelock
Low
Lower
Ls
Ltd
Lu
Lub
Lubow
Luc
Lucas
Luce
Lucia
Luck
Lucy
Lud
Lug
Luhman
Lumin
Luminosity
Lun
Luna
Lunar
Lund
Luo
Lup
Lupus
Lutz
Ly
LyC
Lyapunov
Lyman
Lyn
Lynden
Lyne
Lyon
Lyons
Lyot
Lyr
Lyrae
Lyα
Lyβ
M
M0
M1
M10
M101
M13
M15
M17
M2
M3
M31
M32
M33
M4
M5
M51
M6
M67
M7
M8
M81
M82
M83
M87
M9
MA
MAC
MACHO
MACS
MAD
MAG
MAGIC
MAGNET
MAGNETIC
MAL
MAM
MAN
MAP
MAR
MARS
MARSIS
MAS
MASS
MAST
MAT
MAVEN
MAX
MAXI
MAY
MB
MBH
MBHs
MC
MCC
MCD
MCG
MCMC
MCP
MCS
MCs
MD
MDF
MDI
ME
MEAS
MEASURE
MEASUREMENTS
MED
MEG
MEM
MER
MERLIN
MERRA
MES
MESA
MESS
MESSENGER
MET
METH
METHOD
METHODS
MEX
MF
MFR
MFs
MG
MGS
MH
MHD
MHz
MI
MIC
MID
MIL
MILES
MILL
MIN
MIP
MIPS
MIR
MIS
MIT
MJ
MJD
MJO
MJy
MK
ML
MLAT
MLD
MLR
MLS
MLT
MM
MM1
MMC
MMR
MMRs
MMS
MMT
MN
MNR
MNRAS
MO
MOA
MOC
MOD
MODEL
MODELS
MODIS
MOLA
MON
MOND
MOR
MORB
MOS
MOS1
MOS2
MOST
MOT
MP
MPA
MPC
MPI
MPa
MR
MRC
MRI
MRO
MS
MSE
MSIS
MSL
MSO
MSP
MSPs
MSS
MSSM
MST
MSTIDs
MSTO
MSW
MSWD
MSX
MT
MU
MULT
MUR
MUS
MUSE
MV
MVA
MW
MWA
MWC
MY
MZ
MZR
Ma
MaNGA
Mac
MacD
MacDonald
MacL
Mach
Mack
Mackey
Mad
Madau
Maeda
Maeder
Mag
Magell
Magellan
Magellanic
Magn
Magnet
Magneti
Magnetic
Magnetospheric
Magnitude
Magnitudes
Mah
Main
Maiol
Maiolino
Maj
Majewski
Major
Majorana
Mak
Making
Makino
Mal
Malhotra
Malin
Mall
Malm
Mam
Mamajek
Man
Manc
Manchester
Mand
Mandel
Mang
Mann
Mannucci
Mant
Mantle
Many
Mao
Map
Mapping
Maps
Mar
Maraston
Marc
March
Marconi
Marcy
Mare
Marel
Marg
Marginal
Mari
Mariana
Marigo
Marin
Marine
Mariner
Marineris
Marino
Mark
Markevitch
Markov
Marqu
Marquardt
Mars
Marsh
Marshall
Mart
Marti
Martian
Martin
Martine
Martinez
Martins
Mary
Maryland
Marz
Mas
Mason
Mass
Massachusetts
Masses
Massey
Massif
Massive
Mast
Masters
Mat
Mate
Mateo
Material
Materials
Math
Mathe
Mathema
Mathews
Mathis
Matrix
Mats
Matsu
Matsum
Matsumoto
Matt
Matte
Matteo
Matter
Matteucci
Matth
Matthe
Matthews
Mau
Mauna
Maur
Max
Maximum
Maxwell
Maxwellian
May
Mayer
Mayor
Maz
Mazz
Mb
Mc
McC
McCarthy
McCl
McClintock
McComas
McConn
McD
McDonald
McE
McEl
McEwen
McG
McGaugh
McI
McInt
McK
McKay
McKee
McKenzie
McKinney
McL
McLaughlin
McLure
McM
McMillan
McN
McNamara
McQu
McQuinn
McS
McSween
McW
McWilli
Me
MeV
Mead
Mean
Meanwhile
Meas
Measure
Measured
Measurement
Measurements
Measuring
Mech
Mechan
Mechanisms
Med
Median
Mediter
Mediterranean
Medium
Meeting
Meg
Mega
Meier
Mel
Mell
Melosh
Melt
Melting
Mem
Member
Members
Men
Mend
Mendez
Meng
Ment
Mer
Merc
Mercury
Merg
Merid
Meridiani
Merl
Merloni
Merr
Merritt
Mes
Mesozoic
Mess
Meszaros
Met
Metal
Metall
Metallicity
Metamorph
Metcal
Meteor
Meteorite
Meteorites
Meteoritics
Meteorological
Meth
Methane
Method
Methodology
Methods
Metrop
Metz
Metzger
Mex
Mexico
Mey
Meyer
Meynet
Mg
MgO
MgSiO
Mi
Mic
Mich
Michael
Michel
Michelson
Michigan
Micro
Micron
Microwave
Mid
Midd
Middle
Mie
Mig
Mign
Mih
Mihalas
Mihos
Mik
Mil
Milky
Mill
Millennium
Miller
Millimeter
Mills
Millstone
Milne
Mim
Mimas
Min
Mine
Miner
Mineral
Mineralog
Mineralogy
Minerals
Mines
Mini
Minimum
Ministry
Mink
Minkowski
Minn
Minor
Miocene
Mir
Mira
Mirabel
Miral
Miralda
Miras
Mis
Mish
Misner
Miss
Mission
Mississi
Mississippi
Mit
Mitchell
Mix
Mixing
Miy
Miz
Ml
Mm
Mn
MnO
Mo
Mob
Mod
Mode
Model
Modeled
Modeling
Modelling
Models
Modern
Modified
Moff
Moffat
Moh
Moho
Mohr
Mol
Molecular
Molnar
Mom
Mon
Monaghan
Mong
Monitor
Monitoring
Mons
Mont
Monte
Monter
Montes
Montg
Month
Monthly
Moon
Moore
Mor
Moral
Morales
Moran
Morbid
Morbidelli
More
Moreno
Moreover
Morgan
Mori
Morph
Morphology
Morris
Morrison
Morse
Morton
Mos
Mosc
Moscow
Moss
Mossbauer
Most
Mot
Motion
Motivated
Mott
Mou
Mount
Mountain
Mountains
Mous
Moving
Mpc
Mr
Mrk
Ms
Mt
Mu
Much
Mueller
Muk
Mul
Mull
Muller
Multi
Multip
Multiple
Mun
Munoz
Mur
Murch
Murchison
Murphy
Murray
Mus
Museum
Mush
Mushotzky
Mut
Mw
Mx
My
Myers
Myr
N
N0
N1
N2
N3
N4
NA
NAC
NAD
NAG
NAL
NAM
NAO
NAS
NASA
NAT
NB
NBS
NC
NCAR
NCC
NCEP
ND
NDVI
NE
NEA
NEAR
NEAs
NEC
NED
NEO
NEOs
NEP
NEU
NEUTR
NEW
NF
NFW
NG
NGC
NH
NH3
NI
NIC
NICER
NICMOS
NIR
NIRSPEC
NIST
NJ
NL
NLC
NLF
NLFFF
NLR
NLS
NLS1
NLS1s
NLT
NLTE
NM
NMR
NN
NNN
NO
NOAA
NON
NOR
NOT
NP
NR
NRAO
NRL
NRLMS
NRM
NS
NSC
NSE
NSF
NSs
NT
NTT
NU
NUC
NUCLE
NUM
NUMBER
NUMERICAL
NUT
NUV
NV
NVSS
NW
NWA
NY
NZ
Na
NaCI
NaCl
NaI
NaOH
Naab
Nag
Nagai
Nagy
Nak
Nakajima
Nakamura
Nam
Namb
Name
Namely
Nan
Nandra
Nano
Nap
Nar
Narayan
Narrow
Nat
National
Natural
Naturally
Nature
Nau
Nav
Naval
Navarro
Navier
Nay
Naz
Nazca
Nb
Nd
Ne
Near
Nearby
Nearly
Neb
Nebula
Neg
Negative
Negl
Neglecting
Neil
Neill
Neither
Nel
Nelson
Nem
Neogene
Neoproterozoic
Nep
Nept
Neptun
Neptune
Nes
Ness
Nesv
Nesvorny
Net
Nether
Netherlands
Network
Netzer
Neu
Neuk
Neumann
Neut
Neutral
Neutrino
Neutron
Nev
Nevada
Never
Nevertheless
New
Newman
Newton
Newtonian
Next
Ng
Ni
NiO
Nic
Nich
Nichol
Nicholson
Nicol
Nielsen
Night
Nik
Nina
Nine
Nino
Nish
Nishi
Nit
Nitrogen
Nm
NmF2
No
Noachian
Nob
Noble
Noether
Nog
Noise
Nol
Nom
Nomoto
Non
None
Nonetheless
Nonlinear
Nor
Nord
Nordlund
Nordstrom
Norm
Normal
Normalized
Norman
Norris
Nort
North
Northeast
Northern
Northwest
Norway
Norwegian
Nos
Not
Notably
Note
Notes
Notice
Noting
Nov
Nova
November
Now
Nowak
Np
Nr
Ns
Nu
NuSTAR
Nuc
Nucl
Nucle
Nuclear
Nuclei
Num
Number
Numbers
Numer
Numerical
Numerous
Ny
Nyquist
O
O0
O1
O2
O3
O4
O9
OA
OB
OB1
OB2
OBS
OBSERV
OBSERVATIONS
OC
OCE
OCS
OCs
OD
ODE
ODP
OE
OF
OFF
OG
OGLE
OH
OI
OIB
OIII
OJ
OK
OL
OLR
OM
OMC
OME
OMEGA
OMNI
ON
ONC
ONe
OO
OP
OPAL
OPT
OPTICAL
OR
ORB
ORBIT
OS
OSC
OSIRIS
OSS
OT
OU
OUT
OV
OW
OX
OZ
Oa
Ob
Ober
Object
Objects
Obs
ObsID
Obser
Observ
Observation
Observational
Observationally
Observations
Observatories
Observatory
Observed
Observing
Obtain
Obvious
Obviously
Oc
Occ
Occur
Occurrence
Oce
Ocean
Oceanic
Oceans
Oct
October
Od
Odys
Odyssey
Oe
Oeochim
Of
Off
Office
Often
Og
Ogil
Ogilvie
Oh
Ohm
Ohmic
Oi
Ok
Oke
Ol
Old
Olig
Oligocene
Oliv
Olive
Oliveira
Oliver
Olivine
Olsen
Olson
Oly
Olymp
Olympus
Om
Oman
On
Once
One
Online
Only
Ont
Ontario
Oo
Oort
Ooster
Op
Open
Oper
Oph
Ophi
Ophiuchus
Opp
Oppenheimer
Opportun
Opportunity
Opt
Optical
Optics
Optim
Or
Orbit
Orbital
Orbiter
Orbits
Ord
Order
Ordovician
Oregon
Org
Organ
Organic
Orgueil
Ori
Orient
Orientale
Orig
Origin
Origins
Orion
Orionis
Orogen
Orth
Os
Oscill
Oscillation
Oscillations
Ost
Oster
Osterbrock
Ostriker
Ot
Other
Others
Otherwise
Ott
Ou
Ouchi
Our
Out
Outer
Outflow
Outside
Over
Overall
Overl
Overplotted
Overview
Ow
Owen
Owens
Owing
Ox
Oxford
Oxygen
Oz
Ozone
P
P0
P1
P2
P3
P4
P5
PA
PAC
PACS
PAD
PAH
PAHs
PAL
PAM
PAMELA
PAN
PAR
PARAM
PARAMETERS
PARTIC
PAS
PASP
PAT
PB
PBH
PBHs
PBL
PC
PC1
PCA
PCs
PD
PDF
PDFs
PDM
PDO
PDR
PDRs
PDS
PE
PER
PES
PET
PF
PFS
PFSS
PG
PGC
PGE
PH
PHASE
PHOT
PHOTOMETR
PHYS
PHYSICS
PI
PIC
PIL
PIN
PIS
PJ
PK
PKP
PKS
PL
PLAN
PLANET
PM
PMC
PMS
PMSE
PMT
PMTs
PN
PNS
PNe
PNs
PO
POC
POD
POES
POL
POLAR
POP
POSS
POT
POW
PP
PPM
PPN
PPO
PPP
PQ
PR
PRE
PREM
PRO
PROC
PROPER
PROPERTIES
PS
PS1
PSBL
PSC
PSD
PSDs
PSF
PSFs
PSP
PSPC
PSR
PSRs
PT
PTA
PTF
PU
PUI
PV
PW
PWN
PWNe
PWV
PY
PZ
Pa
Pac
Pacific
Pack
Paczynski
Pad
Padman
Padmanabhan
Padoan
Padova
Padovani
Pag
Page
Pagel
Pair
Pak
Pal
Palae
Palaeozoic
Palatini
Pale
Paleo
Paleocene
Paleozoic
Palma
Palme
Palmer
Palomar
Pan
Panc
Pancam
Pand
Panel
Panels
Pant
Pap
Papad
Papalo
Papaloizou
Paper
Papers
Par
Parallel
Paramet
Parameter
Parameters
Paranal
Paris
Park
Parker
Parkes
Pars
Parsons
Part
Partial
Particle
Particles
Particular
Particularly
Partition
Pas
Pasc
Paschen
Pass
Past
Pat
Pater
Patera
Path
Pathfinder
Pattern
Patterson
Paul
Pauli
Pav
Pavlov
Pay
Payne
Pb
Pc
Pc5
Pd
Pe
PeV
Peacock
Peak
Pear
Pearce
Pearson
Pec
Ped
Pedersen
Pee
Peebles
Peg
Peimbert
Pel
Peltier
Pen
Peng
Peninsula
Penn
Penns
Pennsylvan
Penrose
Per
Perc
Percent
Percentage
Percival
Pere
Perez
Perform
Performance
Performing
Perg
Pergamon
Perhaps
Period
Periodic
Periods
Perley
Perm
Permian
Pern
Perot
Perry
Pers
Perse
Perseus
Perturb
Peru
Pes
Pet
Peter
Peters
Peterson
Petit
Petro
Petrol
Petrosian
Petrov
Pettini
Pf
Pg
Ph
PhD
Phan
Phanerozoic
Phase
Phases
Phen
Phenomen
Phil
Philipp
Philippine
Phill
Phillips
Phobos
Phoenix
Phosph
Phot
Photo
Photometric
Photometry
Photon
Phy
Phys
PhysR
PhysRev
PhysRevC
PhysRevD
Physi
Physical
Physically
Physics
Pi
Pi2
Pic
Pich
Pick
Pier
Pierre
Piet
Pieters
Pil
Pin
Pine
Pioneer
Pip
Pir
Piran
Pis
Pit
Pl
Plag
Plagioclase
Plain
Plains
Plan
Planck
Planckian
Plane
Planet
Planetary
Planets
Plani
Planitia
Plant
Planum
Plas
Plasma
Plat
Plate
Plateau
Ple
Please
Plei
Pleiades
Pleistocene
Pliocene
Plot
Plots
Plotted
Plu
Plummer
Pluto
Pm
Pn
Po
Pod
Podsi
Podsiad
Podsiadlowski
Pog
Poinc
Poincare
Point
Points
Poisson
Poissonian
Pol
Polar
Polarization
Pole
Poll
Pollack
Poly
Pon
Ponman
Pont
Ponti
Pop
Population
Por
Pore
Port
Portegies
Porter
Posi
Position
Positions
Positive
Possi
Possible
Post
Poster
Pot
Potential
Potter
Pou
Pow
Powell
Power
Poyn
Poynting
Pr
Pra
Prad
Praes
Praesepe
Prand
Prandtl
Pratt
Pre
Prec
Precambrian
Precipitation
Precise
Precision
Predic
Predicted
Prediction
Predictions
Prel
Prelim
Preliminary
Pres
Present
Press
Pressure
Prest
Previous
Previously
Pri
Price
Priest
Prieto
Prim
Primary
Prin
Princ
Princeton
Princip
Principal
Pring
Pringle
Printed
Prior
Prit
Pro
Prob
Probability
Probably
Probe
Probes
Proble
Problems
Proc
Procedure
Proceed
Proceedings
Process
Processes
Processing
Proch
Prochaska
Produc
Production
Prof
Professor
Profile
Profiles
Prog
Program
Programme
Project
Projected
Prom
Proof
Prop
Propag
Propagation
Proper
Properties
Proposition
Propulsion
Prosp
Prot
Proterozoic
Proton
Prov
Provided
Province
Proxim
Proxima
Ps
Psc
Pseud
Pt
Pu
Pub
Publ
Public
Published
Publishers
Publishing
Pudritz
Pug
Pul
Puls
Pulsar
Pulse
Pup
Pur
Pure
Put
Putting
Py
Pyren
Pyroxene
Python
Q
Q0
Q1
Q2
QBO
QC
QCD
QD
QE
QED
QFT
QG
QM
QN
QNM
QNMs
QP
QPO
QPOs
QR
QS
QSO
QSOs
QU
QUE
Qi
Qian
Qin
Qu
Quad
Qual
Qualit
Qualitatively
Quan
Quanti
Quantit
Quantitative
Quantum
Quartz
Quas
Quasar
Quasars
Quasi
Quata
Quataert
Quaternary
Que
Quinn
R
R1
R2
R3
R4
RA
RAD
RADI
RAM
RAN
RASS
RAT
RATE
RAVE
RAY
RB
RBS
RBSP
RC
RC3
RCB
RCM
RCP
RCS
RCW
RD
RE
REC
RED
REDUCTION
REE
REEs
REF
REFERENC
REFERENCES
REG
REL
REM
RES
RESULT
RESULTS
REV
RF
RFI
RFs
RG
RGB
RGS
RGs
RH
RHE
RHESSI
RHS
RI
RING
RK
RL
RLOF
RM
RMF
RMS
RMSE
RMs
RN
RO
ROC
ROI
ROS
ROSAT
ROT
RP
RPI
RQ
RR
RRL
RRLs
RRab
RRc
RS
RSD
RSG
RSGs
RSL
RSS
RT
RU
RV
RVs
RW
RX
RXTE
RY
RZ
Ra
Rab
Rad
Radar
Radi
Radial
Radiation
Radiative
Radio
Radius
Raf
Rag
Rah
Rain
Raj
Ram
Raman
Ramirez
Ramos
Ran
Rand
Randall
Random
Range
Ranges
Rank
Rankin
Rao
Rapid
Rapp
Rappaport
Rare
Ras
Rate
Rates
Rather
Rati
Ratio
Ratios
Rau
Rauch
Rav
Raw
Ray
Rayet
Rayleigh
Raymond
Rays
Rb
Re
Reaction
Reactions
Read
Real
Reb
Rec
Recall
Rece
Received
Receiver
Recent
Recently
Recon
Reconnaissance
Reconnection
Reconstruction
Recovery
Red
Reddy
Redsh
Redshift
Reduc
Reduced
Reduction
Ree
Reed
Rees
Reeves
Ref
Refer
Reference
References
Refl
Reflect
Reflection
Refs
Reg
Regard
Regarding
Regardless
Regge
Region
Regional
Regions
Regression
Reich
Reid
Reidel
Reim
Rein
Reip
Reipurth
Reissner
Rel
Related
Relation
Relations
Relationship
Relative
Relatively
Relativistic
Relativity
Release
Rem
Remark
Remarkably
Remillard
Remote
Ren
Renz
Renzini
Rep
Repe
Repl
Report
Reports
Represent
Representative
Republic
Res
Research
Residual
Residuals
Resolution
Resources
Resp
Response
Rest
Results
Ret
Rev
Rever
Review
Reviews
Revised
Reyk
Reykj
Reyn
Reynolds
Rh
Rhe
Rhea
Rho
Ri
Rib
Ric
Ricci
Rice
Rich
Richard
Richards
Richardson
Richmond
Richter
Rick
Rid
Ridge
Rie
Rieke
Riemann
Riemannian
Ries
Riess
Rift
Rig
Right
Riley
Rindler
Ring
Ringwood
Rio
Rip
Rise
Riv
River
Rix
Rm
Rn
Ro
Rob
Robert
Roberts
Robertson
Robin
Robinson
Roc
Roche
Rock
Rocks
Rod
Rodrig
Rodriguez
Rog
Rogers
Rol
Role
Rom
Roman
Romani
Romano
Rome
Ros
Rose
Rosen
Rosetta
Ross
Rossby
Rosseland
Rossi
Rot
Rotation
Rotational
Roth
Rou
Rough
Roughly
Rover
Row
Rowan
Rowe
Roy
Royal
Roz
Rs
Ru
Rub
Rubin
Rud
Ruderman
Rudnick
Ruff
Ruiz
Run
Runge
Runs
Rup
Rus
Russ
Russell
Russia
Russian
Rut
Ry
Ryan
Ryb
Rybicki
Ryd
Rydberg
Ryu
S
S0
S0s
S1
S10
S11
S2
S3
S4
S5
S6
S7
S8
S9
SA
SAA
SAB
SABER
SAF
SAGE
SAL
SAM
SAMI
SAMPLE
SAMs
SAO
SAPS
SAR
SAS
SASI
SAT
SAURON
SAX
SB
SBF
SBH
SBS
SC
SCAL
SCAT
SCH
SCHM
SCI
SCR
SCS
SCUBA
SCs
SD
SDO
SDSS
SE
SEC
SED
SEDs
SEE
SEG
SEGUE
SELE
SELECTION
SEM
SEP
SEPs
SER
SET
SExtractor
SF
SFD
SFE
SFGs
SFH
SFHs
SFR
SFRD
SFRs
SG
SGB
SGR
SGRBs
SGRs
SGS
SH
SHAR
SHE
SHM
SI
SIC
SIDM
SIE
SIG
SIL
SIM
SIMBA
SIMBAD
SIMS
SIMUL
SIMULATIONS
SIN
SINF
SINFONI
SING
SIR
SIRM
SIS
SIT
SJ
SK
SKA
SKR
SKS
SL
SLA
SLP
SLR
SLS
SLSNe
SM
SMA
SMBH
SMBHs
SMC
SME
SMF
SMG
SMGs
SMITH
SMM
SMS
SN
SN19
SNII
SNIa
SNLS
SNR
SNRs
SNe
SO
SOC
SOD
SOF
SOHO
SOI
SOL
SOLAR
SOM
SON
SOUR
SOURCE
SP
SPA
SPACE
SPE
SPEC
SPECTR
SPECTRA
SPECTRAL
SPECTRUM
SPH
SPHERE
SPI
SPIC
SPIRE
SPL
SPM
SPS
SPT
SQ
SR
SRM
SS
SSA
SSB
SSC
SSCs
SSE
SSFR
SSH
SSI
SSM
SSN
SSP
SSPs
SSS
SST
SSTs
SSW
ST
STA
STAR
STARRS
STARS
STAT
STD
STE
STELLAR
STER
STEREO
STIS
STP
STR
STRUCT
STRUCTURE
STS
STU
SU
SUB
SUM
SUMER
SUMM
SUMMARY
SUMSS
SUN
SUP
SUR
SURF
SUSY
SV
SVD
SVM
SW
SWE
SWIRE
SWS
SX
SXR
SXT
SY
SYM
SYST
SYSTEM
SZ
SZA
SZE
Sa
Sab
Sachs
Sad
Saf
Sag
Sagitt
Sagittarius
Sah
Saha
Sahara
Saito
Sak
Sakai
Sal
Salp
Salpeter
Salt
Salv
Sam
Same
Sample
Samples
Sampling
San
Sanchez
Sand
Sandage
Sanders
Sant
Santa
Santos
Sao
Sar
Sarazin
Sarg
Sargent
Sari
Sasaki
Sat
Satellite
Satellites
Sato
Saturn
Saturnian
Sau
Saunders
Sav
Savage
Saw
Sb
Sc
Scal
Scale
Scaling
Scalo
Scand
Scandinav
Scannap
Scannapieco
Scanning
Scargle
Scatter
Scattering
Scenari
Scenario
Sch
Scha
Schae
Schaefer
Schaerer
Schaye
Sche
Schechter
Schematic
Schen
Scher
Schild
Schl
Schlaf
Schlafly
Schle
Schlegel
Schm
Schmidt
Schmitt
Schn
Schne
Schneider
Scho
Schol
Scholz
Schon
School
Schr
Schre
Schreiber
Schrijver
Schro
Schrodinger
Schu
Schubert
Schul
Schult
Schultz
Schulz
Schw
Schwar
Schwartz
Schwarz
Schwarzschild
Schwe
Schwing
Schwinger
Sci
Science
Sciences
Scientific
Scl
Sco
Scocc
Scoccim
Scoccimarro
Scotland
Scott
Scoville
Sct
Scul
Sculptor
Scuti
Sd
Se
Sea
Seager
Seam
Sear
Search
Seas
Seasonal
Sec
Second
Secondary
Secondly
Secs
Sect
Section
Sections
Sects
Sed
Sediment
Sedimentary
Sedov
See
Seg
Sei
Seism
Seismic
Sel
Selected
Selection
Self
Seljak
Sell
Sellwood
Sem
Sembach
Sen
Sensi
Sensing
Sensitivity
Sensor
Sep
Separ
Separation
Sept
September
Sequ
Sequence
Ser
Series
Serp
Serpens
Serra
Sersic
Serv
Service
Ses
Set
Sets
Setting
Seven
Sever
Several
Sext
Sextans
Sey
Seyfer
Seyfert
Seyferts
Sge
Sgr
Sh
Shaded
Shah
Shakura
Shal
Shale
Shallow
Shan
Shank
Shannon
Shap
Shape
Shapiro
Shapley
Shar
Sharma
Sharp
Shaw
She
Shear
Shearer
Sheet
Shel
Shelf
Shell
Shem
Shen
Shepherd
Sher
Shet
Sheth
Shi
Shib
Shibata
Shield
Shields
Shim
Shk
Sho
Shock
Shoemaker
Short
Show
Showman
Shown
Shu
Shuk
Shull
Shuttle
Si
Si02
SiC
SiO
Sib
Siber
Siberia
Siberian
Sid
Sie
Sier
Sierra
Siess
Sig
Sign
Signal
Signific
Significant
Sik
Sil
Silic
Silicate
Silk
Silla
Silurian
Silva
Silver
Sim
Similar
Similarly
Simon
Simons
Simp
Simple
Simpson
Simulated
Simulation
Simulations
Simultaneous
Sin
Since
Sing
Singer
Singh
Single
Siri
Sit
Site
Sites
Sitter
Six
Size
Sk
Skill
Skillman
Skin
Skr
Skrutskie
Sky
Skyrme
Sl
Sle
Slo
Sloan
Slope
Slow
Sm
Smail
Small
Smaller
Smart
Smir
Smirnov
Smith
Smithson
Smithsonian
Smooth
Sn
Snapsh
Sned
Sneden
Snell
Snow
Snyder
So
Sob
Sobolev
Soc
Society
Sod
Soder
Soderblom
Sof
Soft
Software
Soil
Sok
Soker
Sokol
Sol
Solar
Solid
Solomon
Solution
Solutions
Solving
Som
Some
Somerville
Sometimes
Sommer
Sommerfeld
Son
Song
Sor
Sou
Sound
Sour
Source
Sources
Sout
South
Southeast
Southern
Southwest
Sovi
Soviet
Sp
Space
Spacecraft
Spain
Span
Sparks
Spati
Spatial
Spatially
Spe
SpeX
Spear
Spearman
Spec
Special
Species
Specific
Specifically
Spect
Spectra
Spectral
Spectrograph
Spectromet
Spectrometer
Spectrosc
Spectroscopic
Spectroscopy
Spectrum
Speed
Spencer
Sper
Spergel
Spherical
Spi
Spin
Spir
Spiral
Spirit
Spit
Spitzer
Spl
Spot
Spread
Spring
Springel
Springer
Spruit
Spur
Sq
Squ
Square
Sr
St
Stability
Stable
Stacey
Stack
Stage
Stan
Standard
Standards
Stanford
Star
Starburst
Stard
Stardust
Stark
Starob
Starobinsky
Stars
Starting
State
States
Station
Stations
Statis
Statistical
Statistics
Stau
Ste
Steady
Stef
Stefan
Steff
Steidel
Stein
Steiner
Steinmetz
Stellar
Step
Stephen
Ster
Stern
Stetson
Stev
Stevens
Stevenson
Stew
Stewart
Sti
Stic
Still
Sto
Stock
Stokes
Stol
Stone
Stor
Store
Storey
Storm
Str
Stra
Strait
Strat
Strateg
Stratig
Strauss
Stre
Stream
Strehl
Streng
Stress
Stri
Strict
Strictly
Strip
Stripe
Stro
Strohm
Strohmayer
Strom
Stromgren
Stron
Strong
Struct
Structural
Structure
Structures
Stu
Stud
Student
Studies
Study
Studying
Su
Sub
Subaru
Submill
Submillimeter
Subs
Subsequent
Subsequently
Substit
Substituting
Substorm
Subt
Such
Sud
Sug
Sul
Sulf
Sulfur
Sullivan
Sum
Sumatra
Summ
Summar
Summary
Summer
Sun
Sund
Sunyaev
Sup
Super
SuperDARN
Supernova
Supernovae
Superp
Supp
Suppl
Supplement
Supplemental
Supplementary
Support
Supporting
Suppose
Suprime
Sur
Surface
Surprisingly
Surv
Surve
Survey
Surveyor
Surveys
Sus
Sut
Suther
Sutherland
Suz
Suzaku
Suzuki
Sv
Sval
Svalbard
Sver
Sw
Swarm
Swe
Swed
Sweden
Swift
Swiss
Switzer
Switzerland
Sy
Sym
Symb
Symbols
Symmet
Symp
Symposium
Syn
Synchrotron
Synt
Synthesis
Synthetic
Syr
Syrtis
System
Systematic
Systems
Sz
Szalay
T
T0
T1
T2
T3
T4
T5
T9
TA
TAB
TABLE
TAR
TAYL
TAYLOR
TB
TC
TCs
TD
TDE
TDEs
TE
TEC
TECU
TEM
TEMPER
TEMPERATURE
TER
TES
TESS
TEX
TF
TFR
TG
TGF
TGFs
TH
THE
THEMIS
THEOR
THEORY
THERM
THOM
TI
TIC
TID
TIDs
TIE
TIEGCM
TIM
TIME
TIMED
TIMS
TIR
TJ
TL
TLE
TM
TMC
TN
TNG
TNO
TNOs
TO
TOA
TOC
TOF
TOI
TOT
TOV
TP
TPW
TR
TRACE
TRANS
TRAPP
TRAPPIST
TRGB
TRM
TRMM
TS
TSI
TT
TTV
TTVs
TU
TV
TW
TWA
TX
TY
TYC
TZ
Ta
Tab
Table
Table1
Table2
Tables
Tac
Tacconi
Tag
Tai
Taiwan
Tak
Takah
Takahashi
Take
Takeda
Taken
Taking
Tal
Tam
Tan
Tanaka
Tang
Tar
Targ
Target
Tas
Tasman
Tau
Taur
Tauri
Taurus
Tav
Tay
Taylor
Tb
Tc
Te
TeV
Team
Tech
Techn
Techni
Technical
Techniques
Technology
Tect
Tecton
Tectonic
Tectonophysics
Tef
Teflon
Teg
Tegmark
Tel
Telescope
Telescopes
Temp
Tempel
Temperature
Temperatures
Temporal
Ten
Ter
Terlevich
Term
Terr
Terra
Terrestrial
Tertiary
Tes
Test
Testing
Tests
Tet
Tethys
Teuk
Teukolsky
Tex
Texas
Text
Teys
Teyssier
Tg
Th
Thanks
Tharsis
That
The
Their
Thellier
Then
Theore
Theorem
Theoretical
Theoretically
Theory
There
Therefore
Therm
Thermal
Thermo
Thermodynamic
Thermosphere
These
Thesis
They
Thi
Thick
Thickness
Thiel
Thin
Thir
Third
Thirdly
This
Thom
Thomas
Thomp
Thompson
Thomson
Thor
Thorne
Those
Though
Three
Through
Throughout
Thuan
Thus
Ti
TiO
Tian
Tib
Tibet
Tibetan
Tidal
Tielens
Til
Tim
Time
Times
Timing
Tin
Tinker
Tit
Titan
Tj
Tl
Tm
To
Tod
Today
Together
Toh
Tohoku
Tok
Tokyo
Tol
Tolman
Tom
Ton
Tong
Tonga
Tonry
Tool
Toom
Toomre
Top
Tor
Torm
Tormen
Torr
Torres
Tot
Total
Tout
Tow
Toward
Towards
Town
Towns
Tr
Tra
Trac
Trace
Track
Tradition
Tran
Trans
Transfer
Transform
Transi
Transient
Transit
Transition
Transitions
Transmission
Transport
Trap
Trapezium
Tre
Tree
Trem
Tremaine
Tremonti
Tren
Trench
Trends
Treu
Tri
Triang
Triassic
Trin
Trit
Triton
Tro
Troj
Trojan
Trojans
Trom
Troms
Tropical
Trough
Tru
True
Truj
Trujillo
Ts
Tsun
Tsur
Tsurutani
Tsyg
Tsyganenko
Tu
Tuc
Tucson
Tuff
Tully
Tun
Tur
Turb
Turbulence
Turbulent
Turc
Turcotte
Turkey
Turn
Turner
Turning
Tw
Twent
Twenty
Two
Ty
Tycho
Typ
Type
Types
Typical
Typically
Tyr
Tyrrhen
Tz
U
UB
UBV
UBVRI
UC
UCAC
UCD
UCDs
UCH
UCM
UD
UDF
UDGs
UDS
UF
UGC
UH
UHE
UHEC
UHECR
UHECRs
UHF
UHP
UI
UK
UKID
UKIDSS
UKIRT
UL
ULF
ULIRG
ULIRGs
ULX
ULXs
UM
UMa
UN
UO
UP
UPb
UR
US
USA
USGS
USNO
USS
USSR
UT
UTC
UV
UVB
UVES
UVI
UVIS
UVOT
UVW
Ud
Udalski
Ueda
Ul
Ultimately
Ultra
Ultraviolet
Ulysses
Um
Un
Unc
Uncertain
Uncertainties
Uncertainty
Und
Under
Understanding
Unfortunately
Uni
Uniform
Union
Unit
United
Units
Univ
Univers
Universal
Universe
Universit
Universities
University
Unless
Unlike
Unruh
Until
Up
Upon
Upper
Ur
Uran
Uranium
Uranus
Urry
Ursa
Us
Use
Used
User
Using
Usually
Ut
Utah
Util
V
V1
V10
V2
V3
V4
V40
V7
V8
VA
VAL
VAN
VARI
VB
VC
VCC
VDF
VE
VEL
VELOC
VELOCITY
VEN
VER
VERITAS
VEV
VF
VG
VH
VHE
VHF
VI
VII
VIII
VIMOS
VIMS
VIP
VIR
VIRGO
VIRTIS
VIS
VISTA
VL
VLA
VLBA
VLBI
VLF
VLT
VM
VN
VNIR
VO
VOL
VP
VR
VS
VT
VTEC
VUV
VV
VVV
VW
VY
Va
Vac
Vain
Vainshtein
Vais
Vaisala
Val
Valenti
Validation
Vall
Valle
Valles
Valley
Vallis
Value
Values
Van
Vanden
Var
Vari
Variability
Variable
Variables
Variation
Variations
Various
Varying
Vas
Vauc
Vaucoule
Vaucouleurs
Vaughan
Vaz
Vazquez
Ve
Vector
Vega
Veilleux
Vel
Vela
Veloc
Velocities
Velocity
Ven
Vener
Venera
Vent
Venus
Venusian
Ver
Verb
Verde
Verlag
Vern
Veron
Vers
Version
Vertical
Very
Ves
Vesta
Vi
Via
Victor
Victoria
Vidal
Vienna
View
Vik
Vikhlin
Vikhlinin
Viking
Vil
Vill
Vinc
Vink
Vir
Virgin
Virgo
Virt
Virtual
Vis
Visc
Visible
Visual
Vit
Vl
Vlas
Vlasov
Vo
Vog
Vogt
Voigt
Voit
Vol
Volc
Volcan
Volcanic
Volcano
Volk
Volon
Volonteri
Volume
Von
Vor
Voron
Voronoi
Voy
Voyager
Vp
Vr
Vs
Vul
W
W1
W2
W3
W4
W49
W51
WA
WAC
WACCM
WAL
WAR
WASP
WASS
WAT
WAV
WAVE
WAVES
WB
WC
WD
WDM
WDS
WDs
WE
WEB
WF
WFC
WFC3
WFIRST
WFPC
WFPC2
WH
WHIM
WHT
WI
WILLI
WIM
WIMP
WIMPs
WIN
WIND
WIS
WISE
WITH
WIYN
WKB
WL
WM
WMAP
WN
WNM
WO
WOOD
WP
WR
WRF
WS
WSA
WSR
WSRT
WT
WV
WW
WZ
Wa
Waals
Wada
Wade
Wagner
Wak
Wal
Walborn
Wald
Walker
Wall
Wallace
Walsh
Walter
Wan
Wand
Wang
War
Ward
Warm
Warner
Warren
Wash
Washington
Wasser
Wasserburg
Wasson
Wat
Watan
Watanabe
Water
Waters
Watkins
Watson
Watts
Wav
Wave
Wavelength
Waves
Wax
Waxman
Way
Wd
We
Weak
Weather
Weaver
Web
Webb
Weber
Webster
Wech
Wechsler
Wed
Wei
Weib
Weid
Weidensch
Weidenschilling
Wein
Weinberg
Weis
Weiss
Wel
Well
Wen
Wer
Werner
Wes
West
Wester
Western
Weyl
Wh
What
Whatever
Whe
Wheeler
When
Whenever
Where
Whereas
Whether
Which
While
Whilst
Whipple
Whit
White
Whitmore
Whitney
Whitt
Whole
Why
Wi
Wick
Wid
Wide
Width
Wiec
Wiener
Wign
Wigner
Wij
Wijn
Wil
Wilc
Wild
Wiley
Wilhel
Wilkinson
Will
Willi
William
Williams
Willott
Wilson
Win
Wind
Winds
Wing
Wink
Winn
Winter
Wis
Wisc
Wisconsin
Wise
Wit
With
Within
Without
Witt
Witten
Wm
Wo
Wol
Wolf
Wolfe
Wong
Woo
Wood
Woods
Woosley
Work
Working
Workshop
World
Wort
Worthey
Wright
Writing
Wu
Wy
Wyatt
Wyithe
X
X1
X2
XANES
XB
XEN
XENON
XI
XII
XIII
XIS
XL
XLF
XM
XMM
XPS
XR
XRB
XRBs
XRD
XRF
XRT
XSPEC
XTE
XUV
XV
XX
XY
XZ
Xe
Xen
Xia
Xiao
Xie
Xu
Xue
Y
Y1
YE
YM
YORP
YS
YSO
YSOs
Ya
Yak
Yale
Yam
Yamada
Yamamoto
Yan
Yang
Yangtze
Yao
Yark
Yarkovsky
Yb
Ye
Year
Yee
Yellow
Yes
Yet
Yi
Yin
Yoh
Yohkoh
Yok
Yoon
York
Yosh
Yoshida
You
Young
Younger
Yu
Yuan
Yuk
Yukawa
Yun
Yung
Z
ZAH
ZAMS
ZE
ZH
ZO
ZP
ZTF
ZZ
Zab
Zach
Zadeh
Zag
Zahn
Zak
Zald
Zaldarriaga
Zank
Zar
Zaritsky
Zav
Zdzi
Zdziarski
Ze
Zealand
Zee
Zeeman
Zeeuw
Zel
Zeldovich
Zero
Zh
Zhang
Zhao
Zheng
Zhong
Zhou
Zhu
Zi
Zinn
Zircon
Zn
Zo
Zol
Zonal
Zone
Zr
Zu
Zuckerman
Zur
Zw
Zwart
[
[CLS]
[MASK]
[PAD]
[SEP]
[UNK]
\
]
^
_
`
a
a0
a1
a2
a3
a63
a78
aL
aa
ab
aband
abbrevi
aber
aberration
aberrations
ability
abiotic
ablation
able
abnormal
abnormally
aboard
about
above
abras
abrasion
abrupt
abruptly
abs
absc
abscissa
absence
absent
absol
absolute
absolutely
absor
absorb
absorbance
absorbed
absorber
absorbers
absorbing
absorbs
absorp
absorption
absorptions
abstract
abund
abundance
abundances
abundant
abyssal
ac
acc
acceler
accelerate
accelerated
accelerates
accelerating
acceleration
accelerations
accelerator
accelerators
accelerometer
accent
accep
accept
acceptable
acceptance
accepted
access
accessed
accessible
accessory
accidental
accommod
accommodate
accommodated
accommodation
accomp
accompan
accompanied
accompany
accompanying
accompl
accomplish
accomplished
accord
accordance
according
accordingly
accoun
account
accounted
accounting
accounts
accre
accrete
accreted
accretes
accreting
accretion
accretionary
accretor
accum
accumul
accumulate
accumulated
accumulates
accumulating
accumulation
accumulations
accur
accuracies
accuracy
accurate
accurately
ace
acet
acetate
acetic
acetone
acetylene
ach
achie
achievable
achieve
achieved
achieves
achieving
achond
achondrites
acid
acidic
acids
ackn
acknowled
acknowledge
acknowledged
acknowledges
acoustic
acqui
acquire
acquired
acquires
acquiring
acquis
acquisition
across
act
acted
actin
acting
action
actions
activ
activated
activation
active
actively
activities
activity
acts
actu
actual
actually
ad
adap
adapt
adaptation
adapted
adaptive
add
added
addi
adding
addition
additional
additionally
additions
additive
address
addressed
addresses
addressing
adds
adequ
adequate
adequately
adhe
adi
adiab
adiabat
adiabatic
adiabatically
adj
adjacent
adjoint
adjust
adjustable
adjusted
adjusting
adjustment
adjustments
adm
admit
admits
admittance
admitted
admix
admixture
adop
adopt
adopted
adopting
adoption
adopts
adsor
adsorbed
adsorption
adv
advance
advanced
advances
advancing
advant
advantage
advantageous
advantages
advected
advection
advective
advent
advocated
ae
aeolian
aer
aerial
aerodynamic
aerogel
aeros
aerosol
aerosols
af
aff
affect
affected
affecting
affects
affine
affinity
afford
afore
aforementioned
after
afterglow
afterglows
afternoon
aftershock
aftershocks
afterslip
afterward
afterwards
ag
again
against
age
aged
agencies
agent
agents
ages
agg
agglomer
aggreg
aggregate
aggregated
aggregates
aggregation
aging
ago
agree
agreed
agreement
agrees
agric
agricultural
ahead
ai
aid
aided
aim
aimed
aiming
aims
air
airborne
aircraft
airglow
airmass
ak
akin
al
alarm
albed
albedo
albedos
albeit
albite
alc
alcoh
alert
alg
algae
algal
alge
algebra
algebraic
algor
algorithm
algorithms
ali
alias
aliasing
align
aligned
alignment
alignments
aliphatic
aliqu
aliquot
aliquots
alk
alkal
alkali
alkaline
alkalinity
alkane
alkanes
alken
alky
alkyl
all
alle
allevi
alleviate
allocated
allow
allowable
allowed
allowing
allows
alloy
alloys
allu
alluvial
almost
alone
along
alongside
alpha
already
also
alt
alter
alteration
alterations
altered
altering
altern
alternate
alternating
alternative
alternatively
alternatives
alters
although
altim
altimeter
altimetry
altit
altitude
altitudes
altogether
alumin
alumina
aluminium
aluminosilicate
aluminum
always
am
amb
ambient
ambigu
ambiguities
ambiguity
ambiguous
ambipolar
amen
amenable
amino
ammon
ammonia
ammonium
among
amongst
amorph
amorphous
amount
amounts
amp
amphib
amphibole
amphibolite
ampl
ample
amplification
amplified
amplifier
amplify
amplitude
amplitudes
amu
an
ana
anaerobic
anal
analog
analogous
analogously
analogs
analogue
analogues
analogy
analy
analys
analyse
analysed
analyses
analysing
analysis
analytic
analytical
analytically
analyze
analyzed
analyzer
analyzing
anc
anch
anchor
anchored
ancient
ancillary
and
andes
andesite
andesites
andesitic
anelastic
ang
angle
angles
angular
anhyd
anhydrite
anhydrous
animal
animals
animation
anion
anions
anisot
anisotropic
anisotropies
anisotropy
ann
anne
annealed
annealing
annih
annihil
annihilate
annihilating
annihilation
annihilations
annot
announced
annual
annually
annular
annuli
annulus
anode
anomal
anomalies
anomalous
anomalously
anomaly
anonymous
anorth
anorthite
anorthosite
another
anoxic
ans
ansatz
answer
answered
answers
ant
anten
antenna
antennas
anth
anthrop
anthropogenic
anti
antic
anticip
anticipate
anticipated
anticorrelated
anticorrelation
anticycl
anticyclonic
antig
antim
antineut
antineutrino
antineutrinos
antip
antiparallel
antipodal
antiproton
antis
antisun
antisunward
antisymmetric
anv
anvil
any
anymore
anything
anyway
anywhere
ao
ap
apart
apatite
aperture
apertures
apex
aphelion
apj
apo
apocent
apod
apogee
app
appar
apparatus
apparent
apparently
appari
appe
appealing
appear
appearance
appeared
appearing
appears
appendix
applic
applicability
applicable
application
applications
applied
applies
apply
applying
apprec
appreci
appreciable
appreciably
appreciate
appreciated
appro
approac
approach
approached
approaches
approaching
appropri
appropriate
appropriately
approx
approxim
approximate
approximated
approximately
approximates
approximating
approximation
approximations
apsid
apsidal
aq
aqu
aquatic
aqueous
aquifer
aquifers
ar
arXiv
arag
aragonite
arbit
arbitr
arbitrarily
arbitrary
arc
arcade
arch
archae
architect
architecture
architectures
archival
archive
archived
archives
arcmin
arcminutes
arcs
arcsec
arcsecond
arcseconds
are
area
areal
areas
arg
argon
argu
arguably
argue
argued
argues
arguing
argum
argument
arguments
arid
arise
arises
arising
arithm
arithmetic
arm
armed
arms
aromatic
arose
around
arr
arrange
arranged
arrangement
array
arrays
arri
arrival
arrivals
arrive
arrived
arrives
arriving
arrow
arrows
arsen
arsenic
art
arte
artefact
artefacts
article
articles
artif
artifact
artifacts
artificial
artificially
as
asc
ascending
ascension
ascent
ascertain
ascribed
aseismic
ash
aside
ask
asked
asp
aspect
aspects
asper
asperity
aspherical
ass
assemb
assembl
assemblage
assemblages
assemble
assembled
assembly
asser
assertion
assess
assessed
assessing
assessment
assessments
assign
assigned
assigning
assignment
assignments
assim
assimil
assimilated
assimilation
assist
assistance
assisted
associ
associate
associated
association
associations
assum
assume
assumed
assumes
assuming
assump
assumption
assumptions
assure
ast
aster
asterisk
asterisks
astero
asteroid
asteroidal
asteroids
asteroseismic
asteroseismology
asthen
asthenosphere
asthenospheric
astro
astromet
astrometric
astrometry
astron
astronauts
astronom
astronomers
astronomical
astronomy
astrophys
astrophysical
astrophysically
astrophysics
aswhere
asy
asymmet
asymmetric
asymmetrical
asymmetries
asymmetry
asymp
asympt
asympto
asymptotic
asymptotically
asymptotics
at
ation
atlas
atm
atmos
atmosphere
atmospheres
atmospheric
atoll
atom
atomic
atoms
att
attached
attachment
attack
attain
attainable
attained
attains
attemp
attempt
attempted
attempting
attempts
atten
attention
attenu
attenuated
attenuation
attitude
attract
attracted
attraction
attractive
attractor
attrib
attributable
attribute
attributed
attributes
atypical
au
aug
augite
augmented
aur
auror
aurora
auroral
auroras
aus
austral
aut
auth
authigenic
author
authors
auto
autoc
autocorrelation
autom
automated
automatic
automatically
autonom
autonomous
autumn
aux
auxiliary
av
avail
availability
available
aval
avalanche
avalanches
aven
aver
averag
average
averaged
averages
averaging
avg
avoid
avoidance
avoided
avoiding
avoids
awa
award
aware
away
ax
axes
axial
axially
axion
axions
axis
axisymmetric
axisymmetry
az
azimuth
azimuthal
azimuthally
azimuths
b
b2
back
backazimuth
background
backgrounds
backre
backreaction
backscatter
backscattered
backscattering
backward
backwards
bacter
bacteria
bacterial
bad
bag
bal
balance
balanced
balances
balancing
ball
ballistic
balloon
balloons
balls
ban
band
banded
bandpass
bandpasses
bands
bandwidth
bandwidths
bang
bank
bar
bare
barely
barite
barium
baroclinic
barotropic
barred
barrier
barriers
bars
bary
barycent
barycenter
barycentric
baryogenesis
baryon
baryonic
baryons
bas
basal
basalt
basaltic
basalts
base
based
baseline
baselines
basement
bases
basic
basically
basin
basins
basis
batch
bath
bathym
bathymetric
bathymetry
batter
bay
bb
bc
bd
be
beach
beads
beam
beamed
beaming
beams
beamwidth
bear
bearing
bears
beat
bec
became
because
becom
become
becomes
becoming
bed
bedded
bedding
bedrock
beds
been
before
beg
began
begin
beginning
begins
begun
beh
behav
behave
behaved
behaves
behavi
behavior
behaviors
behaviour
behaviours
behind
bei
being
bel
belie
belief
believe
believed
belong
belonging
belongs
below
belt
belts
bench
benchmark
bend
bending
bends
bene
beneath
benef
beneficial
benefit
benefits
bent
benthic
benz
benzene
ber
bes
besides
best
bet
beta
better
between
bey
beyond
bg
bh
bi
bias
biased
biases
biasing
bib
bic
bicarbonate
bidirectional
bif
bifurc
bifurcation
big
bigger
biggest
bil
bilinear
bill
billion
bimodal
bimodality
bin
binaries
binarity
binary
binding
binned
binning
binomial
bins
bio
bioge
biogenic
biogeochemical
biological
biom
biomark
biomarkers
biomass
bios
biosign
biosphere
biotic
biotite
bioturb
bip
bipolar
birefring
birth
bis
bisector
bispectrum
bit
bits
bivariate
bl
black
blackbody
blank
blanket
blanketing
blanks
blast
blaz
blazar
blazars
ble
blend
blended
blending
blends
blind
blo
blob
blobs
block
blocked
blocking
blocks
bloom
blow
blown
blowout
blu
blue
bluer
bluesh
blueshift
blueshifted
blueshifts
bluest
blueward
blur
blurred
blurring
bo
board
bod
bodies
body
boiling
bol
bold
bolometer
bolometric
bomb
bombardment
bon
bona
bond
bonded
bonding
bonds
bone
book
boost
boosted
boosting
boosts
bootstra
bootstrap
bootstrapping
bor
border
borders
bore
boreal
borehole
boreholes
born
borne
boron
bos
boson
bosonic
bosons
both
bott
bottle
bottles
bottom
bottomside
bould
boulder
boulders
boun
bounce
bouncing
bound
boundaries
boundary
bounded
bounding
bounds
bow
box
boxcar
boxes
boxy
br
bra
brach
brack
bracket
bracketed
bracketing
brackets
braking
bran
branch
branched
branches
branching
brane
branes
braneworld
bre
break
breakdown
breaking
breakout
breaks
breakthrough
breakup
brec
brecci
breccia
breccias
brecciated
bremsstrahlung
brevity
brid
bridge
bridges
bridging
brief
briefly
bright
brightened
brightening
brightenings
brighter
brightest
brightness
brightnesses
brine
brines
bring
bringing
brings
brittle
bro
broad
broadband
broaden
broadened
broadening
broader
broadly
broken
brom
brought
brown
brucite
bu
bubble
bubbles
buck
bud
budget
budgets
buffer
buffered
build
building
builds
buildup
built
bul
bulge
bulges
bulk
bump
bumps
bund
bundle
bundles
buoy
buoyancy
buoyant
bur
burial
buried
burn
burned
burning
burst
bursting
bursts
bursty
bus
but
butterfly
by
bypass
bywhere
c
c1
c2
cD
ca
cable
cad
cadence
cal
calc
calcareous
calcification
calcite
calcium
calcul
calculate
calculated
calculates
calculating
calculation
calculations
calder
caldera
calib
calibrate
calibrated
calibrating
calibration
calibrations
calibrator
calibrators
call
called
calls
calor
calorimeter
caltech
came
camera
cameras
campaign
campaigns
can
canc
cancel
canceled
cancellation
cancels
cand
candid
candidate
candidates
candles
cannot
canonical
canopy
canyon
cap
capabilities
capability
capable
capac
capacitance
capacities
capacity
capillary
caps
capsule
capsules
caption
capture
captured
captures
capturing
car
carb
carbon
carbonaceous
carbonate
carbonates
carbonatite
carboxyl
card
care
careful
carefully
carri
carried
carrier
carriers
carries
carry
carrying
cart
cas
casc
cascade
cascades
cascading
case
cases
cast
cat
catac
cataclysmic
catalog
cataloged
catalogs
catalogue
catalogued
catalogues
cataly
catalytic
catast
catastrop
catastrophe
catastrophic
catch
catchment
catchments
cate
categor
categories
categorized
category
cath
cathode
cation
cations
caught
caus
causal
causality
causally
cause
caused
causes
causing
caustic
caustics
cauti
caution
cav
cave
caveat
caveats
cavities
cavity
cc
cd
cds
cdsarc
ce
cease
ceased
ceases
celestial
cell
cells
cellular
cellulose
cement
cemented
cen
census
cent
center
centered
centers
centim
centimet
centimeter
centimeters
centr
central
centrally
centrals
centre
centred
centres
centric
centrif
centrifug
centrifugal
centro
centroid
centroids
centuries
century
cer
certain
certainly
certainty
cess
cessation
cf
cgs
ch
cha
chain
chains
chalc
chalcopyrite
chall
challen
challenge
challenged
challenges
challenging
cham
chamber
chambers
chameleon
chance
chances
change
changed
changes
changing
chann
channel
channels
chaos
chaotic
chap
chapter
chapters
char
character
characterise
characterised
characteristic
characteristics
characterization
characterize
characterized
characterizes
characterizing
charge
charged
charges
charging
chart
charts
che
check
checked
checking
checks
chem
chemical
chemically
chemistry
cher
chert
chi
chief
chiefly
child
chim
chip
chips
chir
chiral
chirality
chirp
chlor
chloride
chlorine
chlorite
chlorophyll
cho
choice
choices
chond
chondr
chondrite
chondrites
chondritic
chondrule
chondrules
choose
choosing
chorus
chose
chosen
chrom
chromat
chromatic
chromatography
chromite
chromium
chromosphere
chromospheric
chron
chronological
chronology
ci
cir
circ
circle
circled
circles
circu
circuit
circul
circular
circularization
circularly
circulating
circulation
circulations
circum
circumbinary
circumn
circumnuclear
circumst
circumstance
circumstances
circumstellar
circumvent
cirrus
cit
cited
city
civ
civil
cl
claim
claimed
claims
clar
clarified
clarify
clarity
class
classes
classic
classical
classically
classif
classification
classifications
classified
classifier
classifiers
classify
classifying
clast
clastic
clasts
clath
clathrate
clay
clays
cle
clean
cleaned
cleaning
clear
cleared
clearer
clearing
clearly
cleavage
cliff
clim
climat
climate
climates
climatic
climatological
climatology
clin
clinopyroxene
clinopyroxenes
clipped
clipping
clock
clocks
clockwise
clones
clos
close
closed
closely
closer
closest
closing
closure
cloud
clouds
cloudy
clu
clue
clues
clump
clumped
clumpiness
clumping
clumps
clumpy
clust
cluster
clustered
clustering
clusters
cm
cm2
cm3
cn
co
coad
coadded
coag
coagulation
coal
coales
coalesc
coalesce
coalescence
coars
coarse
coarser
coast
coastal
coastline
coated
coating
coatings
cob
cobal
cobalt
coc
cocoon
cod
coda
code
coded
codes
coding
coeffici
coefficient
coefficients
coerc
coercivity
coesite
coeval
coex
coexist
coexistence
coexisting
coh
cohe
coheren
coherence
coherency
coherent
coherently
cohesion
cohesive
coil
coinc
coincide
coincided
coincidence
coincidences
coincident
coincides
coinciding
col
colatitude
cold
colder
coldest
coll
collabor
collaboration
collaborators
collaps
collapse
collapsed
collapses
collapsing
colle
colleag
colleagues
collect
collected
collecting
collection
collections
collective
collectively
collector
collide
collider
colliding
collim
collimated
collimation
collimator
collinear
collision
collisional
collisionally
collisionless
collisions
collo
collocated
colloidal
colon
color
colored
colors
colour
coloured
colours
column
columns
com
coma
comb
combination
combinations
combine
combined
combines
combining
combustion
come
comes
comet
cometary
comets
coming
comm
command
commence
commencement
commens
commensur
commensurate
comment
comments
commerc
commercial
commission
commissioning
common
commonly
commun
communication
communications
communities
community
commut
commutation
commutator
comoving
comp
compac
compact
compactification
compaction
compactness
compan
companion
companions
compar
comparable
comparably
comparative
comparatively
compare
compared
compares
comparing
comparison
comparisons
compatibility
compatible
compelling
compens
compensate
compensated
compensates
compensating
compensation
compet
compete
competi
competing
competition
competitive
compilation
compilations
compile
compiled
compl
comple
complement
complementary
complemented
complet
complete
completed
completely
completeness
completes
completion
complex
complexation
complexes
complexities
complexity
compli
compliance
complic
complicate
complicated
complicates
complicating
complication
complications
compo
compon
component
components
composed
composite
composites
composition
compositional
compositionally
compositions
compound
compounds
comprehen
comprehensive
compress
compressed
compressibility
compressible
compression
compressional
compressions
compressive
compris
comprise
comprised
comprises
comprising
comprom
compromise
compromised
comput
computation
computational
computationally
computations
compute
computed
computer
computers
computes
computing
con
conc
concave
conce
conceiv
conceivable
concen
concent
concentrate
concentrated
concentrates
concentrating
concentration
concentrations
concentric
concept
concepts
conceptual
conceptually
concern
concerned
concerning
concerns
conclu
conclude
concluded
concludes
concluding
conclusion
conclusions
conclusive
conclusively
concomit
concomitant
concordance
concordant
concre
concrete
concur
concurrent
cond
condens
condensate
condensates
condensation
condensations
condense
condensed
condition
conditional
conditioned
conditions
conduc
conducive
conduct
conductance
conducted
conducting
conduction
conductive
conductivities
conductivity
conductor
conduit
conduits
cone
cones
conf
conference
confidence
confident
confidently
config
configuration
configurations
configured
confine
confined
confinement
confining
confir
confirm
confirmation
confirmed
confirming
confirms
conflic
conflict
conflicting
conform
conformal
conformally
confron
confused
confusion
cong
conglomer
conglomerate
congru
congruence
conical
conj
conject
conjecture
conjectured
conjug
conjugate
conjunction
conn
connect
connected
connecting
connection
connections
connectivity
connects
cons
consecutive
consensus
consequ
consequence
consequences
consequent
consequently
conserv
conservation
conservative
conservatively
conserve
conserved
conserving
consid
consider
considerable
considerably
consideration
considerations
considered
considering
considers
consist
consisted
consistency
consistent
consistently
consisting
consists
consolidated
consp
conspic
conspicuous
const
constancy
constant
constantly
constants
constellation
constit
constitu
constituent
constituents
constitute
constituted
constitutes
constituting
constitutive
constrain
constrained
constraining
constrains
constraint
constraints
construc
construct
constructed
constructing
construction
constructive
consumed
consuming
consumption
cont
contact
contacts
contain
contained
container
containing
contains
contam
contamin
contaminant
contaminants
contaminate
contaminated
contaminating
contamination
contemp
contempor
contemporaneous
contemporary
content
contents
contex
context
contexts
contig
contiguous
contin
continent
continental
continents
continu
continua
continually
continuation
continue
continued
continues
continuing
continuity
continuous
continuously
continuum
contour
contours
contr
contra
contract
contracted
contracting
contraction
contracts
contrad
contradic
contradict
contradiction
contradictory
contradicts
contrary
contrast
contrasted
contrasting
contrasts
contrib
contribut
contribute
contributed
contributes
contributing
contribution
contributions
contributor
contributors
contro
control
controll
controlled
controller
controlling
controls
controversi
controversial
controversy
conv
conve
convected
convecting
convection
convective
convectively
conven
convenience
convenient
conveniently
convention
conventional
conventionally
conventions
conver
converge
converged
convergence
convergent
converges
converging
conversely
conversion
conversions
convert
converted
converting
converts
convex
convey
convinc
convincing
convincingly
convolution
convolve
convolved
convolving
cool
cooled
cooler
coolest
cooling
cools
cooper
cooperation
cooperative
coordin
coordinate
coordinated
coordinates
coordination
cop
copies
coplanar
copper
copy
cor
coral
corals
core
cored
cores
corner
corners
coron
corona
coronae
coronagraph
coronagraphic
coronal
corot
corotating
corotation
corr
corre
correc
correct
corrected
correcting
correction
corrections
correctly
corrects
correl
correlate
correlated
correlates
correlating
correlation
correlations
correlator
correlators
correspond
corresponded
correspondence
corresponding
correspondingly
corresponds
corro
corrobor
corroborated
corundum
cos
coseismic
cosh
cosine
cosm
cosmic
cosmogenic
cosmological
cosmologically
cosmologies
cosmology
cost
costs
cot
cou
could
coun
count
counted
counter
counterclockwise
counterpar
counterpart
counterparts
counters
counterter
counting
countries
country
counts
coupl
couple
coupled
couples
coupling
couplings
cour
course
cov
covari
covariance
covariances
covariant
cover
coverage
covered
covering
covers
cp
cpx
cr
crack
cracking
cracks
crat
crater
cratered
cratering
craters
craton
cratonic
cratons
cre
create
created
creates
creating
creation
cred
credible
cree
creep
cres
crescent
crest
crests
crew
cri
crit
criter
criteria
criterion
critic
critical
critically
cro
crop
cros
cross
crossed
crosses
crossing
crossings
crosso
crossover
crow
crowded
crowding
cru
cruc
crucial
crucially
crud
crude
cruise
crushed
crushing
crust
crustal
crusts
cry
cryogenic
cryostat
crypt
cryst
crystal
crystall
crystalline
crystallinity
crystallisation
crystallization
crystallize
crystallized
crystallographic
crystals
cs
ct
cu
cub
cube
cubes
cubic
cul
culture
cultures
cum
cumul
cumulate
cumulates
cumulative
cumulus
cup
cur
curious
curl
curre
current
currently
currents
curtain
curv
curvaton
curvature
curvatures
curve
curved
curves
curvilinear
cusp
cusps
cuspy
custom
customary
cut
cutoff
cutoffs
cuts
cutting
cx
cy
cyan
cyanobacter
cyc
cycl
cycle
cycles
cyclic
cycling
cyclo
cyclone
cyclones
cyclonic
cyclotron
cylind
cylinder
cylinders
cylindrical
cyt
cz
d
d2
dA
dB
dE
dEs
dI
dM
dN
dP
dR
dS
dSph
dSphs
dT
dV
da
daily
dam
damage
damaged
damp
damped
damping
danger
dangerous
dans
dark
darkened
darkening
darker
das
dash
dashed
dat
data
database
databases
datac
datas
dataset
datasets
date
dated
dates
dating
datum
daugh
daughter
dawn
dawnside
dawnward
day
dayglow
days
dayside
daytime
dc
de
dead
deal
dealing
deals
dealt
death
deb
debate
debated
debl
debris
dec
decadal
decade
decades
decay
decayed
decaying
decays
deceler
decelerated
decelerating
deceleration
decide
decided
decis
decision
decisive
deck
decl
declination
declinations
decline
declined
declines
declining
deco
decoherence
decomp
decompose
decomposed
decomposition
decompositions
decompression
deconv
deconvolution
deconvolved
decorrelation
decoupl
decouple
decoupled
decoupling
decre
decrease
decreased
decreases
decreasing
decrement
ded
dedicated
deduc
deduce
deduced
deem
deemed
deep
deepening
deeper
deepest
deeply
def
default
defect
defects
defer
defici
deficiencies
deficiency
deficient
deficit
deficits
defin
define
defined
defines
defini
defining
definite
definitely
definition
definitions
definitive
definitively
defl
deflag
deflagration
deflected
deflection
deflections
defoc
deform
deformability
deformation
deformations
deformed
deforming
deg
degassed
degassing
degener
degeneracies
degeneracy
degenerate
deglac
deglaciation
degradation
degrade
degraded
degrades
degree
degrees
dehyd
dehydration
del
delay
delayed
delays
deliber
delim
deline
delineate
delineated
deliver
delivered
delivery
delta
deltas
dem
demagneti
demagnetization
demagnetized
demand
demanding
demands
demarc
demon
demonst
demonstrate
demonstrated
demonstrates
demonstrating
demonstration
den
dend
denitrification
denomin
denominator
denote
denoted
denotes
denoting
dens
dense
densely
denser
densest
densities
density
denudation
dep
depar
depart
departure
departures
depend
depended
dependence
dependences
dependencies
dependency
dependent
depending
depends
depic
depict
depicted
depicts
deple
deplet
deplete
depleted
depletion
depletions
deploy
deployed
deployment
depolar
depolarization
depos
deposit
deposited
deposition
depositional
deposits
depressed
depression
depressions
depro
deprojected
deprojection
depth
depths
der
dered
dereddened
deriv
derivation
derivations
derivative
derivatives
derive
derived
derives
deriving
des
desc
descend
descendants
descending
descent
describ
describe
described
describes
describing
description
descriptions
deser
desert
deserves
desicc
design
designate
designated
designation
designed
designs
desirable
desire
desired
desorption
despite
dest
destabil
destro
destroy
destroyed
destruc
destruction
destructive
det
detached
detachment
detail
detailed
details
detect
detectability
detectable
detected
detecting
detection
detections
detector
detectors
detects
deter
deterior
determ
determin
determinant
determination
determinations
determine
determined
determines
determining
deterministic
deton
detonation
detrend
detrended
detrending
detrit
detrital
detritus
deuter
deuterated
deuterium
dev
develop
developed
developing
development
developments
develops
devi
deviate
deviates
deviating
deviation
deviations
deviatoric
device
devices
devil
devils
devised
devoid
devoted
dex
dext
dextral
df
di
diag
diagenesis
diagenetic
diagn
diagnos
diagnostic
diagnostics
diagonal
diagram
diagrams
diam
diamagnetic
diamet
diameter
diameters
diamond
diamonds
diap
diapir
diatom
diatoms
dic
dich
dichotom
dichotomy
dichro
dict
dictated
dictates
did
die
dielectric
dies
dif
diff
diffe
diffeomorph
diffeomorphism
diffeomorphisms
differ
differed
difference
differences
differencing
different
differenti
differential
differentially
differentiate
differentiated
differentiating
differentiation
differently
differing
differs
diffic
difficul
difficult
difficulties
difficulty
diffraction
diffu
diffus
diffuse
diffused
diffusing
diffusion
diffusive
diffusivities
diffusivity
dig
diges
digestion
digit
digital
digitized
digits
dike
dikes
dil
dilat
dilation
dilaton
dilute
diluted
dilution
dim
dimension
dimensional
dimensionality
dimensionless
dimensions
dimin
diminish
diminished
diminishes
diminishing
dimmer
dimming
din
diode
diogen
diogenites
diopside
dioxide
dip
dipolar
dipolarization
dipole
dipoles
dipping
dips
direc
direct
directed
direction
directional
directions
directly
dirty
dis
disadvant
disadvantage
disag
disagree
disagreement
disapp
disappear
disappearance
disappeared
disappears
disc
discard
discarded
discarding
discern
discerned
discernible
disch
discharge
discharges
discip
discon
disconnected
discontinu
discontinuities
discontinuity
discontinuous
discordant
discover
discovered
discoveries
discovery
discr
discre
discrep
discrepancies
discrepancy
discrepant
discrete
discreteness
discreti
discretization
discretized
discrimin
discriminant
discriminate
discriminating
discrimination
discriminator
discs
discus
discuss
discussed
discusses
discussing
discussion
discussions
disentang
disentangle
disequilibrium
disfav
disfavored
dish
disinteg
disintegration
disk
disks
disl
dislocation
dislocations
dism
dismiss
disorder
disordered
disp
dispar
disparity
disper
dispersal
disperse
dispersed
dispersion
dispersions
dispersive
displ
displace
displaced
displacement
displacements
display
displayed
displaying
displays
disposal
disproportion
disreg
disrup
disrupt
disrupted
disruption
disruptions
diss
dissi
dissim
dissimilar
dissip
dissipate
dissipated
dissipates
dissipation
dissipative
dissoci
dissociated
dissociation
dissociative
dissolution
dissolve
dissolved
dissolving
dist
distal
distance
distances
distant
distill
distillation
distilled
distinc
distinct
distinction
distinctive
distinctly
distingu
distinguish
distinguishable
distinguished
distinguishes
distinguishing
distort
distorted
distortion
distortions
distrib
distribute
distributed
distribution
distributions
district
disturb
disturbance
disturbances
disturbed
disturbing
dit
dither
dithered
diurnal
div
divalent
diver
diverg
diverge
divergence
divergences
divergent
diverges
diverging
diverse
diversity
divide
divided
divides
dividing
division
dl
dm
dn
do
doc
docum
document
documentation
documented
documents
does
dof
doi
doing
dol
dolom
dolomite
dom
domain
domains
dome
domes
domin
dominance
dominant
dominantly
dominate
dominated
dominates
dominating
domination
don
done
donor
donors
doped
dose
doses
dot
dots
dotted
dou
doub
double
doubled
doubles
doublet
doublets
doubling
doubly
doubt
dovich
dow
down
downd
downflow
downflows
downgoing
download
downloaded
downsizing
downslope
downstream
downt
downward
downwards
downwelling
downwind
dozen
dp
dpm
dr
dra
drag
dragged
dragging
drain
drainage
drained
draining
dramatic
dramatically
drap
draped
draping
drastic
drastically
draw
drawback
drawbacks
drawing
drawn
draws
dred
dredge
dri
dried
drier
drift
drifting
drifts
drill
drilled
drilling
drip
drive
driven
driver
drivers
drives
driving
dro
drop
droplet
droplets
dropout
dropouts
dropped
dropping
drops
drought
dry
drying
ds
dt
du
dual
duality
dub
dubbed
duc
duct
ductile
due
dump
dun
dune
dunes
dunite
dupl
duplicate
duration
durations
during
dusk
duskside
duskward
dust
dusty
duty
dv
dwarf
dwarfs
dx
dy
dyke
dykes
dyn
dynam
dynamic
dynamical
dynamically
dynamics
dynamo
dynamos
dz
e
e2
eR
eV
each
ear
earlier
earliest
early
earth
earthqu
earthquake
earthquakes
earthward
eas
ease
easier
easiest
easily
east
easter
easterly
eastern
eastward
easy
ec
eccentric
eccentricities
eccentricity
ech
echel
echelle
echo
echoes
eclip
eclipse
eclipses
eclipsing
ecliptic
eclog
eclogite
eclogites
ecological
econom
economic
ecosystem
ecosystems
ed
edd
eddies
eddy
edge
edges
edi
edific
edifice
edited
editing
edition
editor
eds
edu
ee
ef
eff
effect
effective
effectively
effectiveness
effects
effic
efficacy
effici
efficiencies
efficiency
efficient
efficiently
effort
efforts
eg
egress
ei
eig
eigen
eigenf
eigenfrequencies
eigenfunction
eigenfunctions
eigenm
eigenmode
eigenmodes
eigens
eigenst
eigenstates
eigenv
eigenvalue
eigenvalues
eigenvector
eigenvectors
eight
eighth
either
ej
eject
ejecta
ejected
ejection
ejections
el
elabor
elaborate
elaborated
elapsed
elastic
elasticity
ele
elec
elect
electric
electrical
electrically
electro
electrode
electrodes
electrodynam
electrodynamic
electrodynamics
electrojet
electroly
electrolyte
electrom
electromagnetic
electron
electronic
electronics
electrons
electrostatic
electroweak
eleg
elegant
element
elemental
elementary
elements
elev
elevated
elevation
elevations
eleven
elimin
eliminate
eliminated
eliminates
eliminating
elimination
ellip
ellipse
ellipses
ellipso
ellipsoid
ellipsoidal
ellipsoids
elliptic
elliptical
ellipticals
ellipticities
ellipticity
elong
elongate
elongated
elongation
else
elsevier
elsewhere
elu
elucid
elucidate
elusive
em
eman
emanating
emb
embed
embedded
embedding
embry
embryo
embryos
emerg
emerge
emerged
emergence
emergent
emerges
emerging
emis
emission
emissions
emissivities
emissivity
emit
emits
emitted
emitter
emitters
emitting
emp
emphas
emphasis
emphasize
emphasized
emphasizes
emphasizing
empir
empirical
empirically
empl
emplaced
emplacement
emplo
employ
employed
employing
employs
empty
en
enab
enable
enabled
enables
enabling
enc
encaps
ence
encirc
encircled
encl
enclose
enclosed
encloses
enclosing
encode
encoded
encodes
encomp
encompass
encompasses
encompassing
encoun
encounter
encountered
encountering
encounters
encoura
encourag
encourage
encouraging
end
ended
ending
endm
endmember
endmembers
endpoint
endpoints
ends
energ
energe
energetic
energetically
energetics
energies
energization
energized
energy
energymomentum
enfor
enforce
enforced
eng
engine
engineering
engines
engulf
enh
enhance
enhanced
enhancement
enhancements
enhances
enhancing
enig
enigmatic
enl
enlarge
enlarged
enorm
enormous
enough
enrich
enriched
enrichment
enrichments
ens
ensemble
ensembles
enstatite
ensuing
ensure
ensured
ensures
ensuring
ent
entails
entang
entangled
entanglement
enter
entered
entering
enters
enthal
enthalpy
enti
entire
entirely
entirety
entit
entities
entrain
entrained
entrainment
entrance
entries
entropies
entropy
entry
env
envelop
envelope
envelopes
environ
environment
environmental
environments
envis
envisaged
envision
eo
eolian
ep
ephem
ephemer
ephemerides
ephemeris
epic
epicent
epicenter
epicentral
epicentre
epicyclic
epid
epidote
epis
episode
episodes
episodic
epithermal
epoch
epochs
epoxy
eq
eqn
eqs
equ
equa
equal
equality
equally
equals
equating
equation
equations
equator
equatorial
equatorward
equid
equidistant
equilateral
equilib
equilibrate
equilibrated
equilibration
equilibria
equilibrium
equin
equinoctial
equinox
equinoxes
equip
equipartition
equipment
equipotential
equipped
equival
equivalence
equivalent
equivalently
equivalents
er
era
erased
erg
ergs
ero
eroded
erosion
erosional
err
erratic
errone
erroneous
erroneously
error
errors
erup
erupted
erupting
eruption
eruptions
eruptive
es
esc
escap
escape
escaped
escapes
escaping
espec
especially
ess
essence
essential
essentially
est
estab
establ
establish
established
establishes
establishing
establishment
estim
estimate
estimated
estimates
estimating
estimation
estimations
estimator
estimators
estu
estuarine
estuary
et
etal
etc
etch
etched
ethan
ethane
ethanol
ethyl
eu
euc
eucrite
eucrites
euhedral
eut
eutectic
eux
ev
evacu
evacuated
evalu
evaluate
evaluated
evaluating
evaluation
evaluations
evan
evanescent
evap
evapor
evaporate
evaporated
evaporating
evaporation
evaporative
evaporite
evaporites
evapotranspiration
even
evening
evenly
event
events
eventual
eventually
ever
every
everything
everywhere
evid
evidence
evidenced
evidences
evident
evidently
evolution
evolutionary
evolutions
evolve
evolved
evolves
evolving
ex
exacer
exact
exactly
exagger
exam
examination
examine
examined
examines
examining
example
examples
exc
excav
excavated
excavation
exceed
exceeded
exceeding
exceedingly
exceeds
excell
excellent
except
exception
exceptional
exceptionally
exceptions
exces
excess
excesses
excessive
exch
exchange
exchanged
exchanges
excitation
excitations
excite
excited
exciting
exclu
exclude
excluded
excludes
excluding
exclusion
exclusive
exclusively
excur
excursion
excursions
exec
executed
execution
exempl
exemplified
exer
exerc
exercise
exert
exerted
exerts
exh
exhaus
exhaust
exhausted
exhaustive
exhib
exhibit
exhibited
exhibiting
exhibits
exhumation
exhumed
exist
existed
existence
existing
exists
exit
exo
exob
exobase
exopl
exoplanet
exoplanetary
exoplanets
exosphere
exospheric
exothermic
exotic
exp
expan
expand
expanded
expanding
expands
expansion
expansions
expect
expectation
expectations
expected
expects
exped
expelled
expense
expensive
exper
experi
experience
experienced
experiences
experiencing
experiment
experimental
experimentally
experiments
expl
explain
explained
explaining
explains
explan
explanation
explanations
explicit
explicitly
explo
explode
exploding
exploit
exploited
exploiting
exploration
explore
explored
explores
exploring
explosion
explosions
explosive
expon
exponent
exponential
exponentially
exponents
export
expose
exposed
exposure
exposures
express
expressed
expresses
expressing
expression
expressions
expulsion
exs
exsolution
ext
extant
extend
extended
extending
extends
extensi
extension
extensional
extensions
extensive
extensively
extent
extents
exterior
external
externally
extinc
extinct
extinction
extinctions
extr
extra
extract
extracted
extracting
extraction
extractions
extracts
extragalactic
extraordin
extraordinary
extrap
extrapolate
extrapolated
extrapolating
extrapolation
extrapolations
extras
extrasolar
extrat
extraterrestrial
extratropical
extrem
extrema
extremal
extreme
extremely
extremes
extremum
extrinsic
extru
extrusion
ey
eye
f
f1
f2
f3
f4
f5
f6
f7
fa
fabric
fabrics
fac
face
faced
faces
facet
facets
facies
facilit
facilitate
facilitated
facilitates
facilitating
facilities
facility
facing
fact
factor
factors
facts
faculae
fade
faded
fades
fading
fail
failed
fails
failure
failures
fain
faint
fainter
faintest
faintness
fair
fairly
faith
fake
fall
fallback
fallen
falling
falloff
fallout
falls
false
fam
famil
familiar
families
family
famous
fan
fans
far
farther
farthest
fasc
fash
fashion
fast
faster
fastest
fat
fate
fatty
fault
faulting
faults
fav
favor
favorable
favored
favoring
favors
favour
favourable
favoured
favours
fay
fayalite
fb
fc
fe
feas
feasibility
feasible
feat
feature
featureless
features
featuring
fed
feed
feedback
feedbacks
feeding
feeds
feel
feld
feldspar
feldspars
feldspathic
fell
fels
felsic
felt
fer
ferm
fermion
fermionic
fermions
ferri
ferric
ferrihydrite
ferro
ferroan
ferrom
ferromagnetic
ferrous
fertil
fertile
few
fewer
ff
fi
fib
fiber
fibers
fibr
fibre
fibres
fic
fictitious
fid
fide
fidel
fidelity
fiducial
field
fielded
fielding
fields
fift
fifth
fig
figs
figure
figures
fil
filam
filament
filamentary
filaments
file
files
fill
filled
filling
fills
film
films
filt
filter
filtered
filtering
filters
filtration
fin
final
finally
financ
financial
find
finder
finding
findings
finds
fine
finely
finer
fines
finest
fing
finger
fingers
finished
finite
fir
fire
fireball
fires
firm
firmly
first
firstly
fis
fish
fission
fissure
fit
fits
fitted
fitting
fittings
five
fix
fixation
fixed
fixes
fixing
fl
flag
flagged
flagging
flags
flame
flank
flanks
flare
flared
flares
flaring
flas
flash
flashes
flat
flatness
flats
flatten
flattened
flattening
flattens
flatter
flav
flavor
flavors
flavour
flaw
flex
flexibility
flexible
flexural
flexure
flick
flickering
flight
flights
flip
flo
float
floating
flood
flooding
floodpl
floods
floor
floors
flow
flowing
flown
flows
flu
fluctu
fluctuate
fluctuates
fluctuating
fluctuation
fluctuations
fluence
fluences
fluid
fluids
fluor
fluores
fluorescence
fluorescent
fluorine
fluvial
flux
fluxes
fly
flyby
flybys
flying
fm
fn
fo
foF2
foam
foc
focal
focus
focused
focuses
focusing
foil
foils
fol
fold
folded
folding
foldings
folds
foliation
follow
followed
following
follows
food
foot
footnote
footp
footpoint
footpoints
footprint
footprints
footwall
for
foramin
foraminifer
foraminifera
foraminiferal
forb
forbidden
forc
force
forced
forces
forcing
forcings
fore
forearc
forec
forecast
forecasting
forecasts
foreground
foregrounds
foreland
foresh
foreshock
forest
forests
form
formal
formaldehyde
formalism
formally
format
formation
formations
formed
former
formerly
forming
forms
formula
formulae
formulas
formulate
formulated
formulation
formulations
forsterite
fort
forth
forthcoming
fortu
fortun
forward
fossil
fossils
found
foundation
fountain
four
fourth
fr
frac
fract
fractal
fraction
fractional
fractionated
fractionation
fractionations
fractions
fracture
fractured
fractures
fracturing
frag
fragment
fragmentation
fragmented
fragments
fram
frame
frames
framework
fre
free
freedom
freely
freeze
freezing
frequ
frequencies
frequency
frequent
frequently
fres
fresh
freshly
freshwater
fri
fric
friction
frictional
friends
fring
fringe
fringes
fro
from
fron
front
frontal
fronts
frost
frozen
fruit
fruitful
fs
ft
ftp
fu
fuel
fug
fugacity
ful
fulf
fulfill
fulfilled
full
fuller
fully
fumar
fun
func
function
functional
functionality
functionals
functions
fund
fundam
fundament
fundamental
fundamentally
funded
funding
funnel
fur
furn
furnace
further
furthermore
fused
fusion
future
fuzz
fuzzy
g
ga
gab
gabb
gabbro
gabbroic
gabbros
gadget
gain
gained
gains
gal
galactic
galactocentric
galax
galaxies
galaxy
galfit
gall
gamma
gap
gaps
garn
garnet
garnets
gas
gaseous
gases
gate
gather
gathered
gau
gauge
gauged
gauges
gaugino
gaus
gaussian
gave
gc
ge
gel
gen
gene
gener
general
generality
generalization
generalizations
generalize
generalized
generalizes
generally
generate
generated
generates
generating
generation
generations
generator
generators
generic
generically
genesis
genetic
gent
gentle
gently
genu
genuine
genus
geo
geocentric
geochem
geochemical
geochemistry
geochron
geochronology
geocor
geodes
geodesic
geodesics
geodetic
geodynam
geodynamic
geoeff
geographic
geographical
geoid
geologic
geological
geologically
geology
geomagnetic
geomagnetically
geomet
geometric
geometrical
geometrically
geometries
geometry
geomorph
geomorphic
geophys
geophysical
geophysics
geopotential
geos
geost
geostationary
geostrophic
geosynchronous
geother
geotherm
geothermal
german
germanium
get
gets
getting
gf
gg
gh
ghost
ghosts
giant
giants
gib
gibbsite
gif
gig
github
giv
give
given
gives
giving
gl
glac
glaci
glacial
glaciation
glacier
glaciers
glance
glass
glasses
glassy
glitch
glitches
glob
global
globally
globe
globular
globule
globules
glow
glu
gluon
glyc
glycine
gm
gneiss
gneisses
go
goal
goals
goes
goethite
going
gold
gone
good
goodness
got
gou
gouge
gov
gover
govern
governed
governing
government
governs
gr
gra
grab
graben
grad
grade
gradi
gradient
gradients
gradual
gradually
grain
grained
grains
gram
gran
grand
granit
granite
granites
granitic
granitoids
granodior
granodiorite
grant
grants
granul
granular
granulation
granules
granulite
granulites
graph
graphic
graphical
graphically
graphite
graphs
grass
grate
grateful
gratefully
grating
gratings
grav
gravel
gravi
gravit
gravitating
gravitation
gravitational
gravitationally
gravities
gravitino
graviton
gravitons
gravity
gray
grayscale
grazing
gre
great
greater
greatest
greatly
green
greenhouse
greenstone
grew
grey
grid
gridded
grids
grinding
grism
grl
gro
groo
grooves
gross
ground
grounding
groundmass
grounds
groundwater
groundwaters
group
grouped
grouping
groupings
groups
grow
growing
grown
grows
growth
gs
gsfc
gt
gu
guarant
guarantee
guaranteed
guarantees
guess
guid
guidance
guide
guided
guidelines
guiding
gullies
gully
gun
gy
gypsum
gyr
gyre
gyro
gyrofrequency
gyroradi
gyroradius
h
hPa
ha
hab
habit
habitability
habitable
habitat
had
hadron
hadronic
hadrons
haem
haematite
hair
hal
half
halite
halo
haloes
halogen
halos
halves
hamp
hampered
hand
handed
handful
handle
handled
handling
hanging
happ
happen
happened
happening
happens
har
harb
harbor
harbour
hard
hardening
harder
hardly
hardness
hardware
harmon
harmonic
harmonics
harvard
harzburg
harzburgite
has
hat
hatched
have
having
haz
hazard
hazards
haze
hc
he
head
header
heads
health
hear
heart
heat
heated
heater
heating
heats
heav
heavier
heaviest
heavily
heavy
height
heights
hel
held
heli
helical
helicity
heliocentric
heliographic
heliopause
heliosheath
heliosphere
heliospheric
helium
help
helped
helpful
helping
helps
hem
hematite
hemisp
hemisphere
hemispheres
hemispheric
hemispherical
hence
henceforth
hep
her
here
hereafter
herein
hereinafter
het
heter
hetero
heterogene
heterogeneities
heterogeneity
heterogeneous
heuristic
hex
hexagonal
hi
hiatus
hib
hibonite
hidden
hierarch
hierarchical
hierarchy
hig
high
higher
highest
highl
highland
highlands
highlight
highlighted
highlighting
highlights
highly
highs
hill
hills
him
hind
hinder
hing
hint
hints
his
hiss
hist
histogram
histograms
histor
historic
historical
historically
histories
history
hit
hitherto
hits
hm
hmF2
ho
hoc
hod
hol
hold
holder
holding
holds
hole
holes
hollow
holog
holographic
holonomy
hom
home
homogen
homogeneity
homogeneous
homogeneously
homogenization
homogenized
homogenous
homolog
homologous
hop
hope
hoped
horiz
horizon
horizons
horizont
horizontal
horizontally
horn
hornblende
horseshoe
host
hosted
hosting
hosts
hot
hotspot
hotspots
hotter
hottest
hour
hourly
hours
hous
house
how
howard
however
hr
href
htm
html
http
https
huge
hum
human
humans
humic
humid
humidity
hump
hundred
hundreds
hur
hurricane
hy
hybrid
hyd
hydr
hydra
hydrate
hydrated
hydrates
hydration
hydraulic
hydro
hydrocar
hydrocarbon
hydrocarbons
hydrodynam
hydrodynamic
hydrodynamical
hydrodynamics
hydrog
hydrogen
hydrogenation
hydrolog
hydrologic
hydrological
hydrology
hydrolysis
hydromagnetic
hydroph
hydrostatic
hydrothermal
hydrous
hydrox
hydroxide
hydroxides
hydroxy
hydroxyl
hyp
hyper
hyperb
hyperbol
hyperbolic
hyperfine
hypergeometric
hyperons
hyperparamet
hyperparameters
hypers
hypersurface
hypersurfaces
hypervelocity
hypocent
hypocenter
hypocentral
hypocentre
hypot
hypothe
hypotheses
hypothesis
hypothesize
hypothesized
hypothetical
hysteresis
i
i0
iO
iPTF
iS
ia
ic
ice
iceberg
ices
icy
id
ide
idea
ideal
idealized
ideally
ideas
iden
identi
identical
identically
identif
identifiable
identification
identifications
identified
identifier
identifies
identify
identifying
identities
identity
ie
if
ig
ign
igneous
ignition
ignor
ignore
ignored
ignores
ignoring
ii
iii
ij
ik
il
ill
illite
illumin
illuminate
illuminated
illuminating
illumination
illust
illustrate
illustrated
illustrates
illustrating
illustration
illustrative
ilmenite
im
imag
image
imaged
imager
imagers
imagery
images
imaginary
imagine
imaging
imbal
imbalance
imm
immediate
immediately
immers
immersed
immisc
immob
immobile
imp
impac
impact
impacted
impacting
impactor
impactors
impacts
imparted
imped
impedance
imper
imperfect
imping
impinging
impl
implantation
implanted
implau
implausible
implement
implementation
implementations
implemented
implementing
implements
implic
implication
implications
implicit
implicitly
implied
implies
imply
implying
import
importance
important
importantly
impose
imposed
imposes
imposing
impossible
impractical
impression
impressive
imprint
imprinted
imprints
impro
improb
improbable
improve
improved
improvement
improvements
improves
improving
impul
impulse
impulsive
impurities
impurity
in
inability
inac
inaccessible
inaccur
inaccuracies
inaccuracy
inaccurate
inactive
inadequ
inadequate
inapp
inappropriate
inbound
inc
inch
incidence
incident
incipient
incision
incl
inclination
inclinations
inclined
inclu
includ
include
included
includes
including
inclusion
inclusions
inclusive
inco
incoherent
incoming
incomp
incompatible
incomplet
incomplete
incompleteness
incompressible
incon
inconclusive
incons
inconsist
inconsistencies
inconsistency
inconsistent
incor
incorp
incorpor
incorporate
incorporated
incorporates
incorporating
incorporation
incorrect
incorrectly
incre
increas
increase
increased
increases
increasing
increasingly
increment
incremental
increments
incub
incubation
incur
ind
indeb
indebted
indeed
indef
independ
independence
independent
independently
index
indexes
indic
indicate
indicated
indicates
indicating
indication
indications
indicative
indicator
indicators
indices
indirect
indirectly
indistinguishable
indiv
individ
individual
individually
individuals
induc
induce
induced
induces
inducing
induction
inductive
inductively
indust
industrial
industry
ineff
ineffective
ineffici
inefficient
inelastic
inequ
inequalities
inequality
iner
inert
inertia
inertial
inev
inevitable
inevitably
inf
infall
infalling
infer
inference
inferences
inferior
inferred
inferring
infilt
infiltration
infinite
infinitely
infinites
infinitesimal
infinity
infl
inflated
inflation
inflationary
inflaton
inflection
inflow
inflowing
inflows
influ
influence
influenced
influences
influencing
influx
inform
information
informative
informed
infrared
infrasound
infrastructure
infrequ
ing
ingoing
ingred
ingredient
ingredients
ingress
inh
inhab
inher
inherent
inherently
inherited
inhib
inhibit
inhibited
inhibition
inhibits
inhomogene
inhomogeneities
inhomogeneity
inhomogeneous
ini
init
initi
initial
initialization
initialized
initially
initiate
initiated
initiating
initiation
initio
inj
inject
injected
injecting
injection
injections
inland
inlet
inline
inlineGraphic
inn
inner
innermost
innov
inorganic
input
inputs
ins
insensi
insensitive
inser
insert
inserted
inserting
insertion
inset
insets
inside
insight
insights
insignificant
insolation
insoluble
insp
inspect
inspected
inspecting
inspection
inspir
inspiral
inspired
inst
instabilities
instability
install
installation
installed
instance
instances
instant
instantaneous
instantaneously
instanton
instead
institution
instruc
instructive
instrum
instrument
instrumental
instrumentation
instruments
insuffici
insufficient
insulating
int
intact
integ
integer
integers
integra
integrable
integral
integrals
integrand
integrate
integrated
integrates
integrating
integration
integrations
integrator
intell
intellig
intend
intended
intense
intensi
intensif
intensification
intensified
intensities
intensity
intensive
intensively
intention
inter
interac
interact
interacted
interacting
interaction
interactions
interactive
interacts
interannual
interarm
interc
intercal
intercept
intercepts
interchange
intercon
interconnected
interd
interest
interested
interesting
interestingly
interests
interf
interface
interfaces
interfacial
interfer
interfere
interference
interferences
interferogram
interferograms
interferometer
interferometers
interferometric
interferometry
interg
intergalactic
interglacial
intergranular
interior
interiors
interl
interlayer
interlopers
intermedi
intermediate
intermitt
intermittency
intermittent
intern
internal
internally
international
interp
interpl
interplanetary
interplay
interpolate
interpolated
interpolating
interpolation
interpre
interpret
interpretation
interpretations
interpreted
interpreting
interrel
interrupted
inters
intersect
intersecting
intersection
intersections
intersects
interseismic
interstellar
interstitial
intert
interval
intervals
interven
intervening
intimately
into
intr
intra
intrac
intracluster
intraplate
intric
intrigu
intriguing
intrins
intrinsic
intrinsically
introduc
introduce
introduced
introduces
introducing
introduction
intru
intruded
intrusion
intrusions
intrusive
intu
intui
intuition
intuitive
intuitively
inund
inv
invalid
invaluable
invari
invariably
invariance
invariant
invariants
invent
inventories
inventory
inver
inverse
inversely
inversion
inversions
invert
inverted
inverting
invest
investig
investigate
investigated
investigates
investigating
investigation
investigations
investigators
invis
inviscid
invisible
invok
invoke
invoked
invoking
involve
involved
involvement
involves
involving
inward
inwards
io
iod
iodine
ion
ionic
ionisation
ionised
ionization
ionize
ionized
ionizing
ionogram
ionograms
ionopause
ionosonde
ionosphere
ionospheric
ions
ip
ipac
ir
iraf
iron
irons
irradi
irradiance
irradiated
irradiation
irre
irreduc
irreducible
irreg
irregular
irregularities
irregularity
irregularly
irrelev
irrelevant
irrespective
irreversible
irrig
is
isent
isentropic
island
islands
iso
isobar
isobaric
isoc
isochron
isochrone
isochrones
isochrons
isocurvature
isod
isolate
isolated
isolating
isolation
isomer
isomers
isometry
isop
isoph
isophotal
isophote
isophotes
isopyc
isos
isospin
isostatic
isot
isother
isotherm
isothermal
isotherms
isotop
isotope
isotopes
isotopic
isotopically
isotopolog
isotopologue
isotopologues
isotrop
isotropic
isotropically
isotropy
isov
iss
issue
issues
ist
iswhere
it
italic
item
items
iter
iterated
iteration
iterations
iterative
iteratively
its
itself
ity
iv
ix
j
jack
jackknife
jar
jarosite
jet
jets
jg
jgra
jgre
jitter
jo
job
join
joined
joining
joint
jointly
jour
journal
jovian
ju
jud
judge
judged
jump
jumps
junction
junctions
jus
just
justif
justification
justified
justifies
justify
juven
juvenile
k
k2
kA
kG
kHz
kJ
kK
kPa
kR
kSZ
kT
kV
kW
ka
kam
kamacite
kaol
kaolinite
kappa
kb
kbar
kcal
ke
keV
keep
keeping
keeps
kept
ker
kern
kernel
kernels
kerogen
ket
key
kg
kick
kicks
kil
kilo
kilomet
kilometer
kilometers
kilometres
kilonova
kiloparsec
kiloparsecs
kim
kimberl
kimberlite
kimberlites
kin
kind
kindly
kinds
kine
kinema
kinematic
kinematical
kinematically
kinematics
kinetic
kinetics
kink
kinks
kl
km
kms
kn
knee
knot
knots
know
knowing
knowledge
known
komati
kpc
kr
ks
kurt
kurtosis
ky
kyr
l
l0
lO
la
lab
label
labeled
labelled
labels
labile
laboratories
laboratory
lac
lack
lacking
lacks
lacustrine
lad
ladder
lag
lagged
lags
laid
lake
lakes
lam
lamellae
lamin
laminar
laminated
lamp
lamps
lan
land
lander
landforms
landing
lands
landsc
landscape
landscapes
landsl
landslide
landslides
landward
lane
lanes
lang
language
lanthan
lapse
lar
larg
large
largely
larger
largest
las
laser
lasers
last
lasted
lasting
lasts
lat
late
latent
later
lateral
laterally
latest
latex
latit
latitude
latitudes
latitudinal
latter
lattice
launc
launch
launched
launches
launching
lav
lava
lavas
law
laws
lay
layer
layered
layering
layers
layout
lb
lc
le
leach
leached
leaching
lead
leader
leaders
leading
leads
leaf
leak
leakage
leap
lear
learn
learned
learning
least
leave
leaves
leaving
led
left
leftmost
leg
legacy
legend
legs
lem
lemma
len
lends
leng
length
lengthen
lengths
lengthy
lens
lensed
lenses
lensing
lenticular
lep
lept
leptogenesis
lepton
leptonic
leptons
les
less
lesser
let
letter
letters
letting
leuc
lev
level
levels
lever
lh
lherz
lherzolite
li
lib
liber
liberated
libraries
library
libration
lic
lid
lidar
lie
lies
life
lifetime
lifetimes
lift
lifted
lifting
lig
ligand
ligands
light
lightcur
lightcurve
lightcurves
lighter
lightest
lightning
lign
lignin
lik
like
likelihood
likelihoods
likely
likewise
lim
limb
limest
limestone
limestones
limit
limitation
limitations
limited
limiting
limits
lin
line
lineaments
linear
linearity
linearization
linearized
linearly
lineations
lined
lines
linewidth
linewidths
link
linkage
linked
linking
links
lip
lipid
lipids
liqu
liquid
liquids
liquidus
list
listed
listing
lists
lit
liter
literature
lith
lithic
lithium
lithological
lithologies
lithology
lithophile
lithosphere
lithospheric
little
live
lived
lives
living
ll
lm
ln
lo
load
loaded
loading
loads
lobate
lobe
lobes
loc
local
localised
localities
locality
localization
localized
locally
locate
located
locating
location
locations
loci
lock
locked
locking
locus
loess
log
logarithm
logarithmic
logarithmically
logarithms
logic
logical
lognormal
logs
lon
long
longer
longest
longit
longitude
longitudes
longitudinal
longitudinally
longward
longwave
look
looked
looking
looks
loop
loops
loose
loosely
lopsided
los
lose
loses
losing
loss
losses
lost
lot
loud
loudness
low
lower
lowered
lowering
lowermost
lowers
lowest
lowlands
lows
ls
lt
lumin
luminescence
luminosities
luminosity
luminous
lump
lunar
ly
lying
m
m2
m3
mA
mC
mG
mHz
mJy
mK
mL
mM
mT
mV
mW
ma
mac
mach
machine
macro
macrom
macroscopic
made
mafic
mag
magenta
maghemite
magma
magmas
magmatic
magmatism
magn
magnes
magnesian
magnesite
magnesium
magnet
magnetar
magnetars
magneti
magnetic
magnetically
magnetism
magnetite
magnetization
magnetizations
magnetized
magneto
magnetogram
magnetograms
magnetohydrodynam
magnetohydrodynamic
magnetohydrodynamics
magnetometer
magnetometers
magnetopause
magnetorotational
magnetos
magnetosheath
magnetosonic
magnetosphere
magnetospheres
magnetospheric
magnetot
magnetotail
magnification
magnifications
magnified
magnitude
magnitudes
mail
main
mainly
mainshock
maintain
maintained
maintaining
maintains
maintenance
major
majority
make
makes
making
mal
man
manage
managed
management
mand
maneu
maneuver
mang
manganese
manif
manifest
manifestation
manifestations
manifested
manifestly
manifests
manifold
manifolds
manip
manipulation
manner
mant
mantle
mantles
manual
manually
manufact
manusc
manuscript
many
map
mapped
mapping
maps
mar
mare
marg
margin
marginal
marginalize
marginalized
marginalizing
marginally
margins
maria
marine
mark
marked
markedly
marker
markers
market
marking
marks
marsh
martian
mas
maser
masers
mask
masked
masking
masks
mass
masses
massif
massive
massless
master
mat
match
matched
matches
matching
material
materials
math
mathema
mathematical
mathematically
mathematics
mathvariant
mation
matrices
matrix
matter
matters
maturation
mature
maturity
max
maxim
maxima
maximal
maximally
maximize
maximized
maximizes
maximizing
maximum
may
maybe
mb
mbar
mbs
mbsf
mc
me
mea
mean
meaning
meaningful
means
meant
meas
measurable
measure
measured
measurement
measurements
measures
measuring
mechan
mechanical
mechanically
mechanics
mechanism
mechanisms
med
medi
media
median
medians
mediated
mediator
medium
meet
meeting
meets
meg
mega
megac
megacryst
megathrust
mel
melilite
melt
melted
melting
melts
meltwater
mem
memb
member
members
membership
membrane
memory
men
ment
mental
mention
mentioned
mentioning
ments
mer
mercury
mere
merely
merg
merge
merged
merger
mergers
merges
merging
merid
meridian
meridional
merit
merits
mes
mesa
mesh
meshes
meso
meson
mesons
mesopause
mesoscale
mesosphere
mesospheric
mesostasis
mess
message
met
meta
metab
metabol
metabolic
metabolism
metal
metall
metallic
metallicities
metallicity
metals
metamorph
metamorphic
metamorphism
metamorphosed
metas
metased
metasom
metasomatic
metasomatism
metast
metastable
meteor
meteoric
meteorite
meteorites
meteoritic
meteoroid
meteoroids
meteorological
meteorology
meteors
meter
meters
meth
methan
methane
methanol
method
methodologies
methodology
methods
methyl
metres
metric
metrics
mf
mg
mi
mic
mica
micas
micro
microb
microbial
microc
microf
microg
microgravity
microl
microlensing
micromet
micrometeor
micrometeorites
micron
microns
microorgan
microorganisms
microp
microphys
microphysical
microphysics
microprobe
microquas
micros
microsc
microscope
microscopic
microscopy
microse
microstructure
microstructures
microturb
microturbulence
microturbulent
microwave
mid
midday
middle
midl
midlatitude
midlatitudes
midnight
midplane
midpoint
mig
might
migrate
migrated
migrates
migrating
migration
mil
mild
mildly
milit
military
mill
milli
millimeter
millimetre
million
millions
millisec
millisecond
milliseconds
mim
mimic
mimick
mimicking
mimics
min
mind
mine
miner
mineral
mineralization
mineralog
mineralogical
mineralogy
minerals
mini
minih
minihal
minim
minima
minimal
minimally
minimization
minimize
minimized
minimizes
minimizing
minimum
mining
minor
minority
minus
minute
minutes
mir
mirror
mirroring
mirrors
mis
misal
misaligned
misalignment
misc
misclassified
misfit
misle
misleading
mism
mismatch
miss
missed
missing
mission
missions
mist
mistaken
mit
mitig
mitigate
mitigated
mitigation
mix
mixed
mixes
mixing
mixture
mixtures
ml
mm
mmag
mml
mmol
mn
mnr2
mo
mob
mobile
mobility
mobilization
mock
mocks
mod
modal
mode
model
modeled
modeling
modelled
modelling
models
moder
moderate
moderately
modern
modes
modest
modestly
modification
modifications
modified
modifies
modify
modifying
modular
modulate
modulated
modulating
modulation
modulations
module
modules
moduli
modulo
modulus
moist
moisture
mol
molal
molar
mole
molec
molecular
molecule
molecules
moles
molten
molyb
molybden
moment
momenta
moments
momentum
mon
monazite
monitor
monitored
monitoring
monitors
mono
monoch
monochromatic
monod
monoenergetic
monol
monolithic
monomer
monomers
monop
monopole
monopoles
monot
monoton
monotonic
monotonically
monoxide
monso
monsoon
month
monthly
months
montmorillonite
moon
moons
mor
more
moreover
morning
morph
morphologic
morphological
morphologically
morphologies
morphology
mort
mosa
mosaic
mosaics
most
mostly
mot
mother
motion
motions
motiv
motivate
motivated
motivates
motivation
motivations
motor
mound
mounds
mount
mountain
mountains
mounted
mounting
mouth
move
moved
movement
movements
moves
movie
moving
mp
mrow
ms
msub
mt
mu
much
mud
mudstone
mul
multi
multiband
multic
multicomponent
multid
multidimensional
multifract
multifractal
multifrequency
multilayer
multim
multip
multiphase
multipl
multiple
multiples
multiplet
multiplets
multiplication
multiplicative
multiplicity
multiplied
multiplier
multipliers
multiply
multiplying
multipolar
multipole
multipoles
multiscale
multispectral
multitude
multiv
multivariate
multiwavelength
muon
muons
musc
muscovite
must
mut
mutual
mutually
my
myl
myster
mystery
n
nA
nM
nPa
nT
na
nadir
naive
naively
nak
naked
nakhl
nam
name
named
namely
names
nan
nano
nanop
nanoparticles
napp
narrow
narrowband
narrower
narrowing
nas
nasa
nascent
nat
natal
nation
national
native
natural
naturally
nature
nav
navigation
nd
ne
near
nearby
nearer
nearest
nearly
neb
nebul
nebula
nebulae
nebular
nebulosity
necess
necessarily
necessary
necessit
necessity
neck
need
needed
needle
needs
neg
negative
negatively
negl
neglect
neglected
neglecting
neglects
neglig
negligible
negligibly
neighb
neighbor
neighborhood
neighboring
neighbors
neighbour
neighbourhood
neighbouring
neighbours
neither
neon
nep
nephe
nepheline
nested
net
netic
network
networks
neu
neur
neural
neurons
neut
neutral
neutralino
neutralinos
neutrality
neutrals
neutrin
neutrino
neutrinos
neutron
neutrons
never
nevertheless
new
newer
newly
next
ng
ni
nic
nice
nicely
nickel
night
nightglow
nightly
nights
nightside
nighttime
nin
nine
nit
nitr
nitrate
nitric
nitrogen
nl
nm
nmol
nn
no
noaa
noble
nod
nodal
node
nodes
nodule
nodules
nois
noise
noises
noisier
noisy
nom
nomenclature
nominal
nominally
non
nonadiabatic
nonaxis
nonaxisymmetric
nonc
noncommut
noncommutative
noncon
nond
nondeg
nondet
nondetection
nondimensional
none
nonequilibrium
nonetheless
nong
nonl
nonlinear
nonlinearities
nonlinearity
nonlocal
nonm
nonmigrating
nonmin
nonminimal
nonneg
nonp
nonperturb
nonperturbative
nonradi
nonradial
nonrelativistic
nonresonant
nonrotating
nons
nonsing
nonsingular
nonsp
nonspherical
nonspinning
nonst
nonstandard
nont
nonthermal
nontri
nontrivial
nonun
nonuniform
nonvanishing
nonzero
noon
nor
norm
normal
normalisation
normalised
normalization
normalizations
normalize
normalized
normalizing
normally
normals
normative
nort
north
northeast
northeastern
northern
northernmost
northward
northwest
northwestern
nose
not
notable
notably
notation
notations
note
noted
notes
noteworthy
nothing
notic
notice
noticeable
noticeably
noticed
noticing
noting
notion
nova
novae
novel
now
np
nr
ns
nt
nu
nuc
nucle
nuclear
nucleated
nucleation
nuclei
nucleon
nucleons
nucleosynthesis
nucleosynthetic
nucleus
nuclide
nuclides
nug
nuggets
nuisance
null
nulling
nulls
num
number
numbered
numbers
numer
numerator
numerical
numerically
numerous
nut
nutation
nutri
nutrient
nutrients
o
ob
obey
obeying
obeys
obj
object
objective
objectives
objects
obl
oblate
oblateness
obliqu
oblique
obliquity
obs
obsc
obscuration
obscure
obscured
obscuring
obser
observ
observability
observable
observables
observation
observational
observationally
observations
observatories
observatory
observe
observed
observer
observers
observes
observing
obstac
obstacle
obstacles
obtain
obtained
obtaining
obtains
obvious
obviously
oc
occ
occas
occasional
occasionally
occasions
occul
occultation
occultations
occulted
occup
occupation
occupied
occupies
occupy
occupying
occur
occurred
occurrence
occurrences
occurring
occurs
oce
ocean
oceanic
oceans
oct
octa
octahed
octahedral
octup
octupole
od
odd
odds
of
off
offer
offered
offering
offers
official
offs
offset
offsets
offshore
often
oh
ohmic
oi
oil
oils
ol
old
older
oldest
olig
oliv
olivine
olivines
om
omission
omit
omitted
omitting
omn
on
onboard
once
one
ones
ongoing
online
only
onset
onsets
onshore
onto
onwards
oo
ooo
op
opacities
opacity
opal
opaque
open
opened
opening
opens
oper
operate
operated
operates
operating
operation
operational
operations
operator
operators
oph
ophi
ophiol
ophiolite
ophiolites
opin
opinion
opp
opportun
opportunities
opportunity
opposed
opposing
opposite
oppositely
opposition
opt
optic
optical
optically
optics
optim
optimal
optimally
optimistic
optimization
optimize
optimized
optimizing
optimum
option
options
opx
or
orange
orb
orbit
orbital
orbitals
orbiter
orbiting
orbits
ord
order
ordered
ordering
orders
ordin
ordinary
ordinate
ore
ores
org
organ
organic
organics
organisms
organization
organized
orient
orientation
orientations
oriented
orig
origin
original
originally
originate
originated
originates
originating
origins
orogen
orogenic
orogeny
orth
ortho
orthog
orthogonal
orthogonality
orthonormal
orthopyroxene
os
oscill
oscillate
oscillates
oscillating
oscillation
oscillations
oscillator
oscillators
oscillatory
osculating
osm
ot
other
others
otherwise
ou
ought
our
ours
ourselves
out
outbound
outburst
outbursts
outc
outcome
outcomes
outcrop
outcrops
outer
outermost
outflow
outflowing
outflows
outg
outgassing
outgoing
outl
outlet
outlier
outliers
outline
outlined
outlines
outlying
outper
output
outputs
outside
outskir
outskirts
outstanding
outward
outwards
ov
oval
oven
over
overabund
overabundance
overall
overbur
overburden
overc
overcome
overd
overdense
overdensities
overdensity
overestim
overestimate
overestimated
overestimates
overestimation
overflow
overg
overhead
overl
overlaid
overlain
overlap
overlapped
overlapping
overlaps
overlay
overlook
overlooked
overly
overlying
overp
overplot
overplotted
overpredic
overpress
overpressure
overr
overriding
overs
oversh
overshoot
overshooting
oversimpl
overt
overtone
overtones
overturn
overturning
overview
overw
overwhel
overwhelming
ow
owing
own
ox
oxalate
oxic
oxid
oxidation
oxidative
oxide
oxides
oxidized
oxidizing
oxy
oxygen
oxyhyd
oxyhydrox
oxyhydroxides
ozone
p
p2
pCO
pH
pP
pT
pV
pa
pack
package
packages
packed
packet
packets
packing
pad
page
pages
paid
pair
paired
pairing
pairs
pairwise
pal
palae
palaeo
palaeomagnetic
pale
paleo
paleoclim
paleointensity
paleol
paleomagnetic
pan
panc
pancake
panel
panels
paper
papers
par
para
parab
parabol
parabola
parabolic
parad
paradigm
paradox
paragraph
paragraphs
parall
parallactic
parallax
parallaxes
parallel
param
paramagnetic
paramet
parameter
parameterization
parameterizations
parameterize
parameterized
parameters
parametri
parametric
parametrization
parametrizations
parametrize
parametrized
parc
parcel
parcels
parent
parental
parentheses
parenthesis
parity
parsec
parsecs
part
parti
partial
partially
partic
particip
participants
participate
participating
participation
particle
particles
particular
particularly
particulate
partition
partitioned
partitioning
partly
partner
partners
parts
pass
passage
passages
passband
passbands
passed
passes
passing
passive
passively
past
pat
patch
patches
patchy
path
paths
pathway
pathways
pattern
patterns
paucity
pay
payload
payloads
pb
pc
pdf
pe
peak
peaked
peaking
peaks
peat
peb
pebble
pebbles
pec
peculi
peculiar
peculiarities
peculiarity
ped
pedestal
peg
pegm
pel
pelagic
pell
pen
penal
penalty
pend
pendulum
penet
penetrate
penetrated
penetrates
penetrating
penetration
peninsula
pent
pentlandite
penum
penumbra
penumbral
people
per
perature
perc
perce
perceived
percent
percentage
percentages
percenti
percentile
percentiles
perchlor
perchlorate
percolation
perfect
perfectly
perform
performance
performances
performed
performing
performs
perhaps
peri
periapsis
periastron
peric
pericent
pericenter
pericentre
pericentric
perido
peridotite
peridotites
perig
perigee
perihelion
perimeter
period
periodic
periodically
periodicities
periodicity
periodogram
periodograms
periods
peripher
peripheral
periphery
perm
permafrost
perman
permanent
permanently
perme
permeability
permeable
permission
permit
permits
permitted
permitting
permittivity
permut
perovsk
perovskite
perp
perpendicular
pers
persist
persisted
persistence
persistent
persists
personal
perspective
perspectives
pertain
pertaining
pertinent
pertur
perturb
perturbation
perturbations
perturbative
perturbatively
perturbed
perturber
perturbing
pervas
pervasive
pes
pet
petro
petrogen
petrogenesis
petrograph
petrographic
petroleum
petrolog
petrologic
petrological
petrology
pg
ph
phantom
phase
phased
phases
phasing
phen
phenocrysts
phenomen
phenomena
phenomenological
phenomenologically
phenomenology
phenomenon
philos
phlogopite
phon
phonon
phosph
phosphate
phosphates
phosphorus
phot
photo
photoc
photochemical
photochemistry
photod
photodiss
photodissociation
photoelectric
photoelectron
photoelectrons
photoev
photoevapor
photoevaporation
photograph
photographic
photographs
photoion
photoionization
photoionized
photolysis
photom
photomet
photometer
photometric
photometrically
photometry
photomultipl
photomultiplier
photon
photons
photop
photosphere
photospheres
photospheric
photosynthesis
photosynthetic
phy
phyll
phyllosilic
phyllosilicate
phyllosilicates
phys
physi
physic
physical
physically
physics
phyt
phytoplankton
pi
pic
pick
picked
picking
picks
pickup
picture
pictures
pie
piec
piece
pieces
piecewise
pier
pig
pige
pigeonite
pil
pile
piles
pileup
pill
pillow
pilot
pin
pink
pinning
pion
pioneer
pioneering
pions
pip
pipe
pipeline
pipelines
piston
pit
pitch
pits
piv
pivot
pix
pixel
pixels
pk
pl
place
placed
placement
places
placing
plag
plage
plagioclase
plain
plains
plan
planar
plane
planes
planet
planetary
planetes
planetesimal
planetesimals
planets
plank
plankton
planktonic
planned
planning
plans
plant
plants
plas
plasm
plasma
plasmapause
plasmas
plasmasp
plasmasphere
plasmaspheric
plasmoid
plasmoids
plastic
plat
plate
plateau
plateaus
plates
platform
platforms
platinum
plau
plausible
plausibly
play
played
playing
plays
ple
plot
plots
plotted
plotting
plu
plug
plume
plumes
plung
plunge
plus
plut
pluton
plutonic
plutons
pm
pn
po
pock
pocket
pockets
poin
point
pointed
pointing
pointings
pointlike
points
pol
polar
polarimeter
polarimetric
polarimetry
polarisation
polarities
polarity
polarization
polarizations
polarized
polars
pole
poles
poleward
polic
policy
polished
political
poll
pollen
pollut
polluted
pollution
poloidal
poly
polyc
polycrystalline
polycyclic
polyg
polygon
polygonal
polygons
polym
polymer
polymerization
polymict
polymorph
polyn
polynomial
polynomials
polyp
polys
polyt
polytrope
polytropic
pond
ponds
pool
pools
poor
poorer
poorly
pop
popular
populate
populated
populating
population
populations
por
pore
pores
porewater
porosities
porosity
porous
porph
porphy
porphyritic
port
portion
portions
pos
pose
posed
poses
posi
posit
position
positional
positioned
positioning
positions
positive
positively
positives
positivity
positron
positrons
poss
possess
possesses
possessing
possi
possib
possibilities
possibility
possible
possibly
post
postd
poster
posterior
posteriori
posteriors
postmidnight
postseismic
postshock
postulate
postulated
pot
potassium
potential
potentially
potentials
pour
pow
powder
powdered
powders
power
powered
powerful
powering
powers
pp
ppb
ppbv
ppm
ppmv
ppt
pr
prac
practical
practically
practice
pre
prec
preced
preceded
preceding
precess
precessing
precession
precip
precipit
precipitate
precipitated
precipitates
precipitating
precipitation
precise
precisely
precision
precisions
preclu
preclude
precludes
precondition
precurs
precursor
precursors
pred
predic
predict
predictability
predictable
predicted
predicting
prediction
predictions
predictive
predictor
predictors
predicts
predomin
predominance
predominant
predominantly
predominately
pree
preex
preexisting
prefactor
prefer
preferable
preferably
preference
preferential
preferentially
preferred
preheating
prelim
preliminary
prem
premature
premidnight
prenoon
prep
prepar
preparation
prepare
prepared
preprint
prepro
prere
prerequisite
pres
presc
prescribed
prescription
prescriptions
presence
present
presentation
presented
presenting
presently
presents
preser
preservation
preserve
preserved
preserves
preserving
preshock
presolar
press
pressur
pressure
pressures
prestellar
presum
presumably
presumed
pret
prev
prevail
prevailing
preval
prevalence
prevalent
preven
prevent
prevented
preventing
prevents
previous
previously
pri
price
prim
primaries
primarily
primary
prime
primitive
primordial
princ
princip
principal
principally
principle
principles
prior
priori
priority
priors
pris
prism
pristine
priv
private
pro
prob
probabilistic
probabilities
probability
probable
probably
probe
probed
probes
probing
proble
problem
problematic
problems
procedure
procedures
proceed
proceeded
proceeding
proceeds
process
processed
processes
processing
processor
processors
produc
produce
produced
produces
producing
product
production
productive
productivity
products
prof
profile
profiles
profiling
profound
prog
progen
progenitor
progenitors
prograde
program
programme
programmes
programming
programs
progress
progresses
progression
progressive
progressively
prohib
proj
projec
project
projected
projectile
projectiles
projecting
projection
projections
projects
prol
prolate
prolong
prolonged
prom
promin
prominence
prominences
prominent
prominently
promise
promising
promote
promoted
promotes
promoting
promp
prompt
prompted
pron
prone
pronounced
proof
prop
propag
propagate
propagated
propagates
propagating
propagation
propagator
propagators
propell
propeller
proper
properly
properties
property
proply
proportion
proportional
proportionality
proportionally
proportions
propos
proposal
proposals
propose
proposed
proposes
proposition
propulsion
prosp
prospect
prospects
prot
prote
protect
protected
protection
protein
proteins
proto
protoc
protocluster
protocol
protog
proton
protons
protopl
protoplanet
protoplanetary
protoplanets
protost
protostar
protostars
protostellar
protot
prototype
prototypical
prov
prove
proved
proven
provenance
proves
provide
provided
provides
providing
province
provinces
proving
provision
prox
proxies
proxim
proximal
proximity
proxy
ps
pseud
pseudo
pseudob
pseudoscalar
pt
pub
public
publication
publications
publicly
published
pul
pull
pulled
puls
pulsar
pulsars
pulsating
pulsation
pulsational
pulsations
pulsators
pulse
pulsed
pulses
pum
pump
pumped
pumping
punc
puncture
pup
pupil
pur
pure
purely
purification
purified
purity
purp
purple
purpose
purposes
purs
pursue
pursued
push
pushed
pushes
pushing
put
putative
puts
putting
puzz
puzzle
puzzling
pv
px
py
pyr
pyrite
pyro
pyrocl
pyroclastic
pyrolysis
pyrox
pyroxene
pyroxenes
pyroxenite
pyrrhotite
python
q
qu
quad
quadr
quadrant
quadrants
quadratic
quadratically
quadrature
quadrup
quadruple
quadrupolar
quadrupole
qual
qualit
qualitative
qualitatively
quality
quan
quanta
quanti
quantif
quantification
quantified
quantifies
quantify
quantifying
quantit
quantitative
quantitatively
quantities
quantity
quantization
quantized
quantum
quar
quark
quarks
quarter
quarters
quartic
quartile
quartiles
quartz
quas
quasar
quasars
quasi
quasinormal
quasip
quasiperiodic
qubit
que
quen
quenc
quench
quenched
quenching
query
ques
question
questionable
questioned
questions
quick
quickly
quies
quiescence
quiescent
quiet
quint
quintess
quintessence
quite
quote
quoted
quoti
quotient
r
r1
r2
ra
race
rad
radar
radars
radi
radial
radially
radiance
radiances
radians
radiant
radiate
radiated
radiates
radiating
radiation
radiations
radiative
radiatively
radical
radicals
radii
radio
radioac
radioactive
radioactivity
radiocarbon
radiogenic
radiometer
radiometric
radion
radionuc
radionuclides
radiosonde
radius
radon
rain
rainfall
raise
raised
raises
raising
ram
ramp
ran
random
randomized
randomly
range
ranged
ranges
ranging
rank
ranked
ranking
rapid
rapidly
rar
rare
raref
rarefaction
rarely
rarer
raster
rate
rates
rather
rati
ratio
rational
rationale
ratios
raw
ray
rays
rc
re
reac
reacc
reach
reached
reaches
reaching
react
reactant
reactants
reacted
reacting
reaction
reactions
reactivation
reactive
reactivity
reactor
reactors
reacts
read
readable
reader
readers
readily
reading
readings
readout
reads
ready
reag
reagent
real
realistic
realistically
reality
realization
realizations
realize
realized
really
realm
rean
reanaly
reanalysis
reapp
rear
rearr
rearrange
rearrangement
reason
reasonable
reasonably
reasoning
reasons
reass
rebin
rebinned
rebound
rec
recal
recalcul
recalculated
recall
recalling
recast
rece
reced
receding
receive
received
receiver
receivers
receives
receiving
recent
recently
recession
rech
recharge
recip
recipe
recipes
reciprocal
reco
recog
recogn
recognised
recognition
recognizable
recognize
recognized
recoil
recoils
recoll
recomb
recombination
recombinations
recomm
recommend
recommendations
recommended
recomp
recon
reconc
reconcile
reconciled
reconfig
reconn
reconnected
reconnecting
reconnection
reconsider
reconstruc
reconstruct
reconstructed
reconstructing
reconstruction
reconstructions
record
recorded
recording
recordings
records
recover
recovered
recovering
recovers
recovery
recrystall
recrystallization
recrystallized
rect
rectang
rectangle
rectangles
rectangular
recur
recurrence
recurrent
recyc
recycled
recycling
red
redMa
redd
redden
reddened
reddening
redder
reddest
reddish
redef
redefinition
redist
redistrib
redistributed
redistribution
redox
redsh
redshift
redshifted
redshifts
reduc
reduce
reduced
reduces
reducing
reduction
reductions
redund
redundancy
redundant
redward
reef
reefs
reex
ref
refer
referee
reference
referenced
references
referred
referring
refers
refilling
refine
refined
refinement
refinements
refit
refl
reflect
reflectance
reflected
reflecting
reflection
reflections
reflective
reflectivity
reflector
reflectors
reflects
reform
refrac
refracted
refraction
refractive
refractivity
refractory
reg
regard
regarded
regarding
regardless
regards
regener
regime
regimes
region
regional
regionally
regions
register
registered
registration
regolith
regression
regressions
regular
regularity
regularization
regularized
regularly
regulate
regulated
regulating
regulation
regulator
reheating
rein
reinfor
reinforce
reinforced
reinforces
reion
reionization
reiter
rej
reject
rejected
rejecting
rejection
rejuven
rel
relate
related
relates
relating
relation
relations
relationship
relationships
relativ
relative
relatively
relativistic
relativistically
relativity
relax
relaxation
relaxed
relaxes
relaxing
rele
release
released
releases
releasing
relev
relevance
relevant
reli
reliability
reliable
reliably
relic
relics
relict
relied
relief
relies
relocated
rely
relying
rem
remain
remainder
remained
remaining
remains
reman
remanence
remanent
remark
remarkable
remarkably
remarked
remarks
remed
remember
remind
reminis
reminiscent
remn
remnant
remnants
remo
remote
remotely
removal
remove
removed
removes
removing
ren
rend
render
rendered
rendering
renders
renew
renewed
renormal
renormalizable
renormalization
renormalized
reorgan
reorient
rep
repar
repe
repeat
repeated
repeatedly
repeating
repeats
repeti
repetition
repl
replace
replaced
replacement
replaces
replacing
replen
replenish
replic
replicate
report
reported
reporting
reports
repository
repres
represent
representation
representations
representative
represented
representing
represents
repro
reprocessed
reprocessing
reproduc
reproduce
reproduced
reproduces
reproducibility
reproducible
reproducing
reproduction
repulsion
repulsive
requ
reques
request
requested
requi
require
required
requirement
requirements
requires
requiring
rer
res
resampled
resampling
rescal
rescale
rescaled
rescaling
resear
research
researchers
resem
resembl
resemblance
resemble
resembles
resembling
reser
reserved
reservoir
reservoirs
reset
resid
reside
residence
resides
residing
residual
residuals
residue
residues
resin
resis
resist
resistance
resistant
resistive
resistivity
resol
resolution
resolutions
resolvable
resolve
resolved
resolves
resolving
reson
resonance
resonances
resonant
resonantly
resonator
resort
resour
resource
resources
resp
respect
respective
respectively
respects
respiration
respon
respond
responding
responds
response
responses
responsible
rest
resto
restoration
restore
restored
restoring
restric
restrict
restricted
restricting
restriction
restrictions
restrictive
restricts
rests
resul
result
resultant
resulted
resulting
results
resurf
resurfacing
ret
retain
retained
retaining
retains
retard
retarded
retention
retreat
retri
retrie
retriev
retrieval
retrievals
retrieve
retrieved
retrog
retrograde
return
returned
returning
returns
rev
reve
reveal
revealed
revealing
reveals
rever
reverberation
revers
reversal
reversals
reverse
reversed
reverses
reversible
reversing
review
reviewed
reviewer
reviewers
reviews
revis
revised
revision
revisit
revisited
revolution
rew
rework
reworked
reworking
rewrite
rewritten
rf
rh
rhe
rheological
rheology
rhy
rhyolite
rhyolitic
ri
rib
ribbon
ribbons
ric
rich
richer
richness
rid
ridge
ridges
rift
rifting
rifts
rig
right
rightmost
rights
rigid
rigidity
rigidly
rigorous
rigorously
rim
rims
rind
ring
ringdown
rings
ringwoodite
rins
riometer
rip
ripp
ripple
ripples
ris
rise
rises
rising
risk
risks
river
riverine
rivers
rl
rm
rms
rn
ro
road
rob
robotic
robust
robustly
robustness
rock
rocket
rockets
rocks
rocky
rod
rol
role
roles
roll
rolling
rolls
roof
room
root
rooted
roots
rope
ropes
rose
rot
rotate
rotated
rotates
rotating
rotation
rotational
rotationally
rotations
rotator
rotators
rou
rough
roughly
roughness
round
rounded
rout
route
routes
routin
routine
routinely
routines
rover
row
rows
rp
rr
rs
rt
ru
rub
rubble
rul
rule
ruled
rules
ruling
run
runaway
running
runoff
runs
rup
rupture
ruptured
ruptures
rutile
s
sSFR
sa
sac
sad
saddle
saf
safe
safely
safety
said
sail
sake
sal
salient
saline
salinities
salinity
salt
saltation
salts
sam
same
samp
sample
sampled
sampler
samples
sampling
san
sand
sands
sandstone
sandstones
sandy
sanidine
sap
sat
satell
satellite
satellites
satisf
satisfact
satisfactorily
satisfactory
satisfied
satisfies
satisfy
satisfying
satur
saturate
saturated
saturates
saturation
save
saved
saw
sawtooth
say
says
sb
sc
scal
scalar
scalars
scale
scaled
scalehe
scaleheight
scalelength
scales
scaling
scalings
scan
scanned
scanning
scans
scar
scarc
scarce
scarcity
scarp
scarps
scatter
scattered
scatterer
scatterers
scattering
scatterings
scatters
scav
scavenging
scenari
scenario
scenarios
scene
sch
sched
schedul
schedule
scheduled
schem
schematic
schematically
scheme
schemes
schist
scho
sci
science
sciences
scienti
scientific
scientists
scintill
scintillation
scintillations
scintillator
scope
score
scores
scre
screen
screened
screening
script
scrutin
sd
sdB
se
sea
seafloor
sealed
seam
seamount
seamounts
searc
search
searched
searches
searching
seas
season
seasonal
seasonality
seasonally
seasons
seaward
seawater
sec
second
secondaries
secondary
secondly
seconds
section
sectional
sections
sector
sectors
secular
secure
security
sed
sedi
sediment
sedimentary
sedimentation
sediments
see
seed
seeded
seeding
seeds
seeing
seek
seeking
seem
seemed
seemingly
seems
seen
seep
seepage
sees
seesaw
seg
segment
segmentation
segmented
segments
segreg
segregated
segregation
seism
seismic
seismically
seismicity
seismogenic
seismogram
seismograms
seismological
seismology
seismometers
sel
select
selected
selecting
selection
selections
selective
selectively
selects
self
sem
semi
semian
semianaly
semianalytic
semiannual
semic
semiclassical
semidiurnal
semimajor
seminal
sen
sens
sense
sensed
sensi
sensible
sensing
sensitive
sensitively
sensitivities
sensitivity
sensor
sensors
sent
sep
separ
separable
separat
separate
separated
separately
separates
separating
separation
separations
separator
separatrix
sequ
sequence
sequences
sequential
sequentially
ser
serendip
serendipitous
serial
series
serious
seriously
serpenti
serpentin
serpentine
serpentinite
serpentinization
serpentinized
serv
serve
served
serves
service
services
ses
session
sessions
set
sets
sett
setting
settings
settle
settled
settles
settling
setup
setups
seven
sevent
seventh
sever
several
severe
severely
sf
sfer
sg
sh
shad
shaded
shading
shadow
shadowed
shadowing
shadows
shaking
shale
shales
shall
shallow
shallower
shallowest
shap
shape
shaped
shapes
shaping
shar
share
shared
shares
sharing
sharp
sharper
sharply
sharpness
shatter
she
shear
sheared
shearing
shears
sheath
shed
shedding
sheet
sheets
shel
shelf
shell
shells
shelves
shergot
shergottites
shield
shielded
shielding
shields
shift
shifted
shifting
shifts
ship
shock
shocked
shocks
shooter
shore
shoreline
short
shortcomings
shortening
shorter
shortest
shortly
shortward
shortwave
shot
shots
should
shoulder
show
showed
shower
showers
showing
shown
shows
shr
shrin
shrink
shrinking
shrinks
shuff
shut
shutter
shuttle
si
sid
side
sideband
sided
sidelob
sidelobes
sider
sidereal
siderite
siderophile
sides
sidew
sie
sig
sight
sightline
sightlines
sigm
sigma
sigmoid
sign
signal
signals
signature
signatures
signed
signific
significance
significant
significantly
signifies
signs
sil
silic
silica
silicate
silicates
siliceous
silicic
silicon
sill
sills
silt
silver
sim
similar
similarities
similarity
similarly
simp
simpl
simple
simpler
simplest
simplex
simplicity
simplification
simplifications
simplified
simplifies
simplify
simplifying
simplistic
simply
simul
simulate
simulated
simulates
simulating
simulation
simulations
simulator
simultaneous
simultaneously
sin
sin2
since
sine
sing
single
singlet
singly
singular
singularities
singularity
sinh
sink
sinking
sinks
sinuous
sinus
sinusoid
sinusoidal
sion
sit
site
sites
sits
situ
situated
situation
situations
six
sixth
sizable
size
sizeable
sized
sizes
sk
skel
skeletal
skeleton
sket
sketch
sketched
skew
skewed
skewness
skill
skin
sky
sl
slab
slabs
slant
sle
slic
slice
slices
slicing
slide
sliding
slight
slightly
slip
slit
slits
slope
slopes
sloping
slosh
slot
slow
slowed
slower
slowest
slowing
slowly
slowness
slows
slu
slump
sm
small
smaller
smallest
smallness
smear
smeared
smearing
smec
smectite
smectites
smoke
smooth
smoothed
smoother
smoothing
smoothly
smoothness
sn
snapsh
snapshot
snapshots
snow
so
soc
soci
sodium
soft
softening
softer
software
soil
soils
sol
solar
sole
solely
solen
solenoidal
solid
solidification
solids
solidus
solit
solitary
soliton
solitons
sols
solstice
solstices
solub
solubilities
solubility
soluble
solute
solutes
solution
solutions
solv
solve
solved
solvent
solver
solvers
solves
solving
some
somehow
something
sometimes
somew
somewhat
somewhere
son
sonic
soon
sophistic
sophisticated
sorbed
sorption
sort
sorted
sorting
sou
sought
sound
sounder
sounding
soundings
sour
source
sourced
sources
sout
south
southeast
southeastern
southern
southernmost
southward
southwest
southwestern
sp
spac
space
spacecraft
spaced
spaceflight
spacelike
spaces
spacetime
spacetimes
spacing
spacings
spall
spallation
span
spanned
spanning
spans
spark
spars
sparse
sparsely
spati
spatial
spatially
spatio
spatiotemporal
spax
spaxel
spaxels
spe
speaking
spec
special
specialized
specially
speciation
species
specific
specifically
specification
specifications
specified
specifies
specify
specifying
specim
specimen
specimens
speck
speckle
spect
spectacular
spectra
spectral
spectrally
spectro
spectrogram
spectrograms
spectrograph
spectrographs
spectromet
spectrometer
spectrometers
spectrometric
spectrometry
spectrophot
spectrophotometric
spectrophotometry
spectropolar
spectropolarimetric
spectrosc
spectroscopic
spectroscopically
spectroscopy
spectrum
specul
specular
speculate
speculated
speculation
speculative
speed
speeds
speleothem
spend
spends
spent
sph
sphal
sphe
spher
sphere
spheres
spheric
spherical
spherically
sphericity
sphero
spheroid
spheroidal
spheroids
spherule
spherules
spic
spicules
spik
spike
spiked
spikes
spin
spine
spinel
spinels
spinning
spinor
spinors
spins
spir
spiral
spirals
spirit
spite
spl
splash
spline
split
splits
splitting
splittings
spon
spontaneous
spontaneously
sporad
sporadic
spot
spots
spotted
spread
spreading
spreads
spring
springs
sprite
sprites
spun
spur
spuri
spurious
sputter
sputtered
sputtering
squ
square
squared
squares
sque
squee
squeezed
squeezing
sr
ss
st
stabil
stability
stabilization
stabilize
stabilized
stabilizes
stabilizing
stable
stably
stack
stacked
stacking
stacks
staff
stage
stages
stagger
staggered
stagn
stagnant
stagnation
stain
stainless
stal
stalag
stall
stamp
stand
standard
standardized
standards
standing
stands
star
starburst
starbursts
stark
starless
starlight
stars
starsp
starspots
start
started
starting
starts
stat
state
stated
statement
statements
states
static
station
stationarity
stationary
stations
statis
statistic
statistical
statistically
statistics
status
stay
stays
ste
steadily
steady
steam
steel
steep
steepen
steepening
steepens
steeper
steepest
steeply
steepness
stellar
stem
stemming
stems
step
stepped
stepping
steps
stepwise
ster
stere
stereo
sterile
sti
stic
stick
sticking
sticks
stiff
stiffness
still
stim
stimulated
stir
stirred
stirring
stishovite
sto
stoch
stochastic
stochastically
stochasticity
stock
stoichi
stoichiometric
stoichiometry
stone
stones
stony
stop
stopped
stopping
stops
storage
store
stored
storm
storms
story
str
stra
strag
stragg
stragglers
strahl
straight
straightforward
straightforwardly
strain
strains
strand
strands
strang
strange
stras
strasbg
strat
strata
strateg
strategies
strategy
strati
stratification
stratified
stratig
stratigraph
stratigraphic
stratigraphically
stratigraphy
stratosphere
stratospheric
stray
stre
streak
streaks
stream
streamer
streamers
streaming
streamline
streamlines
streams
streng
strength
strengthen
strengthened
strengthening
strengthens
strengths
stress
stressed
stresses
stret
stretch
stretched
stretches
stretching
stretchy
stri
striations
strict
strictly
strike
strikes
striking
strikingly
string
stringent
strings
strip
stripe
stripes
stripped
stripping
strips
stro
stroke
strokes
stron
strong
stronger
strongest
strongly
strontium
struc
struct
structural
structurally
structure
structured
structures
stud
student
students
studied
studies
study
studying
sty
style
styles
su
sub
suba
subaerial
subauroral
subc
subcl
subclass
subclasses
subcluster
subclusters
subcritical
subd
subdiv
subdivided
subdivision
subdominant
subduc
subducted
subducting
subduction
subdwarf
subdwarfs
subf
subg
subgiant
subgiants
subglacial
subgrid
subgroup
subgroups
subhal
subhalo
subhaloes
subhalos
subhorizon
subject
subjected
subjective
subjects
subl
suble
subleading
sublim
sublimation
subm
submarine
submerg
submic
submicron
submill
submillimeter
submillimetre
submitted
submm
subp
subpop
subpopulation
subpopulations
subreg
subregion
subregions
subs
subsample
subsamples
subsc
subscript
subscripts
subsection
subsections
subsequ
subsequent
subsequently
subset
subsets
subsi
subsidence
subsolar
subsonic
subspace
subst
substan
substances
substanti
substantial
substantially
substellar
substit
substitute
substituted
substituting
substitution
substorm
substorms
substrate
substrates
substructure
substructures
subsurface
subsystem
subsystems
subt
subtended
subtle
subtract
subtracted
subtracting
subtraction
subtropical
subtype
subtypes
suc
succeed
succeeded
succes
success
successful
successfully
succession
successions
successive
successively
such
sud
sudden
suddenly
suev
suff
suffer
suffered
suffers
suffice
suffices
suffici
sufficient
sufficiently
sug
sugges
suggest
suggested
suggesting
suggestion
suggestions
suggestive
suggests
suit
suitable
suitably
suite
suited
suites
sulf
sulfate
sulfates
sulfide
sulfides
sulfur
sulfuric
sulph
sulphate
sulphide
sulphides
sulphur
sum
summ
summar
summarised
summarize
summarized
summarizes
summary
summation
summed
summer
summing
summit
sums
sun
sunlight
sunlit
sunrise
sunset
sunspot
sunspots
sunward
sup
super
superb
superbubble
superc
supercluster
superclusters
superconduc
superconducting
supercritical
superf
superflu
superfluid
superg
supergiant
supergiants
supergravity
superh
superhorizon
superhump
superhumps
superimp
superimposed
superior
superluminal
superm
supermassive
supernov
supernova
supernovae
superout
superp
superposed
superposition
superpotential
superradi
supers
supersaturated
supersaturation
supersc
superscript
supersonic
superst
supersymmetric
supersymmetry
superwind
supp
supplement
supplementary
supplemented
supplied
supplies
supply
supplying
support
supported
supporting
supports
suppose
supposed
suppress
suppressed
suppresses
suppressing
suppression
suprathermal
sur
sure
surely
surf
surface
surfaces
surficial
surge
surges
surp
surprise
surprising
surprisingly
surrog
surrogate
surround
surrounded
surrounding
surroundings
surrounds
surv
surve
survey
surveyed
surveys
surviv
survival
survive
survived
survives
surviving
sus
suscepti
susceptibility
susceptible
susp
suspect
suspected
suspended
suspension
suspensions
sust
sustain
sustained
suture
sw
swar
swarm
swarms
swath
swe
sweep
sweeping
sweeps
swell
swept
swing
swir
switch
switched
switches
switching
sy
sym
symb
symbiotic
symbol
symbols
symmet
symmetric
symmetrical
symmetrically
symmetries
symmetry
symp
sympl
symplectic
syn
synch
synchron
synchronization
synchronized
synchronous
synchrotron
synoptic
synt
synthe
synthesis
synthesize
synthesized
synthetic
synthetics
sys
system
systematic
systematically
systematics
systemic
systems
t
t0
t1
t2
tO
tSZ
ta
tab
table
tables
tabulated
tach
tachocline
tachy
tachyon
tachyonic
tack
tad
taenite
tag
tagged
tail
tailored
tails
tailward
tak
take
taken
takes
taking
tal
talc
talk
tall
tan
tang
tangent
tangential
tanh
tank
tant
tape
taper
tapered
targ
target
targeted
targeting
targets
tas
task
tasks
tau
tax
taxa
taxonomic
tb
te
team
teams
tearing
tech
techn
techni
technical
technically
technique
techniques
technological
technologies
technology
tect
tecton
tectonic
tectonically
tectonics
ted
tek
tektites
tel
telec
telem
telemetry
telep
telescope
telescopes
teleseismic
tell
tells
telluric
tem
temp
tempera
temperate
temperature
temperatures
templ
template
templates
tempor
temporal
temporally
temporarily
temporary
tempting
ten
tend
tended
tendency
tending
tends
tens
tensile
tension
tensor
tensors
tent
tentative
tentatively
tenth
tenths
tenuous
teph
tephra
ter
term
termed
termin
terminal
terminate
terminated
terminates
termination
terminator
terminology
terms
tern
ternary
terr
terrace
terraces
terrain
terrains
terrane
terranes
terrestrial
terrigenous
tertiary
tes
test
testable
tested
testing
tests
tet
tether
tetra
tetrad
tetrahed
tetrahedra
tetrahedral
tetrahedron
tex
text
textbook
textural
texture
textures
th
than
thank
thanked
thanks
that
thaw
the
their
theirs
them
thems
themselves
then
theor
theore
theorem
theorems
theoretical
theoretically
theories
theory
ther
there
thereafter
thereby
therefore
therein
thereof
therm
thermal
thermalization
thermalized
thermally
thermo
thermoc
thermochemical
thermocline
thermodynam
thermodynamic
thermodynamical
thermodynamically
thermodynamics
thermohaline
thermonuclear
thermosphere
thermospheric
these
thesis
they
thick
thickened
thickening
thicker
thickness
thicknesses
thin
thing
things
think
thinned
thinner
thinning
third
thirds
this
thol
thole
tholei
tholeiites
tholeiitic
thor
thorium
thorough
thoroughly
those
though
thought
thous
thousand
thousands
thread
threads
threat
three
threshold
thresholds
thro
throat
through
throughout
throughput
throw
thrust
thrusting
thumb
thunder
thunderstorm
thunderstorms
thus
ti
tic
tick
tid
tidal
tidally
tide
tides
tie
tied
ties
tight
tighter
tightly
til
tile
tiles
till
tilt
tilted
tilting
tilts
tim
time
timelike
times
timesc
timescale
timescales
timest
timestep
timing
timings
tin
tiny
tion
tional
tions
tip
tips
tiss
tissue
tit
titan
titanium
titanomagn
titanomagnetite
title
titration
tive
tively
tl
to
today
toget
together
toler
tolerance
tom
tomographic
tomography
ton
tonal
tone
toned
tong
tongue
tons
too
took
tool
tools
top
topic
topics
topographic
topography
topological
topologically
topologies
topology
tops
topside
tor
tori
torn
toroidal
torque
torques
torsion
torsional
tort
torus
tot
total
totally
totals
touch
tour
toward
towards
tower
toy
tr
tra
trac
trace
traced
traceless
tracer
tracers
traces
trachy
tracing
track
tracked
tracker
tracking
tracks
tract
tractable
traction
trade
tradition
traditional
traditionally
trail
trailing
trails
train
trained
training
trains
trajectories
trajectory
tran
trans
transc
transduc
transect
transects
transfer
transferred
transferring
transfers
transform
transformation
transformations
transformed
transforming
transforms
transg
transi
transient
transients
transit
transiting
transition
transitional
transitions
transits
transl
translate
translated
translates
translation
translational
translations
translucent
transmission
transmissions
transmit
transmittance
transmitted
transmitter
transmitters
transmitting
transonic
transp
transparency
transparent
transport
transportation
transported
transporting
transports
transversal
transverse
trap
trapped
trapping
traps
trav
travel
traveled
traveling
travelling
travels
traveltime
traveltimes
travers
traverse
traversed
traverses
traversing
tre
treat
treated
treating
treatment
treatments
treats
tree
trees
trem
tremend
tremendous
tremor
tren
trench
trend
trending
trends
tri
triad
trial
trials
triang
triangle
triangles
triangular
triangulation
triaxial
triaxiality
trib
tribut
tributaries
tribution
tried
tries
trig
trigger
triggered
triggering
triggers
trigon
trigonometric
trim
trip
tripl
triple
triples
triplet
triplets
trispectrum
tritium
trivial
trivially
tro
troilite
tron
trop
tropical
tropics
tropopause
troposphere
tropospheric
trou
trough
troughs
true
truly
trunc
truncate
truncated
truncation
trust
truth
try
trying
ts
tsun
tsunami
tt
tub
tube
tubes
tuff
tun
tune
tuned
tungsten
tuning
tunn
tunnel
tunneling
tur
turb
turbid
turbidity
turbul
turbulence
turbulent
ture
tures
turn
turnaround
turned
turning
turnoff
turnover
turns
tw
tween
twelve
twenty
twice
twilight
twin
twins
twist
twisted
twisting
two
twofold
typ
type
types
typical
typically
u
ub
ubiqu
ubiquitous
ug
ugriz
uk
ul
ult
ultimate
ultimately
ultra
ultrac
ultracompact
ultrahigh
ultral
ultraluminous
ultramafic
ultrarelativistic
ultrasonic
ultraviolet
um
umb
umbra
umbral
un
unable
unabsorbed
unac
unacc
unaccept
unacceptable
unaff
unaffected
unal
unaltered
unambigu
unambiguous
unambiguously
unav
unavailable
unavoid
unavoidable
unb
unbiased
unbinned
unbl
unblock
unbound
unbounded
unbro
unbroken
unc
uncertain
uncertainties
uncertainty
unch
unchanged
unclear
uncom
uncommon
uncon
unconform
unconformity
unconsolidated
unconstrained
uncont
uncorrected
uncorrelated
uncover
uncovered
und
unde
under
underd
underdense
underestim
underestimate
underestimated
underestimates
underestimating
underestimation
underg
undergo
undergoes
undergoing
undergone
underground
underl
underlain
underlying
underneath
underp
underpredic
unders
undersaturated
underst
understand
understanding
understood
undert
undertaken
underway
underwent
undes
undet
undetectable
undetected
undetermined
undist
undisturbed
undoubtedly
undulations
une
unequ
unequal
unequiv
uneven
unex
unexp
unexpected
unexpectedly
unexpl
unexplained
unexplored
unf
unfilled
unfiltered
unfold
unfortunately
ung
uni
unidentified
unidirectional
unification
unified
uniform
uniformity
uniformly
unimodal
unimp
unimportant
unipolar
uniqu
unique
uniquely
uniqueness
unit
unitarity
unitary
units
unity
univers
universal
universality
universally
universe
universes
unknown
unknowns
unl
unlensed
unless
unlik
unlike
unlikely
unload
unloading
unm
unmagnetized
unmod
unn
unnecess
unnecessary
unob
unobscured
unobserv
unobserved
unp
unperturbed
unphysical
unpolarized
unprecedented
unpub
unpublished
unre
unrealistic
unrealistically
unreason
unreasonable
unrec
unred
unrel
unrelated
unreliable
unresolved
uns
unsaturated
unseen
unsh
unshocked
unst
unstable
unsur
unt
until
unus
unusual
unusually
unve
unw
unwanted
unwe
unweighted
up
upcoming
upd
update
updated
updates
updating
upflow
upflows
upg
upgrade
upgraded
upl
uplift
uplifted
upon
upp
upper
uppermost
ups
upstream
upt
uptake
upturn
upward
upwards
upwelling
upwind
ur
uran
uranium
uranyl
urban
ure
ureilites
urn
us
usable
usage
use
used
useful
usefulness
user
users
uses
using
usual
usually
ut
util
utility
utilization
utilize
utilized
utilizes
utilizing
uv
v
v1
v2
vac
vacu
vacua
vacuum
val
valence
valid
validate
validated
validating
validation
validity
valley
valleys
valu
valuable
value
valued
values
valve
van
vanish
vanishes
vanishing
vap
vapor
vaporization
vapour
var
vari
variabilities
variability
variable
variables
variance
variances
variant
variants
variation
variational
variations
varied
varies
variety
various
vary
varying
vast
vastly
ve
vector
vectors
veget
vegetation
vehic
vehicle
vehicles
veiling
vein
veins
vel
veloc
velocities
velocity
vent
venti
venting
vents
ver
verification
verified
verify
verifying
vers
versa
version
versions
versus
vertex
vertical
vertically
vertices
very
ves
vesic
vesicles
vesicular
vessel
veto
vi
via
viability
viable
vial
vib
vibration
vibrational
vibrationally
vibrations
vic
vice
vicinity
vide
video
view
viewed
viewing
viewpoint
views
vig
vign
vignetting
vigorous
vii
viii
viol
violate
violated
violates
violating
violation
violations
violent
violet
vir
virial
virialization
virialized
virt
virtual
virtually
virtue
vis
visc
viscoelastic
viscosities
viscosity
viscous
visib
visibilities
visibility
visible
vision
visit
visits
visual
visualization
visualize
visualized
visually
vit
vital
viz
vo
void
voids
vol
volati
volatil
volatile
volatiles
volatility
volc
volcan
volcanic
volcanics
volcanism
volcano
volcanoes
volt
voltage
voltages
volum
volume
volumes
volumetric
von
vor
vort
vortex
vortices
vorticity
vox
vs
vul
vulner
vulnerable
w
w3
wa
wadsleyite
waiting
wake
wakes
wal
walk
wall
walls
wander
want
wanted
wants
war
ward
warm
warmer
warming
warning
warp
warped
warping
warr
warranted
was
wash
washed
waste
wasting
water
waters
watershed
wav
wave
waveband
wavebands
wavef
wavefield
waveform
waveforms
wavefront
wavefunction
wavegu
waveguide
wavel
wavelength
wavelengths
wavelet
wavelets
wavenum
wavenumber
wavenumbers
waves
wavevector
wavy
wax
way
ways
we
weak
weaken
weakened
weakening
weakens
weaker
weakest
weakly
weakness
wealth
weather
weathered
weathering
web
website
wed
wedge
wedges
week
weekly
weeks
weigh
weighed
weight
weighted
weighting
weights
weld
well
wells
went
were
west
wester
westerly
western
westward
wet
wh
what
whatever
whe
wheel
when
whenever
[...]
